{
  "version": "1.0",
  "truncation": null,
  "padding": null,
  "added_tokens": [
    {
      "id": 0,
      "content": "<pad>",
      "single_word": false,
      "lstrip": false,
      "rstrip": false,
      "normalized": false,
      "special": true
    },
    {
      "id": 1,
      "content": "<bos>",
      "single_word": false,
      "lstrip": false,
      "rstrip": false,
      "normalized": false,
      "special": true
    },
    {
      "id": 2,
      "content": "<eos>",
      "single_word": false,
      "lstrip": false,
      "rstrip": false,
      "normalized": false,
      "special": true
    },
    {
      "id": 3,
      "content": "<unk>",
      "single_word": false,
      "lstrip": false,
      "rstrip": false,
      "normalized": false,
      "special": true
    }
  ],
  "normalizer": null,
  "pre_tokenizer": {
    "type": "ByteLevel",
    "add_prefix_space": false,
    "trim_offsets": true,
    "use_regex": true
  },
  "post_processor": null,
  "decoder": {
    "type": "ByteLevel",
    "add_prefix_space": true,
    "trim_offsets": true,
    "use_regex": true
  },
  "model": {
    "type": "BPE",
    "dropout": null,
    "unk_token": "<unk>",
    "continuing_subword_prefix": null,
    "end_of_word_suffix": null,
    "fuse_unk": false,
    "byte_fallback": false,
    "ignore_merges": false,
    "vocab": {
      "<pad>": 0,
      "<bos>": 1,
      "<eos>": 2,
      "<unk>": 3,
      "!": 4,
      "\"": 5,
      "#": 6,
      "$": 7,
      "%": 8,
      "&": 9,
      "'": 10,
      "(": 11,
      ")": 12,
      "*": 13,
      "+": 14,
      ",": 15,
      "-": 16,
      ".": 17,
      "/": 18,
      "0": 19,
      "1": 20,
      "2": 21,
      "3": 22,
      "4": 23,
      "5": 24,
      "6": 25,
      "7": 26,
      "8": 27,
      "9": 28,
      ":": 29,
      ";": 30,
      "<": 31,
      "=": 32,
      ">": 33,
      "?": 34,
      "@": 35,
      "A": 36,
      "B": 37,
      "C": 38,
      "D": 39,
      "E": 40,
      "F": 41,
      "G": 42,
      "H": 43,
      "I": 44,
      "J": 45,
      "K": 46,
      "L": 47,
      "M": 48,
      "N": 49,
      "O": 50,
      "P": 51,
      "Q": 52,
      "R": 53,
      "S": 54,
      "T": 55,
      "U": 56,
      "V": 57,
      "W": 58,
      "X": 59,
      "Y": 60,
      "Z": 61,
      "[": 62,
      "\\": 63,
      "]": 64,
      "^": 65,
      "_": 66,
      "`": 67,
      "a": 68,
      "b": 69,
      "c": 70,
      "d": 71,
      "e": 72,
      "f": 73,
      "g": 74,
      "h": 75,
      "i": 76,
      "j": 77,
      "k": 78,
      "l": 79,
      "m": 80,
      "n": 81,
      "o": 82,
      "p": 83,
      "q": 84,
      "r": 85,
      "s": 86,
      "t": 87,
      "u": 88,
      "v": 89,
      "w": 90,
      "x": 91,
      "y": 92,
      "z": 93,
      "{": 94,
      "|": 95,
      "}": 96,
      "~": 97,
      "¡": 98,
      "¢": 99,
      "£": 100,
      "¤": 101,
      "¥": 102,
      "¦": 103,
      "§": 104,
      "¨": 105,
      "©": 106,
      "ª": 107,
      "«": 108,
      "¬": 109,
      "®": 110,
      "¯": 111,
      "°": 112,
      "±": 113,
      "²": 114,
      "³": 115,
      "´": 116,
      "µ": 117,
      "¶": 118,
      "·": 119,
      "¸": 120,
      "¹": 121,
      "º": 122,
      "»": 123,
      "¼": 124,
      "½": 125,
      "¾": 126,
      "¿": 127,
      "À": 128,
      "Á": 129,
      "Â": 130,
      "Ã": 131,
      "Ä": 132,
      "Å": 133,
      "Æ": 134,
      "Ç": 135,
      "È": 136,
      "É": 137,
      "Ê": 138,
      "Ë": 139,
      "Ì": 140,
      "Í": 141,
      "Î": 142,
      "Ï": 143,
      "Ð": 144,
      "Ñ": 145,
      "Ò": 146,
      "Ó": 147,
      "Ô": 148,
      "Õ": 149,
      "Ö": 150,
      "×": 151,
      "Ø": 152,
      "Ù": 153,
      "Ú": 154,
      "Û": 155,
      "Ü": 156,
      "Ý": 157,
      "Þ": 158,
      "ß": 159,
      "à": 160,
      "á": 161,
      "â": 162,
      "ã": 163,
      "ä": 164,
      "å": 165,
      "æ": 166,
      "ç": 167,
      "è": 168,
      "é": 169,
      "ê": 170,
      "ë": 171,
      "ì": 172,
      "í": 173,
      "î": 174,
      "ï": 175,
      "ð": 176,
      "ñ": 177,
      "ò": 178,
      "ó": 179,
      "ô": 180,
      "õ": 181,
      "ö": 182,
      "÷": 183,
      "ø": 184,
      "ù": 185,
      "ú": 186,
      "û": 187,
      "ü": 188,
      "ý": 189,
      "þ": 190,
      "ÿ": 191,
      "Ā": 192,
      "ā": 193,
      "Ă": 194,
      "ă": 195,
      "Ą": 196,
      "ą": 197,
      "Ć": 198,
      "ć": 199,
      "Ĉ": 200,
      "ĉ": 201,
      "Ċ": 202,
      "ċ": 203,
      "Č": 204,
      "č": 205,
      "Ď": 206,
      "ď": 207,
      "Đ": 208,
      "đ": 209,
      "Ē": 210,
      "ē": 211,
      "Ĕ": 212,
      "ĕ": 213,
      "Ė": 214,
      "ė": 215,
      "Ę": 216,
      "ę": 217,
      "Ě": 218,
      "ě": 219,
      "Ĝ": 220,
      "ĝ": 221,
      "Ğ": 222,
      "ğ": 223,
      "Ġ": 224,
      "ġ": 225,
      "Ģ": 226,
      "ģ": 227,
      "Ĥ": 228,
      "ĥ": 229,
      "Ħ": 230,
      "ħ": 231,
      "Ĩ": 232,
      "ĩ": 233,
      "Ī": 234,
      "ī": 235,
      "Ĭ": 236,
      "ĭ": 237,
      "Į": 238,
      "į": 239,
      "İ": 240,
      "ı": 241,
      "Ĳ": 242,
      "ĳ": 243,
      "Ĵ": 244,
      "ĵ": 245,
      "Ķ": 246,
      "ķ": 247,
      "ĸ": 248,
      "Ĺ": 249,
      "ĺ": 250,
      "Ļ": 251,
      "ļ": 252,
      "Ľ": 253,
      "ľ": 254,
      "Ŀ": 255,
      "ŀ": 256,
      "Ł": 257,
      "ł": 258,
      "Ń": 259,
      "Ð°": 260,
      "Ð¾": 261,
      "Ð²": 262,
      "Ðµ": 263,
      "Ð¸": 264,
      "Ð½": 265,
      "ÑĢ": 266,
      "Ñģ": 267,
      "ÑĤ": 268,
      "Ð¼": 269,
      "Ð»": 270,
      "Ð·": 271,
      "Ð²Ñ": 272,
      "Ð´": 273,
      "Ñĥ": 274,
      "Ðº": 275,
      "Ð³": 276,
      "Ñı": 277,
      "Ð±": 278,
      "Ð·Ð°": 279,
      "Ð²Ð°": 280,
      "Ñİ": 281,
      "Ñĭ": 282,
      "Ð²ÑĪ": 283,
      "Ð¿": 284,
      "Ð¹": 285,
      "Ð²Ñĭ": 286,
      "Ð½Ð¾": 287,
      "ÑĮ": 288,
      "Ñĩ": 289,
      "Ñħ": 290,
      "ÑĢÐ¾": 291,
      "Ñī": 292,
      "ÑģÑı": 293,
      "Ð²Ð¾": 294,
      "ÑģÑĤ": 295,
      "ÐµÐ¼": 296,
      "Ð³Ð¾": 297,
      "ÑĢÐ°": 298,
      "ÐµÐ½": 299,
      "Ð´Ð¾": 300,
      "Ð¶": 301,
      "ÐºÐ¾": 302,
      "Ð¼Ð¸": 303,
      "ÑĪ": 304,
      "Ð¸Ð²Ð°": 305,
      "Ð½Ñĭ": 306,
      "ÑİÑī": 307,
      "ÐºÐ°": 308,
      "Ð½Ð¸": 309,
      "ÐµÑĢ": 310,
      "Ð»Ð¾": 311,
      "Ð»Ð¸": 312,
      "Ð²ÑĪÐ¸": 313,
      "Ġt": 314,
      "Ð»Ð°": 315,
      "ÐµÑĤ": 316,
      "Ð»ÑĮ": 317,
      "ÐµÑģ": 318,
      "ÑĨ": 319,
      "he": 320,
      "ÑĤÐ¸": 321,
      "ÑĤÐ¾": 322,
      "Ð²ÑĪÐµ": 323,
      "ÑĢÐ¸": 324,
      "Ð½Ð°": 325,
      "ÑĥÑİ": 326,
      "Ð²Ð¸": 327,
      "Ð´Ð¸": 328,
      "ÑĢÑĥ": 329,
      "ÑĭÐ²Ð°": 330,
      "Ð±Ð°": 331,
      "Ñĳ": 332,
      "ÐºÐ¸": 333,
      "Ġa": 334,
      "Ð´Ðµ": 335,
      "Ð³Ð°": 336,
      "Ð±Ð¾": 337,
      "ou": 338,
      "ÑĢÐ¾Ð²Ð°": 339,
      "Ġs": 340,
      "ÑĤÐµ": 341,
      "ÑĤÐ°": 342,
      "Ð¼Ñĥ": 343,
      "ÑĢÐµ": 344,
      "Ð»Ðµ": 345,
      "ÑİÑīÐ¸": 346,
      "ÑĦ": 347,
      "Ġm": 348,
      "Ð¼Ð°": 349,
      "Ð´Ð°": 350,
      "in": 351,
      "Ġw": 352,
      "Ð±Ðµ": 353,
      "Ð½Ñĥ": 354,
      "Ð»Ñı": 355,
      "Ð¿Ð¾": 356,
      "re": 357,
      "ha": 358,
      "ÑģÑĮ": 359,
      "Ð¼Ð¾": 360,
      "Ð³Ð¸": 361,
      "Ð²Ðµ": 362,
      "Ð²ÑĪÐµÐ¼": 363,
      "nd": 364,
      "Ð°Ð½": 365,
      "Ġthe": 366,
      "Ð°Ñı": 367,
      "Ġb": 368,
      "ÑİÑīÐµ": 369,
      "ÑģÐ¾": 370,
      "Ð²Ð·": 371,
      "Ð±Ð¸": 372,
      "Ð·Ð°Ð¿": 373,
      "Ð±Ñĥ": 374,
      "ÑĤÑĮ": 375,
      "Ð·Ð¸": 376,
      "Ð½Ð½Ð¾": 377,
      "is": 378,
      "Ð²Ñĥ": 379,
      "Ð½Ðµ": 380,
      "or": 381,
      "ÐºÑĥ": 382,
      "Ð´Ñĥ": 383,
      "Ð²Ñģ": 384,
      "ÑĩÐµÑģ": 385,
      "ÑĩÐ¸": 386,
      "Ð·Ð¾": 387,
      "ÑĨÐ¸": 388,
      "Ġf": 389,
      "ÑĩÐ°": 390,
      "er": 391,
      "ÑģÐ¸": 392,
      "ll": 393,
      "Ð²ÐµÑĢ": 394,
      "ÐµÐ¼Ð¾": 395,
      "it": 396,
      "Ð¶Ð¸": 397,
      "Ð½ÑĭÐ¹": 398,
      "on": 399,
      "ÑģÐºÐ¾": 400,
      "Ð²Ð¾Ð·": 401,
      "ÐµÐ½Ð½Ð¾": 402,
      "Ð¿Ð°": 403,
      "ÑĢÑı": 404,
      "Ð²ÑĪÐ¸Ð¹": 405,
      "Ġd": 406,
      "Ġc": 407,
      "Ð¶Ð°": 408,
      "es": 409,
      "en": 410,
      "Ġn": 411,
      "Ġl": 412,
      "Ð³ÑĢÐ°": 413,
      "Ġy": 414,
      "ÑģÑĤÐ¸": 415,
      "Ð¿Ð¸": 416,
      "Ð½ÑĭÐ¼": 417,
      "Ð½ÑĭÑħ": 418,
      "Ð½ÑĥÑİ": 419,
      "Ð½ÑĭÐ¼Ð¸": 420,
      "Ġth": 421,
      "Ð½Ð°Ñı": 422,
      "Ð½ÑĭÐµ": 423,
      "ar": 424,
      "ÑīÐ¸": 425,
      "ÑĪÑĮ": 426,
      "Ġh": 427,
      "ÑĩÐ¸Ð²Ð°": 428,
      "Ġo": 429,
      "Ġto": 430,
      "Ð²ÑĭÐ²Ð°": 431,
      "ÑĪÐ¸": 432,
      "Ġyou": 433,
      "Ð»Ñĥ": 434,
      "Ð±ÐµÑģ": 435,
      "Ġp": 436,
      "ÐµÐ½Ð¸": 437,
      "hat": 438,
      "ÑģÐºÐ¸": 439,
      "Ð²ÑĪÐ°Ñı": 440,
      "Ð²ÑĪÐ¸Ð¼Ð¸": 441,
      "Ð²ÑĪÐ¸Ñħ": 442,
      "Ð²ÑĪÐµÐµ": 443,
      "Ð²ÑĪÐµÐ¹": 444,
      "Ð²ÑĪÐµÐ³Ð¾": 445,
      "Ð²ÑĪÑĥÑİ": 446,
      "Ð²ÑĪÐ¸Ðµ": 447,
      "Ð²ÑĪÐ¸Ð¼": 448,
      "Ð²ÑĪÐµÑİ": 449,
      "Ð²ÑĪÐµÐ¼Ñĥ": 450,
      "ÑģÑĤÐ¾": 451,
      "Ð·Ð°Ñģ": 452,
      "Ð»Ð¸Ð²Ð°": 453,
      "Ð±ÐµÐ·": 454,
      "ÐµÐ¼Ñĭ": 455,
      "ÑĢÑĭ": 456,
      "Ð³Ñĥ": 457,
      "Ð»ÑĮÐ½Ð¾": 458,
      "ÑİÑīÐµÐ¼": 459,
      "ĠI": 460,
      "ÑħÐ¾": 461,
      "Ð°ÑĢ": 462,
      "Ð±ÑĢÐ°": 463,
      "Ġhe": 464,
      "ÑĪÐµ": 465,
      "ÑģÑĤÐ°": 466,
      "ÑĨÐ°": 467,
      "ÑĤÑĭÐ²Ð°": 468,
      "ve": 469,
      "ot": 470,
      "Ð¼Ðµ": 471,
      "Ð²ÑĭÑģ": 472,
      "st": 473,
      "Ġand": 474,
      "ow": 475,
      "Ð·Ð°ÑĤ": 476,
      "Ð²Ð¾Ñģ": 477,
      "ing": 478,
      "an": 479,
      "Ġof": 480,
      "om": 481,
      "ÑĩÐ½Ð¾": 482,
      "ÐµÑĤÐµ": 483,
      "Ġg": 484,
      "Ð½Ñı": 485,
      "Ð²ÑĭÐ¿": 486,
      "ÑĦÐ¸": 487,
      "Ð¶Ðµ": 488,
      "Ð»Ñİ": 489,
      "Ð´Ð²Ñĥ": 490,
      "at": 491,
      "Ð´ÐµÑĢ": 492,
      "Ð·Ð°Ðº": 493,
      "Ġbe": 494,
      "Ð»Ñĳ": 495,
      "ÑħÐ°": 496,
      "Ð°Ðº": 497,
      "Ð¶Ð¸Ð²Ð°": 498,
      "Ð³Ðµ": 499,
      "Ð»ÐµÐ½": 500,
      "se": 501,
      "Ð½Ð¾Ð¼": 502,
      "ÑĢÐ¸Ð²Ð°": 503,
      "ÐºÐ¸Ð²Ð°": 504,
      "Ð±ÑĢÐ¾": 505,
      "ÑĩÐµÑģÐºÐ¾": 506,
      "Ð²ÑĤÐ¾": 507,
      "Ð´ÑĢÐ¾": 508,
      "ÐºÐµ": 509,
      "ÑĤÑĥ": 510,
      "ÑĨÐµ": 511,
      "Ġmy": 512,
      "ÑĤÑĮÑģÑı": 513,
      "ÑĩÐµÑģÐºÐ¸": 514,
      "Ð¼ÐµÑĤ": 515,
      "Ġin": 516,
      "ce": 517,
      "ÑİÑīÐ¸Ð¹": 518,
      "ÐµÑĪÑĮ": 519,
      "Ġha": 520,
      "ÑģÐ°": 521,
      "ÑĤÐµÐ»ÑĮ": 522,
      "le": 523,
      "ÑĤÑĭ": 524,
      "ÑİÑĤ": 525,
      "ay": 526,
      "Ð²Ñı": 527,
      "Ð±Ð»Ð°": 528,
      "Ð·Ð°Ð³": 529,
      "Ð½Ð¾Ð¹": 530,
      "ÑĪÐ°": 531,
      "ÑĪÐ¸Ð²Ð°": 532,
      "ld": 533,
      "ÑģÑĤÑĮ": 534,
      "ir": 535,
      "et": 536,
      "Ð·Ð°ÐºÐ¾": 537,
      "ed": 538,
      "Ð°Ð½ÑĤÐ¸": 539,
      "ÐĲ": 540,
      "ut": 541,
      "Ð²ÐµÐ½": 542,
      "ÑĩÐµ": 543,
      "ÑīÐµ": 544,
      "Ð°Ð²ÑĤÐ¾": 545,
      "Ð½Ð¾Ñİ": 546,
      "Ð»ÐµÑĤ": 547,
      "Ð¿Ðµ": 548,
      "Ð¿ÑĢÐ¾": 549,
      "Ð´Ð²ÑĥÑħ": 550,
      "Ð´ÑĢÐ°": 551,
      "ÑĳÑĢ": 552,
      "Ġme": 553,
      "Ð²Ð»Ñı": 554,
      "im": 555,
      "ÑĤÐµÑĢ": 556,
      "ÐºÐ¾Ð¼": 557,
      "ÐºÐ°Ð¼": 558,
      "Ð½Ð¾Ð³Ð¾": 559,
      "Ð±Ð»Ð°Ð³Ð¾": 560,
      "ith": 561,
      "ÑģÑĤÑĢÐ¾": 562,
      "'s": 563,
      "ÑģÐºÐ°": 564,
      "ÑİÑīÐµÐ³Ð¾": 565,
      "ÑİÑīÐ¸Ð¼": 566,
      "ÑİÑīÐµÐ¹": 567,
      "ÑİÑīÐ¸Ñħ": 568,
      "ÑİÑīÑĥÑİ": 569,
      "ÑİÑīÐ°Ñı": 570,
      "ÑİÑīÐ¸Ðµ": 571,
      "ÑİÑīÐµÑİ": 572,
      "ÑİÑīÐµÐ¼Ñĥ": 573,
      "ÑİÑīÐ¸Ð¼Ð¸": 574,
      "ÑİÑīÐµÐµ": 575,
      "Ð½Ð¾Ðµ": 576,
      "Ġnot": 577,
      "ÑĢÐ¾Ð²Ð°Ð½": 578,
      "ch": 579,
      "Ð³Ð¸Ð²Ð°": 580,
      "Ð½Ð¾Ð¼Ñĥ": 581,
      "ÑģÑĤÐ²Ð¾": 582,
      "Ð³Ð¾ÑĢ": 583,
      "ÑīÐ°": 584,
      "Ð´Ñĭ": 585,
      "Ð²ÑĪÐ¸Ð¹ÑģÑı": 586,
      "Ð³ÑĢÐ¾": 587,
      "Ġthat": 588,
      "Ñį": 589,
      "Ġis": 590,
      "gh": 591,
      "Ð²ÑĭÑģÐ¾": 592,
      "Ð³Ð»Ð°": 593,
      "ÐºÐ°Ð¼Ð¸": 594,
      "And": 595,
      "ÐºÐ°Ñħ": 596,
      "Ð³ÑĢÑĥ": 597,
      "Ð²Ð°Ð½": 598,
      "Ð»Ð¸ÑģÑĮ": 599,
      "ÑĦÐ¾": 600,
      "Ġfor": 601,
      "Ð°Ñģ": 602,
      "Ð²Ð¾Ð´Ð¾": 603,
      "Ð»Ð¾ÑģÑĮ": 604,
      "ke": 605,
      "Ð²Ð¿": 606,
      "Ð»ÑģÑı": 607,
      "Ð»Ð°ÑģÑĮ": 608,
      "Ġu": 609,
      "Ð²ÐµÑĤ": 610,
      "our": 611,
      "Ð·Ð°Ñħ": 612,
      "ÑĨÐ¸Ð¾": 613,
      "Ġwe": 614,
      "Ð²ÑĭÐº": 615,
      "Ð·Ð°ÐºÐ°": 616,
      "oo": 617,
      "Ð»Ð¾Ð³Ð¸": 618,
      "Ð·Ð°ÑģÑĤ": 619,
      "ÐºÐ¾Ð¹": 620,
      "ill": 621,
      "Ġe": 622,
      "ÑģÐµ": 623,
      "her": 624,
      "ÐµÑģÑĮ": 625,
      "Ð²Ð¾Ð´": 626,
      "Ġwith": 627,
      "ÐºÐ¾Ñİ": 628,
      "ÑħÐ¸": 629,
      "Ð·Ð°Ð¿Ð¾": 630,
      "ÑģÐº": 631,
      "ent": 632,
      "Ð»Ñĭ": 633,
      "Ð¼ÐµÐ½": 634,
      "Ġit": 635,
      "Ð¼Ñĭ": 636,
      "Ð·Ð¸ÑĢÐ¾Ð²Ð°": 637,
      "Ġyour": 638,
      "Ð½ÐµÐ¹": 639,
      "ad": 640,
      "ÑĤÑĢÐ¸": 641,
      "Ð¶Ñĥ": 642,
      "Ð°Ð´": 643,
      "Ð±ÐµÑĢ": 644,
      "Ð²ÑĭÑģÐ¾ÐºÐ¾": 645,
      "Ð·Ñĥ": 646,
      "ri": 647,
      "Ð´ÐµÐ½": 648,
      "Ð°Ð»ÑĮ": 649,
      "Ð³Ð¸Ð´ÑĢÐ¾": 650,
      "Ð½Ð¸Ðµ": 651,
      "Ð½Ð¸ÑĩÐ°": 652,
      "Ð°Ð¼": 653,
      "Ð°Ð»": 654,
      "Ð´ÑĭÐ²Ð°": 655,
      "ÑĤÐ¾ÑĢ": 656,
      "Ð·Ð°Ð¼Ð°": 657,
      "Ġthou": 658,
      "Ð²ÑĭÑħ": 659,
      "ÐĴ": 660,
      "Ġst": 661,
      "Ð·ÑĭÐ²Ð°": 662,
      "ÑĳÐ½": 663,
      "ÑĢÐµÐ½": 664,
      "Ð·Ð°ÑĪ": 665,
      "'d": 666,
      "Ġk": 667,
      "Ð·Ðµ": 668,
      "ome": 669,
      "ÑĤÑģÑı": 670,
      "Ð¿Ñĥ": 671,
      "Ð·Ð°Ð³Ð¾": 672,
      "ÑģÑĤÐ²Ñĥ": 673,
      "ÑĤÐ¸ÑĢÐ¾Ð²Ð°": 674,
      "Ġhis": 675,
      "Ð²ÑĭÑĤ": 676,
      "ÐµÑĤÑģÑı": 677,
      "Ð¹ÑĤÐµ": 678,
      "Ð±Ñĭ": 679,
      "ght": 680,
      "Ð½ÑĤÐ¾": 681,
      "Ð½Ð¸Ñı": 682,
      "EN": 683,
      "Ð¶ÐµÐ½": 684,
      "ÐµÑĤÐ¸": 685,
      "Ð±Ð°ÑĢ": 686,
      "ord": 687,
      "Ð·Ð°Ð¸": 688,
      "id": 689,
      "The": 690,
      "as": 691,
      "Ð²Ð¾Ð»Ð¾": 692,
      "Ð¿ÑĭÐ²Ð°": 693,
      "Ġre": 694,
      "Ð²ÑģÑĤ": 695,
      "Ġhave": 696,
      "Ð³ÑĢÐµ": 697,
      "ÑĩÐµÑĢ": 698,
      "IN": 699,
      "ly": 700,
      "ÐµÐ¹": 701,
      "ra": 702,
      "Ð±Ð¸Ð¾": 703,
      "Ġli": 704,
      "Ġhim": 705,
      "Ð²ÑĪÐ¸Ð¼Ð¸ÑģÑı": 706,
      "Ð²ÑĪÐ°ÑıÑģÑı": 707,
      "Ð²ÑĪÐµÐµÑģÑı": 708,
      "Ð²ÑĪÐµÐ³Ð¾ÑģÑı": 709,
      "Ð²ÑĪÐ¸ÐµÑģÑı": 710,
      "Ð²ÑĪÐµÐ¼ÑĥÑģÑı": 711,
      "Ð²ÑĪÐµÐ¼ÑģÑı": 712,
      "Ð²ÑĪÐ¸ÑħÑģÑı": 713,
      "Ð²ÑĪÐµÐ¹ÑģÑı": 714,
      "Ð²ÑĪÑĥÑİÑģÑı": 715,
      "Ð²ÑĪÐ¸Ð¼ÑģÑı": 716,
      "Ð²ÑĪÐµÑİÑģÑı": 717,
      "Ð½ÑĮ": 718,
      "Ð²ÑĢÐ°": 719,
      "Ð±ÑĢÐ¸": 720,
      "ÑģÑĭÐ²Ð°": 721,
      "ur": 722,
      "Ġthis": 723,
      "al": 724,
      "IO": 725,
      "ÑģÑĥ": 726,
      "ÑĤÐµÐ»ÑĮÐ½Ð¾": 727,
      "ÑĩÐµÐ½": 728,
      "Ġso": 729,
      "Ð¿ÐµÑĢ": 730,
      "Ð°Ð½Ð°": 731,
      "Ð±Ð¾ÑĢ": 732,
      "Ð²Ð¾ÑĢÐ¾": 733,
      "Ġas": 734,
      "ÑĤÑĢÐ¾": 735,
      "Ð²Ðº": 736,
      "Ġde": 737,
      "Ð»ÐµÐ½Ð½Ð¾": 738,
      "Ð³ÐµÐ½": 739,
      "Ð³Ð°ÑĢ": 740,
      "Ð´Ð¾Ð»": 741,
      "Ðĳ": 742,
      "Ġon": 743,
      "Ð²Ð¾Ðµ": 744,
      "ÑĬ": 745,
      "Ð²Ð»Ð°": 746,
      "ÑģÑĤÐ²Ð¾Ð²Ð°": 747,
      "Ð´Ð¸Ñģ": 748,
      "ÐºÐ½Ñĥ": 749,
      "Ðĵ": 750,
      "ore": 751,
      "ÑĢÐµÑģ": 752,
      "ÑĢÑĭÐ²Ð°": 753,
      "Ð±Ð»Ð¸": 754,
      "ÐµÑĢÐ¸": 755,
      "ÑĤÑĢÐ°": 756,
      "ro": 757,
      "Ð¶Ð´Ð°": 758,
      "ÑĢÐ¾Ð²": 759,
      "AR": 760,
      "hi": 761,
      "Ð·Ð¸ÑĢÑĥ": 762,
      "ÑĤÐ¾Ð¼": 763,
      "Ð²ÑĭÐ¼": 764,
      "Ð²Ð¾ÑĢ": 765,
      "Ð´Ð²Ð¸": 766,
      "Ð½Ð½Ð¾Ð³Ð¾": 767,
      "Ð²Ð¾Ð¹": 768,
      "ÑħÐ½Ñĥ": 769,
      "ould": 770,
      "Ð¿ÑĢÐ¸": 771,
      "Ð½Ð½Ð¾Ð¹": 772,
      "ÑģÑĤÑĮÑİ": 773,
      "Ð½Ð½Ð¾Ñİ": 774,
      "ood": 775,
      "Ð½Ð½Ð¾Ð¼": 776,
      "Ð½ÐµÐ½": 777,
      "Ð½Ð½Ð¾Ðµ": 778,
      "ÐµÐ¼ÑĭÐ¹": 779,
      "Ð½Ð½Ð¾Ð¼Ñĥ": 780,
      "Ð´Ð¸Ð°": 781,
      "Ð²ÑĭÐµ": 782,
      "Ð±ÐµÐ»Ð¾": 783,
      "Ð³Ð¾Ð»Ð¾": 784,
      "Ð²ÑĭÐºÐ°": 785,
      "Ð½Ð¸Ð¸": 786,
      "ÑĤÐ¸ÑĢÑĥ": 787,
      "Ð²Ð½Ñĥ": 788,
      "Ð½Ð¸Ð²Ð°": 789,
      "Ð´Ñı": 790,
      "Ð½Ð¸Ñİ": 791,
      "ÐºÐ¾Ð²": 792,
      "Ð±Ð¾ÑĢÐ¾": 793,
      "ck": 794,
      "ain": 795,
      "Ð·Ð°ÐºÑĥ": 796,
      "ÐµÑĤÐ¾": 797,
      "Ð·Ð°Ð¿Ð°": 798,
      "Ð±Ð°Ð»": 799,
      "ÑģÐºÐ¸Ð¹": 800,
      "ver": 801,
      "ÑĤÐ¸Ð²": 802,
      "Ð²Ð½Ðµ": 803,
      "ÐµÐ¼Ñĥ": 804,
      "est": 805,
      "Ð´Ð¾Ñģ": 806,
      "Ð½Ð¸ÐµÐ¼": 807,
      "Ð´Ð¾Ð¿": 808,
      "Ð·Ð»Ð¾": 809,
      "ÐµÐº": 810,
      "Ð·ÐµÐ¼": 811,
      "ÑģÑĤÑĢÐ°": 812,
      "Ġthy": 813,
      "Ġsha": 814,
      "Ð²ÐµÑģ": 815,
      "ess": 816,
      "Ð²Ñĳ": 817,
      "ÑģÐºÐ¸Ð²Ð°": 818,
      "Ð³ÑĢÐ¸": 819,
      "Ð·Ð°ÑĤÐ¾": 820,
      "Ð³Ð°Ð·Ð¾": 821,
      "ea": 822,
      "ÑİÑĤÑģÑı": 823,
      "Ð·Ð°Ð¼": 824,
      "Ð·Ð°Ð±": 825,
      "ÑİÑīÐ¸Ð¹ÑģÑı": 826,
      "Ġdo": 827,
      "Ð±ÐµÐ½": 828,
      "Ð²Ð¸Ð½": 829,
      "Ð²ÑģÐºÐ¸": 830,
      "ÑģÑĤÐµ": 831,
      "Ġwill": 832,
      "am": 833,
      "Ð³Ð½Ñĥ": 834,
      "ÑħÐ¸Ð²Ð°": 835,
      "Ġno": 836,
      "Ð¾Ð±ÑĢÐ°": 837,
      "ÑĢÑİ": 838,
      "ÐºÐ»Ð°": 839,
      "Ð·Ð°ÑĤÐ°": 840,
      "Ð¼Ð°ÑĤÐ¸": 841,
      "Ð»ÑĭÐ²Ð°": 842,
      "ÐµÐ´Ð¸": 843,
      "Ð»ÐµÐº": 844,
      "Ð²ÑĭÐºÐ¾": 845,
      "Ð¿Ð¾Ð»": 846,
      "Ð²ÑģÐµ": 847,
      "Ð±ÑĥÑĢ": 848,
      "ÐµÑİ": 849,
      "Ð½ÑģÐºÐ¾": 850,
      "Ð°Ð±": 851,
      "Ġbut": 852,
      "us": 853,
      "Ð·Ð°Ð²ÐµÑĢ": 854,
      "ÐµÐ¼ÑģÑı": 855,
      "ÑĪÐµÐ½": 856,
      "and": 857,
      "Ð½Ñĳ": 858,
      "US": 859,
      "Ð·Ð°Ð¼Ðµ": 860,
      "if": 861,
      "Ð³ÐµÑĢ": 862,
      "Ð²ÐµÐ´": 863,
      "Ð²ÑĭÐ¼Ð°": 864,
      "Ġse": 865,
      "ge": 866,
      "Ð²Ð¾Ð»": 867,
      "Ð±ÐµÐ·Ð¾": 868,
      "ÐĶ": 869,
      "ÑĤÐµÑģÑĮ": 870,
      "Ð½Ð¸ÑĨÐ°": 871,
      "Ð²Ð»Ð¸Ð²Ð°": 872,
      "ÐµÐ²": 873,
      "Ð²ÑĭÐ¼Ð¸": 874,
      "Ð°Ð²Ð¸": 875,
      "ÐºÑģÐ¸": 876,
      "Th": 877,
      "ÑģÑĤÑĥ": 878,
      "Ġall": 879,
      "ÑĩÑĥ": 880,
      "Ð³Ð»Ð¸": 881,
      "Ð´Ð»Ð¸": 882,
      "Ð³Ð»Ð¾": 883,
      "ÐºÐ°Ñı": 884,
      "ake": 885,
      "Ġsu": 886,
      "Ð±Ð»Ðµ": 887,
      "Ð²ÑĭÐ¹": 888,
      "To": 889,
      "Ð±ÑĢÐµ": 890,
      "Ð²Ð¾Ð¼": 891,
      "Ð½Ð¾Ð²Ð°": 892,
      "ÑĢÐ°Ñħ": 893,
      "Ð¿Ð¾ÑĢ": 894,
      "Ð²Ð¾Ñİ": 895,
      "Ð²ÐµÐ»Ð¸": 896,
      "Ð´ÑĢÐµ": 897,
      "Ð´ÐµÑģÑı": 898,
      "ÑģÑĤÑĭ": 899,
      "Ð³ÐµÐ¾": 900,
      "Ġher": 901,
      "ru": 902,
      "ÑĤÑı": 903,
      "ion": 904,
      "Ð½Ð¾Ð²": 905,
      "Ð½Ð¸ÑĢÐ¾Ð²Ð°": 906,
      "Ð²Ð°ÑĢ": 907,
      "Ð°Ñį": 908,
      "th": 909,
      "Ð·Ð°Ð¼Ð¾": 910,
      "ÐµÐ¼Ð¾Ð¼": 911,
      "Ð»ÐµÑģ": 912,
      "ÐµÐ¼Ð¾Ð¹": 913,
      "ÐµÐ¼Ð¾Ñİ": 914,
      "ÐºÑĥÑİ": 915,
      "Ġan": 916,
      "ÑĨÐ¸Ð¾Ð½": 917,
      "ter": 918,
      "ard": 919,
      "Ð²ÑĭÑĢÐ°": 920,
      "Ġlo": 921,
      "ÐµÐ¼Ð¾Ð³Ð¾": 922,
      "ÐµÐ¼ÑĭÐµ": 923,
      "ÐµÐ¼ÑĭÑħ": 924,
      "ÑĢÑĥÑİ": 925,
      "Ð³Ð»Ñĥ": 926,
      "ÐµÐ¼ÑĥÑİ": 927,
      "ÐµÐ¼Ð°Ñı": 928,
      "ÐµÐ¼Ð¾Ðµ": 929,
      "ÐµÐ¼Ð¾Ð¼Ñĥ": 930,
      "ÐµÐ¼ÑĭÐ¼": 931,
      "ÐµÐ¼ÑĭÐ¼Ð¸": 932,
      "han": 933,
      "Ð»Ð°Ð½": 934,
      "ell": 935,
      "Ð¸Ð·": 936,
      "ear": 937,
      "Ð³ÑĢÐ°ÑĦÐ¸": 938,
      "ÐºÐ¾Ð²Ð°": 939,
      "Ð³Ð»Ñı": 940,
      "Ġsp": 941,
      "Ð·Ð°Ð¿Ñĥ": 942,
      "īÐ¸": 943,
      "Ð²ÑīÐ¸": 944,
      "Ð·Ð°Ð¿Ðµ": 945,
      "Ð¿Ð»Ñı": 946,
      "Ð´Ð¾Ð²Ð°": 947,
      "Ġthee": 948,
      "ÑģÐºÐ°Ñı": 949,
      "Ð°Ð¿": 950,
      "ÑģÐ»Ð¾": 951,
      "ÐµÑĤÐµÑģÑĮ": 952,
      "Ð½Ð°Ð¼Ð¸": 953,
      "Ð»Ð»Ð¸": 954,
      "Ð±ÑĢÑĭ": 955,
      "ÑĨÑĥ": 956,
      "Ġour": 957,
      "Ð·ÐµÑĢ": 958,
      "Ġfa": 959,
      "Ġshall": 960,
      "Ġby": 961,
      "ÑģÐºÐ¸Ðµ": 962,
      "Ð±Ð¾Ð³Ð¾": 963,
      "Ð·Ð°ÑĢÐ°": 964,
      "ÑģÐºÐ¸Ñħ": 965,
      "Ð·Ð°ÑĤÑĥ": 966,
      "ÑģÐºÐ¸Ð¼": 967,
      "UC": 968,
      "Ð·Ð°Ð¿ÑĢÐ¾": 969,
      "ÑģÐºÑĥÑİ": 970,
      "Ð·Ð°Ð±Ð¾": 971,
      "Ð·Ð°ÑģÐµ": 972,
      "Ð²ÑĥÑİ": 973,
      "ÐµÑĢÐµ": 974,
      "ÑģÐºÐ¸Ð¼Ð¸": 975,
      "Ð´ÐµÐ¼Ð¾": 976,
      "Ð»Ð°Ð¼": 977,
      "Ð²Ð¾Ð³Ð¾": 978,
      "Ð¹ÑģÑı": 979,
      "Ð²Ð¾ÑģÑĮ": 980,
      "Ð²Ð¾Ð¼Ñĥ": 981,
      "il": 982,
      "Ð·Ð°Ð¿Ð¸": 983,
      "ÐµÐ½Ð¸Ñı": 984,
      "Ð½ÐµÑģ": 985,
      "Ġare": 986,
      "ING": 987,
      "Ð´ÑĳÑĢ": 988,
      "Ð·Ð°Ð²Ð¸": 989,
      "Ð·Ð°Ð´Ñĥ": 990,
      "ÑĨÑĭ": 991,
      "Ð°ÑįÑĢÐ¾": 992,
      "ÑĩÐµÑģÐºÐ¸Ð¹": 993,
      "ÐºÑĢÐ°": 994,
      "Ð·Ð°Ð»Ðµ": 995,
      "Ð·Ð°ÑĨÐ¸": 996,
      "ĠC": 997,
      "Ð±Ð°Ð½": 998,
      "rom": 999,
      "Ġne": 1000,
      "Ð¼Ð¸Ð½Ð°": 1001,
      "ho": 1002,
      "Ġkn": 1003,
      "ÐºÑĤÐ¾": 1004,
      "Ð·Ð²Ñĥ": 1005,
      "ÑĤÐ°Ð½": 1006,
      "Ð´Ð°ÑĢ": 1007,
      "Ð°Ñĥ": 1008,
      "AN": 1009,
      "ĠR": 1010,
      "That": 1011,
      "ÑĨÐ°ÑĤÐ¸": 1012,
      "Ġv": 1013,
      "Ð²ÑģÐ¿": 1014,
      "Ð°Ð»Ð¸": 1015,
      "Ð·Ð°Ñĥ": 1016,
      "ER": 1017,
      "Ð²ÑĭÐ¼Ð¾": 1018,
      "OR": 1019,
      "ast": 1020,
      "ct": 1021,
      "ous": 1022,
      "Ð²Ð¾Ð´Ð¸": 1023,
      "Ð±Ð»Ð¾": 1024,
      "ÑĢÐµÐ¼": 1025,
      "Ð´Ð¾ÐºÐ°": 1026,
      "ÐµÑĪÑĮÑģÑı": 1027,
      "Ġwhat": 1028,
      "Ð½Ð°Ð¼": 1029,
      "Ð·Ð°Ð¼Ñĥ": 1030,
      "Ð²ÑĭÐ³Ð¾": 1031,
      "ÑĳÐ¼": 1032,
      "ÑģÐºÐ¾Ð¼": 1033,
      "Ð²ÑĭÐ¿Ð°": 1034,
      "ÑĨÐµÐ½": 1035,
      "ÐµÐ½Ð½Ð¾Ñİ": 1036,
      "ÐµÐ½Ð½Ð¾Ð¹": 1037,
      "Ð°Ð¼Ð¸": 1038,
      "ÐµÐ½Ð½Ð¾Ð³Ð¾": 1039,
      "ÐµÐ½Ð½Ð¾Ð¼": 1040,
      "ÐµÐ½Ð½Ð¾Ðµ": 1041,
      "ÐµÐ½Ð½Ð¾Ð¼Ñĥ": 1042,
      "ight": 1043,
      "Ð½Ð¾Ñģ": 1044,
      "ÑıÑĤ": 1045,
      "Ð´Ð¾ÐºÑĥ": 1046,
      "Ġsh": 1047,
      "Ð·Ð¾Ð²Ð°": 1048,
      "ÑıÑģÑĮ": 1049,
      "Ð·Ð°ÑĩÐ¸": 1050,
      "Ð´ÐµÐ¹": 1051,
      "Ð´ÑĢÐ¸": 1052,
      "Ð´Ð¾Ð±": 1053,
      "ul": 1054,
      "ÑĩÑĳ": 1055,
      "Ð¼Ð¾ÑĢ": 1056,
      "ÑĢÐ¾Ð¼": 1057,
      "Ð²ÑģÐºÐ¾": 1058,
      "ET": 1059,
      "Ġ'": 1060,
      "ant": 1061,
      "ES": 1062,
      "Ð¼Ð¸ÑĢÐ¾Ð²Ð°": 1063,
      "Ð²Ð°Ð»Ð¸": 1064,
      "Ð²Ð»Ðµ": 1065,
      "ÑĢÐ¾Ð²ÑĭÐ²Ð°": 1066,
      "ÑĤÐ°Ð¼Ð¸": 1067,
      "Ð²ÐºÐ°": 1068,
      "Ġup": 1069,
      "Ð´ÐµÑģÑıÑĤÐ¸": 1070,
      "Ð´Ð¾Ð¼": 1071,
      "sel": 1072,
      "Ð²Ð½ÑĥÑĤÑĢÐ¸": 1073,
      "Ð²ÑĳÑĢ": 1074,
      "Ð±Ð¾Ð»": 1075,
      "ÑģÐºÐ¾Ð¹": 1076,
      "ÑīÐ¸Ð²Ð°": 1077,
      "Ð¾Ð±ÑĢÐ°Ð·": 1078,
      "qu": 1079,
      "Ð½Ð¸Ð¼Ð°": 1080,
      "Ð²Ð¸Ð´": 1081,
      "But": 1082,
      "Ð²ÑĭÑĤÐ°": 1083,
      "Ð´Ð¾ÑĢÐ¾": 1084,
      "Ð°ÑĤ": 1085,
      "art": 1086,
      "ÑĤÐµÐ»Ñı": 1087,
      "Ð´ÐµÑĤ": 1088,
      "Ð²ÑĪÐ¸ÑģÑĮ": 1089,
      "Ð²Ð¾ÑģÑĮÐ¼Ð¸": 1090,
      "Ġgood": 1091,
      "Ð¶Ñĳ": 1092,
      "ÑİÑģÑĮ": 1093,
      "Ð´ÐµÐ¼": 1094,
      "row": 1095,
      "ÑģÐºÐ¾Ñİ": 1096,
      "ÐµÐ·": 1097,
      "ine": 1098,
      "ath": 1099,
      "ÑĢÐ°Ð¼": 1100,
      "ÑģÐºÐ¾Ð³Ð¾": 1101,
      "Ġlord": 1102,
      "Ð´Ð²Ð°": 1103,
      "ÑİÑīÐµÐ¼ÑĥÑģÑı": 1104,
      "hich": 1105,
      "nt": 1106,
      "ÑİÑīÐµÐ¼ÑģÑı": 1107,
      "ÑİÑīÐµÐ³Ð¾ÑģÑı": 1108,
      "ÑİÑīÐ¸Ð¼ÑģÑı": 1109,
      "ÑİÑīÐµÐ¹ÑģÑı": 1110,
      "ÑİÑīÐ¸ÑħÑģÑı": 1111,
      "ÑİÑīÑĥÑİÑģÑı": 1112,
      "ÑİÑīÐ°ÑıÑģÑı": 1113,
      "ÑİÑīÐ¸ÐµÑģÑı": 1114,
      "ÑİÑīÐµÑİÑģÑı": 1115,
      "ÑİÑīÐ¸Ð¼Ð¸ÑģÑı": 1116,
      "ÑİÑīÐµÐµÑģÑı": 1117,
      "ust": 1118,
      "Ð¼ÐµÑĤÑĢÐ¸": 1119,
      "Ð¾Ð½": 1120,
      "Ð·Ð°ÑīÐ¸": 1121,
      "ÑĤÐµÑĢÐ¸": 1122,
      "ÑģÑĤÑĢÐ¸": 1123,
      "'ll": 1124,
      "Ð²Ð¾Ñĩ": 1125,
      "Ð²ÑĭÐ¿Ñĥ": 1126,
      "one": 1127,
      "ÐºÐ°Ð½": 1128,
      "Ð»ÐµÐ¹": 1129,
      "Ð²ÐµÐ·": 1130,
      "ÑģÐºÐ¾Ðµ": 1131,
      "ÑģÐºÐ¾Ð¼Ñĥ": 1132,
      "Ġpr": 1133,
      "Ġcom": 1134,
      "Ð¿Ð°Ð½": 1135,
      "Ġat": 1136,
      "Ð²ÑģÐº": 1137,
      "ÑģÑĤÑĭÐ²Ð°": 1138,
      "Ð»Ð°ÑĩÐ¸Ð²Ð°": 1139,
      "ÑĢÐ¾Ð´": 1140,
      "Ġman": 1141,
      "Ð³Ð¸Ð¿": 1142,
      "What": 1143,
      "ĠM": 1144,
      "Ð²Ð²ÐµÑĢ": 1145,
      "ÑĮÑı": 1146,
      "Ð±Ð°Ð»Ð°": 1147,
      "Ð·Ð°ÑģÐ¾": 1148,
      "Ð»Ð¸ÑĢÐ¾Ð²Ð°": 1149,
      "Ġwhe": 1150,
      "Ðķ": 1151,
      "Ð³ÑĢÑı": 1152,
      "Ð·Ð°Ð¶Ð¸": 1153,
      "Ð¿Ð»Ð¾": 1154,
      "Ð²Ð¾Ð»ÑĮ": 1155,
      "Ð·Ð°Ð¿ÑĢÐ°": 1156,
      "ĠE": 1157,
      "Ð°ÑĢÐ°": 1158,
      "Ð·Ð°Ð±Ð°": 1159,
      "KING": 1160,
      "Ð»ÐºÐ¸Ð²Ð°": 1161,
      "Ð´Ð¾ÑĢÐ°": 1162,
      "Ġam": 1163,
      "Ð´ÐµÑĢÐ¶Ð°": 1164,
      "end": 1165,
      "ÑīÐµÐ½": 1166,
      "ÑģÑĤÐ²ÐµÐ½": 1167,
      "ÑĢÑĳ": 1168,
      "ÑĨÐ¾": 1169,
      "ic": 1170,
      "Ġcon": 1171,
      "ÑĦÐ°": 1172,
      "ble": 1173,
      "ry": 1174,
      "Ð¶ÐµÐ»": 1175,
      "Ð²Ð¾ÑĢÐ¸": 1176,
      "Ð½Ð¾ÑģÑĤÐ¸": 1177,
      "Ð´Ð²Ð°Ð´": 1178,
      "Ð²Ð¾Ð¾": 1179,
      "Ð½Ð¸ÑĢÑĥ": 1180,
      "Ð·Ð°Ð´Ð°": 1181,
      "Ð±Ð¾Ð»ÑĮ": 1182,
      "ong": 1183,
      "ie": 1184,
      "Ð²ÑĮ": 1185,
      "ÑĨÐ¸Ñı": 1186,
      "Ð²ÑĭÐ¿Ð¸": 1187,
      "Ð³Ð°Ð»": 1188,
      "Ð³ÑĢÐ°Ð¼": 1189,
      "ÑĩÐ½Ð¾Ð¼": 1190,
      "Ð½Ð¸ÑĨÐµ": 1191,
      "ive": 1192,
      "Ġbl": 1193,
      "Ġfrom": 1194,
      "Ð´ÑĥÑħÐ¾": 1195,
      "Ð²Ð°Ñı": 1196,
      "Ð´Ð½Ðµ": 1197,
      "Ð·Ð°Ð²Ð¾": 1198,
      "ven": 1199,
      "Ð½Ð¸Ðº": 1200,
      "Ð´ÐµÐ»ÑĮ": 1201,
      "Ð»ÐºÐ°": 1202,
      "ÑīÐµÐ¼": 1203,
      "ĠG": 1204,
      "Ð·Ð²Ð¾": 1205,
      "For": 1206,
      "Ð±Ñİ": 1207,
      "Ġshe": 1208,
      "em": 1209,
      "Ð²Ð¿Ð¸": 1210,
      "Ð±ÐµÑģÑģ": 1211,
      "Ġgo": 1212,
      "are": 1213,
      "Ð±Ð¾Ð¼": 1214,
      "Ð·Ð°ÑĢÐµ": 1215,
      "Ð¿ÑĢÐµ": 1216,
      "ÑīÑĳ": 1217,
      "Ð»ÑĳÐ½": 1218,
      "Ð´ÐµÐ»Ð¸": 1219,
      "Ð´Ð²Ð¸Ð³Ð°": 1220,
      "Ð²Ð´Ð¾": 1221,
      "Ġmore": 1222,
      "IC": 1223,
      "Ð·Ð°Ð²Ð°": 1224,
      "out": 1225,
      "Ġthem": 1226,
      "Ð»ÐµÐ½Ð¸": 1227,
      "Ð´Ð¾Ð±ÑĢÐ¾": 1228,
      "ÑĪÑĥ": 1229,
      "Ð±ÐµÑģÐ¿Ð¾": 1230,
      "ÑĦÐ¾ÑĢ": 1231,
      "au": 1232,
      "Ġwas": 1233,
      "ÑģÑĤÐ²": 1234,
      "oth": 1235,
      "other": 1236,
      "Ð½Ð°Ñħ": 1237,
      "He": 1238,
      "ÑĢÐ°Ð¼Ð¸": 1239,
      "Ġsir": 1240,
      "Ð·Ñĭ": 1241,
      "ol": 1242,
      "Ð²ÑĭÑĩÐ¸": 1243,
      "Ð´Ð¾Ð²ÐµÑĢ": 1244,
      "ÑĩÐ½Ð¾Ð¹": 1245,
      "ÐºÑĢÐµ": 1246,
      "Ð¿Ð»Ð°": 1247,
      "ÑĩÐ½ÑĭÐ¹": 1248,
      "ÑĪÑĮÑģÑı": 1249,
      "ÑĩÐµÑģÐºÐ¾Ðµ": 1250,
      "ÑĩÐµÑģÐºÐ¸Ðµ": 1251,
      "ÑĩÐµÑģÐºÐ¸Ñħ": 1252,
      "ÑĩÐµÑģÐºÐ¾Ñİ": 1253,
      "ÑĩÐµÑģÐºÐ¾Ð¹": 1254,
      "ÑĩÐµÑģÐºÐ¾Ð³Ð¾": 1255,
      "ÑĩÐµÑģÐºÐ¸Ð¼": 1256,
      "Ð²Ñĩ": 1257,
      "Ð´Ð¾Ð¼Ð¾": 1258,
      "ÑĩÐµÑģÐºÐ°Ñı": 1259,
      "ÑĩÐµÑģÐºÑĥÑİ": 1260,
      "ÑĩÐ½Ð¾Ðµ": 1261,
      "ÑĩÐµÑģÐºÐ¾Ð¼": 1262,
      "ÑĩÐµÑģÐºÐ¾Ð¼Ñĥ": 1263,
      "ÑĩÐµÑģÐºÐ¸Ð¼Ð¸": 1264,
      "ÑĩÐ½Ð¾Ñİ": 1265,
      "ÑĩÐ½Ð¾Ð³Ð¾": 1266,
      "ÑĩÐ½Ð¾Ð¼Ñĥ": 1267,
      "ÐºÐ»Ð¸": 1268,
      "Ð´ÐµÐ¾": 1269,
      "Ð¼Ð°Ð½": 1270,
      "Ð³Ð¸Ð¿ÐµÑĢ": 1271,
      "Ġnow": 1272,
      "ĠL": 1273,
      "Ð³ÑĢÑĭ": 1274,
      "Ð²ÑģÐ¿Ð¾": 1275,
      "Ġhat": 1276,
      "Ð·Ð°ÐºÑĢÑĥ": 1277,
      "Ð¾ÑĢ": 1278,
      "ost": 1279,
      "Ġif": 1280,
      "Ð´Ð²Ð°Ð´ÑĨÐ°ÑĤÐ¸": 1281,
      "Ð²ÑĢÐµ": 1282,
      "LO": 1283,
      "Ð½Ñİ": 1284,
      "ind": 1285,
      "Ð³Ð¾Ñģ": 1286,
      "Ð²ÑĭÑĢÑĥ": 1287,
      "Ġthere": 1288,
      "Ð°ÑĦ": 1289,
      "Ð·Ð°Ð´ÐµÑĢ": 1290,
      "Ð²Ð°Ð»ÑĮ": 1291,
      "Ġwould": 1292,
      "Ġknow": 1293,
      "Ð²ÑĭÐºÑĥ": 1294,
      "Ġcan": 1295,
      "Ð·Ð²ÑĥÐºÐ¾": 1296,
      "Ð²Ð¾ÑĢÑı": 1297,
      "ÑģÐ¾ÑĢ": 1298,
      "ers": 1299,
      "Ð°ÑĢÐ¸": 1300,
      "Ð½Ð¾Ð²Ð¸": 1301,
      "ÑģÑĤÑĢÐ¾Ð¸": 1302,
      "IUS": 1303,
      "Ð¼ÑģÑı": 1304,
      "ep": 1305,
      "Ð¶Ð´": 1306,
      "self": 1307,
      "Ð²ÑĭÑģÐµ": 1308,
      "ARD": 1309,
      "ather": 1310,
      "fe": 1311,
      "ond": 1312,
      "ÑĢÐ°Ð¶Ð¸Ð²Ð°": 1313,
      "res": 1314,
      "Ð±Ð¸ÑĢÐ°": 1315,
      "ate": 1316,
      "Ð²ÑĭÐ´Ð°": 1317,
      "Ð³Ð°Ð½": 1318,
      "ÑģÐ¾Ð²ÑĭÐ²Ð°": 1319,
      "Ð´Ð¸ÑĢÐ¾Ð²Ð°": 1320,
      "Ġsay": 1321,
      "Ġhere": 1322,
      "Ð½Ð¾ÑģÐ¸": 1323,
      "ÑĪÐµÐ¹": 1324,
      "Ġlove": 1325,
      "Ð°Ð²Ð¸Ð°": 1326,
      "Ġsw": 1327,
      "Ġtheir": 1328,
      "ÐµÑĢÐ°": 1329,
      "ÐºÐ¾Ð½": 1330,
      "Ġbr": 1331,
      "pp": 1332,
      "Ġor": 1333,
      "Ð´ÐµÐ²Ñı": 1334,
      "Ð»ÐµÐ¼": 1335,
      "Ð»ÑĮÑīÐ¸": 1336,
      "Ð²Ð·ÑĬ": 1337,
      "Ð²ÑĢÑĥ": 1338,
      "Ð²Ð¸Ð´ÐµÐ¾": 1339,
      "Ð´ÐµÐ»Ð°": 1340,
      "Ð·Ð°ÑĤÑĢÐ°": 1341,
      "Ð½ÐµÐ¹ÑĪÐ¸": 1342,
      "--": 1343,
      "all": 1344,
      "ĠS": 1345,
      "Ð´Ñİ": 1346,
      "ÑıÑīÐ¸": 1347,
      "ÐºÐ°ÑĢ": 1348,
      "Ġthan": 1349,
      "Ð±Ð¾Ð¹": 1350,
      "ÑĤÐ°Ð¼": 1351,
      "Ġthen": 1352,
      "Ġking": 1353,
      "Ġus": 1354,
      "Ð¼ÐµÐ½Ñı": 1355,
      "Ð»ÐµÑĤÐ°": 1356,
      "Ð·Ð°Ð½Ð°": 1357,
      "ÑĩÐ°ÑĤ": 1358,
      "ĠO": 1359,
      "ÑĮÐµ": 1360,
      "ĠB": 1361,
      "Ġthey": 1362,
      "Ð·Ð°Ð´ÑĢÐ°": 1363,
      "ÑĩÐ½ÑĭÑħ": 1364,
      "ÑĩÐ½ÑĥÑİ": 1365,
      "ÑĩÐ½ÑĭÐµ": 1366,
      "ÑĩÐ½Ð°Ñı": 1367,
      "ÑĩÐ½ÑĭÐ¼": 1368,
      "ÑĩÐ½ÑĭÐ¼Ð¸": 1369,
      "Ġar": 1370,
      "Ð±ÐµÐ·Ñĥ": 1371,
      "Ð±ÑĢÑİ": 1372,
      "Ð´Ð»Ð¸Ð½Ð½Ð¾": 1373,
      "od": 1374,
      "Ð´Ð¸ÑĦ": 1375,
      "My": 1376,
      "Ð½Ñģ": 1377,
      "Ð½ÐµÑĤ": 1378,
      "Ð·Ð°ÑĢÐ¾": 1379,
      "Ð°ÑģÑģÐ¸": 1380,
      "Ð´Ð¾Ðº": 1381,
      "Ġlet": 1382,
      "Ð´Ð¸Ð¾": 1383,
      "Ð»Ð¾Ð¼": 1384,
      "Ð·Ð°Ð½": 1385,
      "ÑĨÐ°Ð¼Ð¸": 1386,
      "ÐµÑĢÐ¾": 1387,
      "Ð½Ð¸ÐºÐ°": 1388,
      "ÑĨÐ°Ð¼": 1389,
      "Ġun": 1390,
      "ÑĨÐ°Ñħ": 1391,
      "ÑģÐ»Ð¸": 1392,
      "ÑĤÐµÐ½": 1393,
      "ÑĩÐºÐ°": 1394,
      "Ð³ÐµÐ»Ð¸": 1395,
      "Ð·Ð°ÐºÐ¸": 1396,
      "Ð·Ð°ÑĩÐµÑĢ": 1397,
      "ÑĪÐµÑİ": 1398,
      "Ð»ÑĮÐ½Ð¾Ð¼": 1399,
      "ig": 1400,
      "ÑīÐ°Ñı": 1401,
      "ÑģÑĤÐ°Ð½": 1402,
      "Ð´ÑĥÑĪÐµ": 1403,
      "Ġwor": 1404,
      "Ð·Ð°ÑĢÑĥ": 1405,
      "Ð²ÑĭÐ»Ðµ": 1406,
      "Ð·Ð°ÐºÑĢÐµ": 1407,
      "ure": 1408,
      "Ð·Ð°Ð²Ðµ": 1409,
      "Ð·Ð°Ð¼Ñĭ": 1410,
      "ÑĤÐ¾Ð²": 1411,
      "Ð°ÑģÑĤÑĢÐ¾": 1412,
      "ÑĤÐ°Ñħ": 1413,
      "Ð²Ð¾ÑģÑĤÐ¾": 1414,
      "Ð´ÑĥÐ¼": 1415,
      "ink": 1416,
      "Ð·Ð°Ð³ÑĢÑĥ": 1417,
      "Ð·Ð¸Ð½": 1418,
      "ĠH": 1419,
      "Ð½Ð¾ÑģÑĤÑĮ": 1420,
      "Ð´ÑĥÑĪ": 1421,
      "ÑĦÐ¸ÑĨÐ¸": 1422,
      "ÑĢÐ¸ÑĢÐ¾Ð²Ð°": 1423,
      "Ð´ÐµÐ»ÑĭÐ²Ð°": 1424,
      "Ð·Ð¸ÑĢÐ¾Ð²Ð°Ð½": 1425,
      "ort": 1426,
      "hy": 1427,
      "ĠV": 1428,
      "Ð²Ð¼Ðµ": 1429,
      "Ð·Ð°Ð»Ð¸": 1430,
      "Ð²Ð°ÑĢÐ¸": 1431,
      "Ð²ÐµÑĢÐ¾": 1432,
      "Ð·Ð°ÑģÑĥ": 1433,
      "Ð°ÐºÑĤÐ¸": 1434,
      "Ð·Ð°Ð¸Ð¼Ð¾": 1435,
      "ame": 1436,
      "fore": 1437,
      "ÑĢÐ°ÑĪÐ¸Ð²Ð°": 1438,
      "Ð±Ð¾ÑĤÐ°": 1439,
      "As": 1440,
      "Ð·Ð°ÑĤÐµ": 1441,
      "Ð±Ð°Ð¹": 1442,
      "Ð´Ð¾Ð»Ð³Ð¾": 1443,
      "Ð²Ð»ÐµÐ½": 1444,
      "Ð¸Ð½": 1445,
      "Ġmay": 1446,
      "ÑĨÐ¸Ð¸": 1447,
      "Ð°ÑĢÑħÐ¸": 1448,
      "Ð²Ð¸Ð½ÑĩÐ¸Ð²Ð°": 1449,
      "ÑĤÑĢÐµ": 1450,
      "el": 1451,
      "Ġqu": 1452,
      "Ð·Ð°Ð³Ð°": 1453,
      "Ġcome": 1454,
      "ÑīÐµÑİ": 1455,
      "ook": 1456,
      "Whe": 1457,
      "Ð°Ð½Ð¾": 1458,
      "Ð°Ð¿Ð¾": 1459,
      "Ð·Ð°ÑħÐ¾": 1460,
      "Ð²Ð°ÑĢÐ¸Ð²Ð°": 1461,
      "ÑģÑĤÐ²Ð°": 1462,
      "Ð´ÐµÐ²Ð°": 1463,
      "ish": 1464,
      "LI": 1465,
      "Ð²ÑģÑĤÑĢÐµ": 1466,
      "Ð´ÐµÑģ": 1467,
      "Ð·Ð°Ð¼Ð¸": 1468,
      "Ð»ÑĮÐ½Ð¾Ð¹": 1469,
      "Ð»ÑĮÐ½Ð¾Ð³Ð¾": 1470,
      "ÑīÐµÐ³Ð¾": 1471,
      "Ġwell": 1472,
      "ÐµÐ´Ð¸Ð½Ð¾": 1473,
      "Ð¼Ñı": 1474,
      "Ð»ÑĮÐ½Ð¾Ðµ": 1475,
      "Ð»ÑĮÐ½Ð¾Ñİ": 1476,
      "Ð»ÑĮÐ½Ð¾Ð¼Ñĥ": 1477,
      "Ð±ÑĢÐ°ÑģÑĭÐ²Ð°": 1478,
      "Ð±ÑĢÑĥ": 1479,
      "Ð·Ð°ÑĢÑı": 1480,
      "Ð·Ð°Ð²Ñı": 1481,
      "Ð²ÑĭÑħÐ¾": 1482,
      "KE": 1483,
      "Ð±ÐµÐ·Ñĭ": 1484,
      "ÑīÐµÐµ": 1485,
      "ÑīÐµÐ¼Ñĥ": 1486,
      "ves": 1487,
      "ÑīÑĥÑİ": 1488,
      "ÑĢÐ°Ð·": 1489,
      "Ð±ÑĥÐº": 1490,
      "Ð²ÐµÑģÐµ": 1491,
      "Ð³ÐµÑĤÐµ": 1492,
      "Ð·Ð°Ð»Ð°": 1493,
      "Ð±Ð°ÑĤÑĭÐ²Ð°": 1494,
      "Ð´ÐµÐºÐ°": 1495,
      "Ð°Ð²Ð°Ð½": 1496,
      "Ð²ÑĭÑĩÐµÑĢ": 1497,
      "Ð´Ð¾ÑģÑĤÐ°": 1498,
      "Ġj": 1499,
      "Ð·Ð°ÑĤÐ¾ÑĢ": 1500,
      "Ð´Ð¸ÑģÐº": 1501,
      "Ð²ÐºÐ¾": 1502,
      "Ð½ÐµÐ¼": 1503,
      "ÑģÑĤÐ¾Ð¹": 1504,
      "Ð±ÑĭÑģÑĤÑĢÐ¾": 1505,
      "ÑĦÐµÑĢ": 1506,
      "Ġone": 1507,
      "Ð¾ÑĤ": 1508,
      "Ð½ÑĩÐ¸": 1509,
      "Ð»ÐµÐ·": 1510,
      "ÐĲÑĢ": 1511,
      "Ð´ÑĭÑħÐ°": 1512,
      "ÑĢÐµÑĤÐ¸": 1513,
      "ÑģÑĤÑı": 1514,
      "Ġhath": 1515,
      "Ð²Ð·Ð°Ð¸Ð¼Ð¾": 1516,
      "Ð¼ÐµÑĢ": 1517,
      "ÑĪÐ°Ñı": 1518,
      "ÐµÐ½Ð¸Ðµ": 1519,
      "irst": 1520,
      "Ð³ÑĢÐ¾Ð¼Ð¾": 1521,
      "ÑĢÐ¾Ð´Ð¸": 1522,
      "Ð´Ð¾Ð¿Ð¸": 1523,
      "ÑĤÑĥÑĢ": 1524,
      "Ð±ÑĭÐ²Ð°": 1525,
      "Ð±ÐµÐ³Ð°": 1526,
      "Ð³Ð¸Ð¿Ð¾": 1527,
      "Ð°Ñħ": 1528,
      "Ð½Ð¾ÑģÑĤÑĮÑİ": 1529,
      "Ð²ÑĭÑģÐºÐ°": 1530,
      "Ð²Ð°Ð»": 1531,
      "Ð²ÑĭÐ¶Ð¸": 1532,
      "ÐºÐ¾Ð²ÑĭÐ²Ð°": 1533,
      "Ð¼Ð°ÑĤ": 1534,
      "You": 1535,
      "Ð²ÑģÐ¿Ñĥ": 1536,
      "Ð·Ð°ÐºÐ»Ðµ": 1537,
      "ÐºÑĤÐ¸": 1538,
      "Ð´ÐµÐ·Ð¾": 1539,
      "Ð·Ð°Ð¿ÑĢÑı": 1540,
      "ÑĨÐµÐ¼": 1541,
      "Ð²Ð´Ð°": 1542,
      "ÑģÑģ": 1543,
      "Ð´Ð¾Ð³Ð¾": 1544,
      "Ġmake": 1545,
      "Ð³Ð½Ðµ": 1546,
      "ÑĢÐ°Ð½": 1547,
      "Ð·Ð°ÑĤÐ¸": 1548,
      "ÑĪÑĥÑİ": 1549,
      "reat": 1550,
      "Ð²Ð¾Ð·Ð´ÑĥÑħÐ¾": 1551,
      "ak": 1552,
      "gain": 1553,
      "Ð·Ð°ÑģÑĤÐ°": 1554,
      "Ġmust": 1555,
      "Ð±Ð»ÐµÐ½": 1556,
      "ound": 1557,
      "Ð¹ÑĤÐµÑģÑĮ": 1558,
      "Ð³Ð¾Ð¼Ð¾": 1559,
      "Ð±Ð¾Ð»Ð¸": 1560,
      "ÑĪÐµÐµ": 1561,
      "ng": 1562,
      "Ð»Ð¾Ð³Ð¾": 1563,
      "ÑĪÐµÐ³Ð¾": 1564,
      "ÑģÑĤÑĢÐµ": 1565,
      "Ð»Ð°ÐºÐ¸Ð²Ð°": 1566,
      "ÑģÐ¾Ð²Ð°": 1567,
      "Ġgra": 1568,
      "Ð±ÑĢÑĭÐ·": 1569,
      "ÑĪÐµÐ¼Ñĥ": 1570,
      "Ġwere": 1571,
      "Ð·Ð°Ð¾": 1572,
      "Ð´Ð¾Ð¸": 1573,
      "Ġho": 1574,
      "ci": 1575,
      "Ð¿ÑĢÐ¾Ð¸Ð·": 1576,
      "Ð±ÐµÐ½Ð·Ð¾": 1577,
      "Ð·Ð°ÑģÑĤÐ¸": 1578,
      "Ð³Ð°Ð»Ð¾": 1579,
      "Ð¿Ð¾Ð´": 1580,
      "Ð¶ÐµÐ»Ð°": 1581,
      "Ġsee": 1582,
      "Ð¶Ð°Ð½": 1583,
      "Ġlike": 1584,
      "ue": 1585,
      "Ð·Ð°ÐºÐ¾Ð½Ð¾": 1586,
      "Ð±ÐµÑĢÐµ": 1587,
      "Ð°Ð·Ð¾": 1588,
      "Ð³Ð½Ð¸": 1589,
      "Ð²ÑĭÑĪ": 1590,
      "eak": 1591,
      "TIO": 1592,
      "ÑĪÐµÐ¼": 1593,
      "Ð»ÑĮÐ½ÑĭÐ¹": 1594,
      "ÑĤÐ¾Ð¹": 1595,
      "Ġshould": 1596,
      "Ð²Ð°Ð»Ñı": 1597,
      "Ð²Ð¸Ñħ": 1598,
      "ity": 1599,
      "Ð²ÑĤÐ°": 1600,
      "ÑĤÐ¾Ñİ": 1601,
      "ÑĤÐ°Ð»Ð¸": 1602,
      "Ġpro": 1603,
      "Ð²Ð¾ÑģÑģÐ¾": 1604,
      "ĠP": 1605,
      "ÑĢÐµÑĤ": 1606,
      "Ð²Ð¸ÑĢÐ¾Ð²Ð°": 1607,
      "Ġsa": 1608,
      "Ġmad": 1609,
      "ÑĤÑĭÐ¹": 1610,
      "um": 1611,
      "Ġpl": 1612,
      "ÑģÐ°Ð½": 1613,
      "Ð²Ð¾ÑĤ": 1614,
      "Ġfather": 1615,
      "Ð¼ÐµÑĤÐ¸": 1616,
      "Ð³Ð°Ð¼": 1617,
      "Ð´Ð°Ð¼": 1618,
      "RO": 1619,
      "Ð·Ð½Ð°": 1620,
      "Ð²ÑĨ": 1621,
      "ÑĭÐ»Ð°": 1622,
      "Ð²Ð¿Ñĥ": 1623,
      "AU": 1624,
      "Ð´ÐµÐºÐ¾": 1625,
      "Ġhad": 1626,
      "Ð¼Ð¸ÑĢÑĥ": 1627,
      "Ġdid": 1628,
      "Ð³Ð°ÑĢÐ¼Ð¾": 1629,
      "pe": 1630,
      "Ð°Ð½Ð¸": 1631,
      "Ð±Ð»Ñİ": 1632,
      "Ð±Ð¾Ð²Ð°": 1633,
      "ime": 1634,
      "Ð·Ð°ÑģÑĤÑĥ": 1635,
      "Ġupon": 1636,
      "ÑĭÐ¿Ð°": 1637,
      "Ð»Ð¾Ð½": 1638,
      "Ð±Ð»Ñĳ": 1639,
      "Ð»ÐµÐ²Ð°": 1640,
      "Ð±Ð¸Ð»Ð¸": 1641,
      "Ð²ÐºÑĥ": 1642,
      "Ð·Ð°ÑħÐ²Ð°": 1643,
      "ice": 1644,
      "Ð²ÑĭÑı": 1645,
      "Ð²ÑĤÐ¸": 1646,
      "Ð´ÐµÑĤÐµ": 1647,
      "Ð¶ÐµÑĢ": 1648,
      "Ð±Ð°Ñħ": 1649,
      "ON": 1650,
      "Ð½ÑĤ": 1651,
      "Ð·Ð°ÑĪÐ¸": 1652,
      "ÑīÑĥ": 1653,
      "ÑĢÐ°ÑĩÐ¸Ð²Ð°": 1654,
      "Ð±Ð°Ð»ÑĮ": 1655,
      "Ġtoo": 1656,
      "ÑĮÐºÐ¸": 1657,
      "Ð¶ÐµÐ¼": 1658,
      "Ð´ÑĢÑı": 1659,
      "Ð±ÐµÑĤÐ¾": 1660,
      "Ð²Ð¸Ñĩ": 1661,
      "Ð±Ð¸Ð²Ð°": 1662,
      "Ð·Ð°ÑģÑĤÐ¾": 1663,
      "Ð»ÑİÑĩÐ°": 1664,
      "Ð·ÐµÐ¼Ð»Ðµ": 1665,
      "ÑģÑĤÑĢÑĥ": 1666,
      "Ð¶ÐµÐ½Ð¸": 1667,
      "ÑģÐ¸ÑĢÐ¾Ð²Ð°": 1668,
      "Ð²Ð»Ð¸": 1669,
      "Ð²Ð¸ÑĢÑĥ": 1670,
      "ence": 1671,
      "Ð²ÑĭÐ¿ÑĢÑı": 1672,
      "ĠW": 1673,
      "Ð´ÑĢÑĥ": 1674,
      "Ð²Ð·ÑĢÑĭ": 1675,
      "Ð°ÑĤÐ¾": 1676,
      "Ð²Ð¾ÑģÑģÑĤÐ°": 1677,
      "ward": 1678,
      "ÐĹ": 1679,
      "Ð²ÐµÐ¹": 1680,
      "ist": 1681,
      "Ð²ÑĭÑģÑĤÑĥ": 1682,
      "Ð³Ð°Ð½Ð¸": 1683,
      "Ð¼Ð°Ð½Ð¸": 1684,
      "Ð½ÐµÐµ": 1685,
      "Ð¶Ð°Ð»Ð¾": 1686,
      "Ð³ÐµÑĤÐµÑĢÐ¾": 1687,
      "Ð·Ð°ÑħÐ»Ðµ": 1688,
      "Ġdeath": 1689,
      "Ð²ÐµÐ»Ð¸ÐºÐ¾": 1690,
      "ÑīÐµÐ¹": 1691,
      "ÑĢÐµÐ·": 1692,
      "Ð°Ð³ÑĢÐ¾": 1693,
      "Ð·Ð°Ð³ÑĢÐ°": 1694,
      "Ð·Ð°Ð³Ñĥ": 1695,
      "ÑģÑĤÐ²Ðµ": 1696,
      "Ð±Ð°ÑĢÐ°": 1697,
      "ÑĦÑĥ": 1698,
      "own": 1699,
      "Ð´ÐºÐ¾": 1700,
      "Ð³Ð¾Ð½": 1701,
      "man": 1702,
      "ose": 1703,
      "Ġen": 1704,
      "Ð½Ð¸ÐºÐµ": 1705,
      "Ð¼Ð¾Ð¼": 1706,
      "Ð°ÑĢÐµ": 1707,
      "Ð³ÐµÐ½Ð¸": 1708,
      "Ð·Ð°ÑĢ": 1709,
      "ÑīÐ¸Ðµ": 1710,
      "un": 1711,
      "ÑĦÐµ": 1712,
      "Ð¿Ð°ÑĢ": 1713,
      "Ð²ÑĭÐºÑĢÐ¸": 1714,
      "ÑĢÐ¼": 1715,
      "Ð·Ð°ÑĩÐ°": 1716,
      "Ð»Ð¸ÑĢÑĥ": 1717,
      "IS": 1718,
      "ful": 1719,
      "Ð²ÑĭÐ²Ðµ": 1720,
      "ÑĤÑĭÑħ": 1721,
      "nce": 1722,
      "Ð³Ð¾Ð»Ñĥ": 1723,
      "Ð°ÑģÑĭÐ²Ð°": 1724,
      "Ð²Ð´Ð¾Ñħ": 1725,
      "Ġr": 1726,
      "ÑĤÐ¾Ð²Ð°": 1727,
      "Ð±ÑĥÐ»ÑĮ": 1728,
      "ÑīÐ¸Ñħ": 1729,
      "ÑīÐ¸Ð¼Ð¸": 1730,
      "Ġpo": 1731,
      "Ġspeak": 1732,
      "ÐºÑĢÐ°ÑĤÐ¸": 1733,
      "de": 1734,
      "entle": 1735,
      "io": 1736,
      "Ġout": 1737,
      "Ð²ÑĤ": 1738,
      "Ð·Ð´Ð°": 1739,
      "pt": 1740,
      "Ð±ÑĢÐ¸Ð²Ð°": 1741,
      "ÑħÑĥ": 1742,
      "ÑĢÐ°Ð¸Ð²Ð°": 1743,
      "Ġwhich": 1744,
      "Ð·Ð°ÑģÑĤÐµ": 1745,
      "Ð±Ð¾Ð»ÑĮÑĪÐµ": 1746,
      "ICH": 1747,
      "Ð»ÐµÑĢ": 1748,
      "Ð´Ð¾Ð¿Ðµ": 1749,
      "Ð»ÑĮÐ½ÑĭÐ¼": 1750,
      "Ð»ÑĮÐ½ÑĥÑİ": 1751,
      "Ð»ÑĮÐ½ÑĭÐ¼Ð¸": 1752,
      "Ð»ÑĮÐ½ÑĭÐµ": 1753,
      "Ġfri": 1754,
      "Ð¼Ñĳ": 1755,
      "Ð½Ð¸ÐºÑĥ": 1756,
      "Ð»ÑĮÐ½ÑĭÑħ": 1757,
      "Ð»ÑĮÐ½Ð°Ñı": 1758,
      "OL": 1759,
      "ÑĤÐ½ÑĭÐ¹": 1760,
      "ÑĦÐ°Ð»ÑĮ": 1761,
      "DU": 1762,
      "ÐµÑĤÐ°": 1763,
      "Ġagain": 1764,
      "Ð²Ð¾Ð·Ð¼Ñĥ": 1765,
      "DUKE": 1766,
      "Ð½Ð¸Ð¹": 1767,
      "Ġhow": 1768,
      "Ð½Ð½ÑĭÐ¹": 1769,
      "ÑĮÐ¸": 1770,
      "Ð³Ð¾Ð½Ñı": 1771,
      "Ð±Ð°Ðº": 1772,
      "Ð²ÑģÑĤÐ°": 1773,
      "EL": 1774,
      "Ð²ÑĭÐ´Ñĥ": 1775,
      "Ð²ÑĭÐ´ÐµÑĢ": 1776,
      "ÑħÐ°Ð½": 1777,
      "ÐºÐ¾Ð³Ð¾": 1778,
      "ÑĪÑĳ": 1779,
      "ÑĢÑĥÑİÑĤ": 1780,
      "ick": 1781,
      "ĠA": 1782,
      "Ð²ÑĭÑĥ": 1783,
      "Ð¶Ð¼Ñĥ": 1784,
      "Ġtru": 1785,
      "Ġheart": 1786,
      "Ð±ÐµÐ·Ð¾ÑĤ": 1787,
      "Ð²Ð¾Ð·Ð¾": 1788,
      "ÑīÐ¸Ð¹": 1789,
      "ÐĲÐ½": 1790,
      "Ð¿ÑĤÐ¸": 1791,
      "Ð³ÐµÑĢÐ¾": 1792,
      "Ð·Ð»Ð°": 1793,
      "Ð·Ð°ÑĢÐ¸": 1794,
      "Ð²ÑĭÐ»Ñĥ": 1795,
      "Ð²Ð¸Ð±ÑĢÐ¾": 1796,
      "Ġyet": 1797,
      "Ð²ÑĭÐ¿Ð»Ð°": 1798,
      "Ġhand": 1799,
      "CA": 1800,
      "Ð²Ð¶Ð¸": 1801,
      "Ð´ÐµÐºÐ»Ð°": 1802,
      "ÑĤÐ°Ñı": 1803,
      "Ð³Ð¸Ð±Ð°": 1804,
      "Ð¼ÐµÑĤÐ°": 1805,
      "Thou": 1806,
      "ÐµÐ¼Ð¸": 1807,
      "Ð·Ð°ÑĤÑĢÑĥ": 1808,
      "Ð²ÑĭÐ¿Ñı": 1809,
      "very": 1810,
      "Ð·ÐµÑĢÐ½Ð¾": 1811,
      "Ð·Ð°Ð²": 1812,
      "Ð³Ð¾ÑĢÐ¾": 1813,
      "ÐºÐ°ÑĤ": 1814,
      "ÑĤÐ¾Ð³Ð¾": 1815,
      "ICHARD": 1816,
      "Ð·Ð°Ð³Ð»Ñĥ": 1817,
      "ENTIO": 1818,
      "Ð´ÐµÐ²ÑıÑĤÐ¸": 1819,
      "With": 1820,
      "Ð¿Ñĭ": 1821,
      "Ð³Ð¾ÑĢÐ¸": 1822,
      "ÐºÐ°Ð»Ð¸": 1823,
      "Ð¶Ð¸Ð·": 1824,
      "ign": 1825,
      "Ð¶Ð¾": 1826,
      "ÑĪÐµÑĢ": 1827,
      "Ð´Ð¸ÑĢÑĥ": 1828,
      "Ð²Ð¸ÑĩÐ°": 1829,
      "Ġsome": 1830,
      "ance": 1831,
      "Ð¶ÑĥÑĢ": 1832,
      "Ð¿Ð¾Ð»Ð½Ñı": 1833,
      "Ð´ÐµÐ¼Ð¾Ð½": 1834,
      "ÑĩÐºÐ¸": 1835,
      "Ġwho": 1836,
      "Ð²Ð·Ð±Ñĥ": 1837,
      "ÑĪÐ¸Ðµ": 1838,
      "ÑĤÑĭÐµ": 1839,
      "Ð·Ð°Ð¸Ð½": 1840,
      "ÑģÑĤÑĢÐ°Ð¸Ð²Ð°": 1841,
      "Which": 1842,
      "Ð´Ð½Ð¸": 1843,
      "Ð±Ð°ÑĢÐ¸": 1844,
      "Ð²ÑĭÑģÐ°": 1845,
      "If": 1846,
      "ÐºÐ¸Ð´ÑĭÐ²Ð°": 1847,
      "ÑĤÑĭÐ¼Ð¸": 1848,
      "Ġwhen": 1849,
      "ies": 1850,
      "Ð²ÑĭÐ·": 1851,
      "Ð½Ð¾Ðº": 1852,
      "Ð´ÐµÐ·Ð¸Ð½": 1853,
      "Ġmar": 1854,
      "Ð´ÐµÑĢÐµ": 1855,
      "ÑĤÑĭÐ¼": 1856,
      "Ð³Ð¾ÑĢÐ½Ð¾": 1857,
      "ire": 1858,
      "ÐµÐ´Ð°": 1859,
      "Ð·Ð°Ð»Ð¾": 1860,
      "Ð²Ð¾Ð·Ð³Ð»Ð°": 1861,
      "Ð·Ð°ÑģÐ°": 1862,
      "Ð²ÑĭÑĤÐµÑģ": 1863,
      "ÑıÐ¼": 1864,
      "Ġmine": 1865,
      "Ġhon": 1866,
      "ÑĪÐ¸Ñħ": 1867,
      "Ð±Ð»Ð¸Ð²Ð°": 1868,
      "Ð¿Ñı": 1869,
      "ÑĤÐ°ÑĢ": 1870,
      "har": 1871,
      "orn": 1872,
      "Ð±ÐµÑģÐ¿ÑĢÐ¸": 1873,
      "Ġoff": 1874,
      "Ð³ÐµÐ»Ð¸Ð¾": 1875,
      "ÑĢÐ°Ñģ": 1876,
      "Ð´Ð¾Ð²": 1877,
      "ince": 1878,
      "INC": 1879,
      "In": 1880,
      "ack": 1881,
      "ĠY": 1882,
      "Ð°ÑĤÐ°": 1883,
      "ÑĤÑĩÐ¸": 1884,
      "Ð·Ð°Ñı": 1885,
      "Ð·Ð°ÑīÐµ": 1886,
      "Ð²ÑĭÐ²ÐµÑĢ": 1887,
      "Ð´Ð°Ñħ": 1888,
      "Ð±ÐµÐ´": 1889,
      "Ð·Ð°ÑģÐ»Ñĥ": 1890,
      "Ð²ÐºÑĢÐ°": 1891,
      "Ð²ÑĭÐ¿Ð¾": 1892,
      "Ð´Ð¾ÑģÑĤÐ¾": 1893,
      "ÑĤÐ¸ÑĢÐ¾Ð²Ð°Ð½": 1894,
      "Ð³Ð°Ð»ÑĮ": 1895,
      "Ġson": 1896,
      "Ġdis": 1897,
      "ÑĪÐ¸Ð¼Ð¸": 1898,
      "ÐµÐ½Ð¸Ð¸": 1899,
      "ÐµÐ½Ð¸Ñİ": 1900,
      "ÑģÑĤÐ²Ð¾Ð¼": 1901,
      "Ð²ÑĭÑĤÐ¾": 1902,
      "Ġal": 1903,
      "Ð±Ð¸Ð½": 1904,
      "ÑħÐ¾Ð½ÑĮ": 1905,
      "ÐĴÐ¸": 1906,
      "'t": 1907,
      "Ð²ÑĭÑĩ": 1908,
      "Ð²ÑĭÐ²Ð¾": 1909,
      "Ð½Ð¸ÐºÐ¸": 1910,
      "ÑĦÐµÐº": 1911,
      "Ð·Ð°Ð³ÑĢÐ¾": 1912,
      "We": 1913,
      "Ð²ÑĭÐ¸": 1914,
      "ÑĤÐ¾Ð¼Ñĥ": 1915,
      "Ð²Ð¸Ð½Ð¾": 1916,
      "ÐµÐ½Ð¸ÐµÐ¼": 1917,
      "Ð·ÐµÐ½": 1918,
      "Ð±ÑĢÑı": 1919,
      "Ð²Ð¸Ð·": 1920,
      "ÑģÑĤÐ¾Ð¼": 1921,
      "Ð½Ð¸ÑĤÐµ": 1922,
      "Ð»Ð°Ð´ÑĭÐ²Ð°": 1923,
      "ÑĤÐ¾Ðµ": 1924,
      "ÑĩÐ¸ÑĤÑĭÐ²Ð°": 1925,
      "ÑģÑĭ": 1926,
      "ÑĤÑİ": 1927,
      "ÑĤÑĥÑİ": 1928,
      "ÑĩÐºÑĥ": 1929,
      "Ð²Ð¾Ð»ÑĮÐ½Ð¾": 1930,
      "Ð±Ð¾Ð³Ð°": 1931,
      "Ð²Ð¾ÑģÐ¿Ð¸": 1932,
      "uch": 1933,
      "wn": 1934,
      "Ġhea": 1935,
      "First": 1936,
      "oy": 1937,
      "ÑģÐ»Ð°": 1938,
      "Ð²ÑĭÑģÑĤÐ°": 1939,
      "Ð²Ð¾Ð¾ÑĢÑĥ": 1940,
      "ÐºÐµÑĤÐ¸": 1941,
      "ÑıÐ½": 1942,
      "Ġtime": 1943,
      "Ġhear": 1944,
      "ÑģÐ½Ñĥ": 1945,
      "Ð´Ñĳ": 1946,
      "Ð²ÑĭÐ±ÑĢÐ°": 1947,
      "ÑĤÐµÑħ": 1948,
      "Ð²ÐµÑĢÑħÐ¾": 1949,
      "Ð²Ð¾Ð·Ð²ÑĢÐ°": 1950,
      "Ð°ÑģÑĦÐ°Ð»ÑĮ": 1951,
      "Ð·Ð°Ð¿Ð¾Ð»": 1952,
      "AB": 1953,
      "ec": 1954,
      "ÑģÐ»Ñı": 1955,
      "Ð³ÑĢÑĭÐ²Ð°": 1956,
      "Ð°ÑĢÐºÐ°": 1957,
      "Ð²ÑĭÑģÐ»Ñĥ": 1958,
      "Ġsuch": 1959,
      "Ð²ÑĮÑİ": 1960,
      "ness": 1961,
      "ÑģÐµÐ½": 1962,
      "Ð´Ð¾Ð»Ðµ": 1963,
      "ÑĢÐ¸ÐºÐ°": 1964,
      "Ð½ÑĤÐ¾Ð²Ð°": 1965,
      "LA": 1966,
      "Ð·Ð°ÐºÐ»Ð¸": 1967,
      "ÑĨÐµÐ²": 1968,
      "Ġbrother": 1969,
      "ÑıÐ¼Ð¸": 1970,
      "ÑĩÐ°Ð½": 1971,
      "Ð²Ð¾Ð·ÑĢÐ°": 1972,
      "Ð´ÑĳÑĢÐ³Ð¸Ð²Ð°": 1973,
      "Ð´Ð¾ÐºÑĥÐ¼ÐµÐ½": 1974,
      "Of": 1975,
      "Ð³ÐµÐ¼Ð¾": 1976,
      "ÑıÑħ": 1977,
      "Ð·Ð°Ð±Ñĥ": 1978,
      "Ð¿Ð»Ð¸": 1979,
      "Ð²ÑĭÑģÐ¸": 1980,
      "Ð´Ð¾ÐºÐ¾": 1981,
      "Ð´Ð¾ÑģÑĤÐ¸": 1982,
      "Ð½Ð¸ÐºÐ¾Ð¼": 1983,
      "Ð»ÑıÑĢ": 1984,
      "Ð´Ð²Ð¾": 1985,
      "Ð·Ð°Ð±Ð¸": 1986,
      "Ð»Ð¾Ð²": 1987,
      "ÑīÐ¸Ð¼": 1988,
      "Ð³ÐµÐ½ÐµÑĢÐ°": 1989,
      "Ð±Ð°Ð»ÑĤÑĭÐ²Ð°": 1990,
      "Ð²ÑĳÑĢÑĤÑĭÐ²Ð°": 1991,
      "Ð·Ð°ÑĨÐµ": 1992,
      "Ð´Ð¾Ð¶Ð¸": 1993,
      "ÑĤÐ¸Ð¹": 1994,
      "Ġblood": 1995,
      "Ð·Ð²ÐµÑĢ": 1996,
      "ÑĨÐ¸Ñİ": 1997,
      "ither": 1998,
      "Ð·Ð²ÐµÐ·": 1999,
      "Ð²ÑĭÑĪÐµ": 2000,
      "Ġab": 2001,
      "ÑĪÐ¸Ð¼": 2002,
      "ÑĪÐ¸Ð¹": 2003,
      "UE": 2004,
      "Why": 2005,
      "ÐµÑģÑĤÐµ": 2006,
      "ÑĩÐºÐµ": 2007,
      "ÑĪÐ»Ñı": 2008,
      "Ġthese": 2009,
      "Ð±ÑĥÐ½": 2010,
      "Ð²Ð¾ÑģÐ¿ÑĢÐ¾Ð¸Ð·": 2011,
      "Ð·Ð°Ð³Ð»Ð°": 2012,
      "Ð²ÑĭÐºÐ»Ð¸": 2013,
      "No": 2014,
      "Ð»ÐºÐ½Ñĥ": 2015,
      "Ð½Ð¾Ð¼Ð¸": 2016,
      "Ð±ÑĥÐ¼Ð°": 2017,
      "Ġgive": 2018,
      "Ð±ÑĢÐ¾Ð½": 2019,
      "Ð°ÐºÑĥ": 2020,
      "Ð´ÑĢ": 2021,
      "Ð·ÐµÐ¼Ð»Ñı": 2022,
      "Ð¿ÐµÐ½": 2023,
      "Ð°ÑĢÐµÐ½": 2024,
      "ÑĪÐºÐ¸": 2025,
      "Ð³Ð°Ð´Ð°": 2026,
      "ÑĨÐ¸ÐµÐ¹": 2027,
      "Ð³ÑĥÑģÑĤÐ¾": 2028,
      "Ð±Ð»Ð°Ð³Ð¾Ñĥ": 2029,
      "Ð²ÑĭÑĪÐ°": 2030,
      "Ð´Ð¸Ð¿Ð»Ð¾": 2031,
      "ÑĨÐ¸ÐµÑİ": 2032,
      "Ġfo": 2033,
      "Ġday": 2034,
      "Ð²ÐµÑĤÑĢÐ¾": 2035,
      "Ð±Ð¾Ð»ÑĤÐ°": 2036,
      "Ð¿ÑĤÐ°": 2037,
      "Ð·Ð°ÑĪÑĤÐ¾": 2038,
      "Ð»Ð°Ð¼ÑĭÐ²Ð°": 2039,
      "Ð´ÑĢÑĭ": 2040,
      "Ð´Ð°Ð¼Ð¸": 2041,
      "ĠII": 2042,
      "Ġear": 2043,
      "ĠRICHARD": 2044,
      "TER": 2045,
      "Ġro": 2046,
      "Ð°ÐºÐ°": 2047,
      "Ð°Ð³Ð¸": 2048,
      "Ð²ÑĭÑĢ": 2049,
      "ise": 2050,
      "Ð²Ð¾Ð·Ð±Ñĥ": 2051,
      "ÑĢÑĭÑģÐºÐ¸Ð²Ð°": 2052,
      "Ġex": 2053,
      "Ġlife": 2054,
      "This": 2055,
      "eet": 2056,
      "ÑĪÐºÐ°": 2057,
      "Ð½Ð¸ÐºÐ¾Ð²": 2058,
      "Ġtell": 2059,
      "Ð´Ð¸Ð½Ð°Ð¼Ð¸": 2060,
      "Ð³ÑĢÐ°ÑĦ": 2061,
      "Ð°ÐºÐºÑĥ": 2062,
      "Ð³ÑĢÑĥÐ¿": 2063,
      "So": 2064,
      "Ġlook": 2065,
      "Ġthink": 2066,
      "UCH": 2067,
      "Ð²Ð»ÐµÐ½Ð½Ð¾": 2068,
      "ÑģÑģÐ¸": 2069,
      "Ð±Ð»Ñı": 2070,
      "Ð¿ÑĤÑĭÐ²Ð°": 2071,
      "oul": 2072,
      "Ð»ÐµÐ½Ð¾": 2073,
      "Ġword": 2074,
      "Ð±ÑĢÐ¾ÑĪ": 2075,
      "Ġey": 2076,
      "Ð²Ð¸Ð½ÑĤÐ¸": 2077,
      "Ġwhere": 2078,
      "Ð·Ð´": 2079,
      "Ð¼Ð¸Ð½Ð¸": 2080,
      "Ð²Ð·Ñĭ": 2081,
      "ag": 2082,
      "age": 2083,
      "een": 2084,
      "ther": 2085,
      "Ð°ÑĨ": 2086,
      "Ð´ÑĢÐµÑģ": 2087,
      "Ð¿Ð»ÐµÐº": 2088,
      "Ð²ÑĭÐ»Ð¸": 2089,
      "GLO": 2090,
      "Ð°Ð´Ð°": 2091,
      "Ġtake": 2092,
      "Ð»ÑİÐ±Ð¸": 2093,
      "Ð´ÐµÐ½Ð°": 2094,
      "UCES": 2095,
      "Ġfriend": 2096,
      "GLOUCES": 2097,
      "GLOUCESTER": 2098,
      "ef": 2099,
      "Ð·Ð´Ð¸": 2100,
      "Ð±Ñı": 2101,
      "Ð²ÐµÑģÑĤ": 2102,
      "erv": 2103,
      "Ð²Ð°ÑĤ": 2104,
      "Ð´Ð¾Ð³": 2105,
      "Ð´Ð¾ÑĢÐ¸": 2106,
      "Ð´Ð¸Ðº": 2107,
      "Ð»ÑĳÐ²ÑĭÐ²Ð°": 2108,
      "Ð²Ð¾Ð´Ñı": 2109,
      "Ð²ÑĭÑĤÑĢÑı": 2110,
      "Ð°Ð»Ðµ": 2111,
      "Ð·Ð°Ð±ÑĢÐ°": 2112,
      "Ð²Ð°Ñħ": 2113,
      "ÑĢÐ°Ð²Ð¸": 2114,
      "Ð·Ð°Ð³ÑĢÑı": 2115,
      "ÑĩÐµÐº": 2116,
      "ady": 2117,
      "rown": 2118,
      "Ð°ÑĢÐ¾": 2119,
      "Ð²ÑĢÐµÐ¼": 2120,
      "Ð·Ð°Ñĩ": 2121,
      "Ð´Ð¾Ð·": 2122,
      "Ð´Ð¾Ð»Ð¸": 2123,
      "Ð´Ð¾Ð±Ð°": 2124,
      "Ð½Ð¸ÐºÐ°Ð¼Ð¸": 2125,
      "Ġdes": 2126,
      "ings": 2127,
      "ÑĤÐ½Ð¾Ð¹": 2128,
      "Ð·Ñı": 2129,
      "Ð·Ð°ÑģÐ¸": 2130,
      "Ð·Ð°Ð¶Ð°": 2131,
      "Ð½Ð¸ÐºÐ°Ð¼": 2132,
      "Ð½Ð¸ÐºÐ°Ñħ": 2133,
      "ÑĤÐµÐ»Ðµ": 2134,
      "Ð´ÑĥÑĢÐ°": 2135,
      "Ð¶Ð¸Ð²Ð¾": 2136,
      "Ð²Ð¾Ð·Ð¼Ðµ": 2137,
      "Ð³ÑĢÐ°Ð´Ñĥ": 2138,
      "Ð·Ð°ÑĤÑı": 2139,
      "Ð·Ð°Ð¼ÐµÑĢ": 2140,
      "Ð²ÑĭÐºÐ¾ÑĢ": 2141,
      "Ð·Ð°Ð³ÑĢÑıÐ·": 2142,
      "ave": 2143,
      "not": 2144,
      "ÑĤÐ½ÑĥÑİ": 2145,
      "Ð´Ð¾Ñĥ": 2146,
      "Ð±Ð»Ð¾ÐºÐ¸": 2147,
      "ÑĤÐ½ÑĭÐ¼": 2148,
      "ÑĤÐ½ÑĭÐµ": 2149,
      "ÐºÑĢÑĭ": 2150,
      "Ġgentle": 2151,
      "Ð²ÑĭÐ¿Ðµ": 2152,
      "urse": 2153,
      "Ð¾Ð»Ð¾Ð³Ð¸": 2154,
      "Ð²Ð¿Ðµ": 2155,
      "ÑĤÐ½ÑĭÑħ": 2156,
      "ÑĤÐ½ÑĭÐ¼Ð¸": 2157,
      "ÑĤÐ½Ð°Ñı": 2158,
      "ÑĤÐ½Ð¾Ð¼": 2159,
      "ÑĤÐ½Ð¾Ñİ": 2160,
      "ÑĤÐ½Ð¾Ð³Ð¾": 2161,
      "ÑĤÐ½Ð¾Ðµ": 2162,
      "ÑĤÐ½Ð¾Ð¼Ñĥ": 2163,
      "Ð²ÑĬ": 2164,
      "Ð·Ð°Ð±Ðµ": 2165,
      "ÐºÐ¾ÑĢ": 2166,
      "Ð¶Ð¸ÑĢÐ¾Ð²Ð°": 2167,
      "Ð²Ð¾ÑģÑħÐ¸": 2168,
      "ÐºÑĢÐ¸": 2169,
      "Ð²ÑĭÐ»Ð¾": 2170,
      "Ð²Ð¾Ð½": 2171,
      "ÐµÑģÐ¾": 2172,
      "Ð²Ð·Ð»Ð¾": 2173,
      "How": 2174,
      "RY": 2175,
      "Ġri": 2176,
      "Ð±Ð»Ñĥ": 2177,
      "Ð½Ð°Ð»Ð¸": 2178,
      "ÑħÐ¾Ð´": 2179,
      "Ð¼Ð°ÑĤÑĢÐ¸Ð²Ð°": 2180,
      "ase": 2181,
      "ÑĢÐ¾Ð²ÑīÐ¸": 2182,
      "ÑĪÐºÐ¾": 2183,
      "Ð½Ð¸Ð¼": 2184,
      "Ð´Ð°Ð½": 2185,
      "ÑģÐ¾Ð¼": 2186,
      "Ð·Ð°ÑħÐ»Ð¾": 2187,
      "Ð±Ð¸Ð±Ð»Ð¸": 2188,
      "Ð²ÐµÑĢÑĤÐ¾": 2189,
      "Ð¿Ð¸ÑĢÐ¾Ð²Ð°": 2190,
      "QUE": 2191,
      "way": 2192,
      "Ð¿Ð½Ñĥ": 2193,
      "ÑĮÑİ": 2194,
      "ÑħÐµ": 2195,
      "Ð±ÐµÐ»ÑĮ": 2196,
      "ÑįÐ»ÐµÐº": 2197,
      "INCENTIO": 2198,
      "QUEEN": 2199,
      "Ð½ÐµÑĢ": 2200,
      "Ð½Ð¾ÑĤÐ¸": 2201,
      "Ð»Ð¾ÑĤÐ¸": 2202,
      "Ð±Ð°ÑĤÐ¸": 2203,
      "Ġlea": 2204,
      "Ð²ÑģÑĤÑĢÑı": 2205,
      "ÑĤÑĢÐ¾Ð¿Ð¾": 2206,
      "tis": 2207,
      "Ð¸Ð´": 2208,
      "Ð³Ð¾ÑĢÑı": 2209,
      "Ð´Ð¾Ð½": 2210,
      "Ð´Ð¾Ð¿Ð¾": 2211,
      "ÑĨÐ²ÐµÑĤ": 2212,
      "Ð·Ð°Ð¿ÑĢÐµ": 2213,
      "ÐĳÐ¾": 2214,
      "Ð¶ÐµÐ»ÑĤÐ¾": 2215,
      "ĠOF": 2216,
      "ÑĢÐ°Ð»Ð¸": 2217,
      "Ð²ÐµÐ»Ð¾": 2218,
      "Ð²Ð·ÑĢÐ°": 2219,
      "ÑģÑĤÐ°Ð»Ð»Ð¸": 2220,
      "Ð²Ð¾ÑģÐ¿ÑĢÐ¸": 2221,
      "ÑħÐ¸Ð¼Ð¸": 2222,
      "Ġart": 2223,
      "Ð´Ð¾Ð¸Ð·": 2224,
      "ÑĢÑĥÑĩÐ¸Ð²Ð°": 2225,
      "Ġmost": 2226,
      "Ð°Ð½ÑĤÑĢÐ¾Ð¿Ð¾": 2227,
      "ÑĢÑĭÐ³Ð¸Ð²Ð°": 2228,
      "ÑĤÐµÐ»ÑĮÐ½ÑĭÐ¹": 2229,
      "Ð°Ð¼Ð°": 2230,
      "Ð³Ð½Ð¾": 2231,
      "ÑĪÑĳÑĢ": 2232,
      "Ð´ÐµÐ»Ðµ": 2233,
      "ÑĩÐ¸ÑĤÐ°": 2234,
      "Ð»ÐµÑĤÐ¾": 2235,
      "ÑĢÐµÐ½Ð°": 2236,
      "Where": 2237,
      "Ġhonour": 2238,
      "LAN": 2239,
      "Ð²Ð¸Ð·Ð¸": 2240,
      "Ġmuch": 2241,
      "Ð²Ð¿ÑĢÑı": 2242,
      "Ð°Ð½Ð°Ð»Ð¸": 2243,
      "Ð³ÑĢÑıÐ·": 2244,
      "Ð¿Ð»Ð¸Ð²Ð°": 2245,
      "Ð»Ð¾Ð²Ð°": 2246,
      "Ġsl": 2247,
      "Ġwar": 2248,
      "Ð²ÑĥÐ»ÐºÐ°": 2249,
      "Ð³ÑĢÑĥÐ·Ð¾": 2250,
      "Ð³ÑĢÐµÐ±": 2251,
      "Ð³Ð°ÑĢÐ¼Ð¾Ð½Ð¸": 2252,
      "Ð½ÑĩÐ¸Ð²Ð°": 2253,
      "Ð´Ð¸ÑģÐºÐ¾": 2254,
      "Ð´ÐµÐº": 2255,
      "Ð·Ð°Ð¿ÑĢÑĥ": 2256,
      "Ġfl": 2257,
      "ÑĢÐ¾Ð²Ð°Ð½Ð½ÑĭÐ¹": 2258,
      "urn": 2259,
      "Ð°Ð±Ð¾": 2260,
      "ÑĢÐµÐ¹": 2261,
      "ÑĩÐ°ÑĤÑĭÐ²Ð°": 2262,
      "Ð³ÑĢÐ°Ð½Ñĥ": 2263,
      "Ð²ÐºÐ»Ð¸": 2264,
      "Ġmade": 2265,
      "ment": 2266,
      "Ð·Ð°ÑīÑĳ": 2267,
      "ÑĤÐ¾Ð»Ð¾Ð³Ð¸": 2268,
      "Ð·Ð°Ð¿Ð°ÑĢ": 2269,
      "Now": 2270,
      "Ð²Ð½ÐµÑģ": 2271,
      "Ð½ÐµÑĤÐµ": 2272,
      "Ð·Ð°Ð²Ð¾Ð´": 2273,
      "Ð³Ð¾Ð½Ð¸": 2274,
      "Ð²Ð·Ð¼ÐµÑĤ": 2275,
      "Ġhast": 2276,
      "ÑĤÑĳÑĢ": 2277,
      "Ð·Ð°Ð¹": 2278,
      "Ð½Ð¸ÑĨ": 2279,
      "Ġtw": 2280,
      "Ġfear": 2281,
      "ĠT": 2282,
      "ÑĤÐ°ÑĢÐ¸": 2283,
      "Ð²ÐµÑĪÐ¸Ð²Ð°": 2284,
      "Ð²ÑģÑĥ": 2285,
      "Ð²ÑĭÑģÑĥ": 2286,
      "Ð²ÑıÐ·": 2287,
      "Ð²ÑĭÑĤÑı": 2288,
      "Ð´Ð¾ÑģÐ»Ñĥ": 2289,
      "Ð´Ð½ÐµÐ²": 2290,
      "ÑīÑĳÐ½": 2291,
      "ÑģÐºÐ¾Ð¿Ð¸": 2292,
      "Ð³ÑĢÐ°Ð½": 2293,
      "Ð²Ð¿Ð°": 2294,
      "ÑģÐµÑĢ": 2295,
      "ÑĩÐºÐ°Ð¼Ð¸": 2296,
      "ÑĩÐºÐ°Ñħ": 2297,
      "Ð²Ð¾Ð¿Ð»Ð¾": 2298,
      "Ð´Ð¾ÑģÐ°": 2299,
      "Ð»ÑĮÐ³Ð°": 2300,
      "Ð²ÑģÐºÐ°": 2301,
      "Ð·Ð°Ð·Ñĥ": 2302,
      "ÑĩÐºÐ°Ð¼": 2303,
      "Ð´ÑĥÑĢ": 2304,
      "Ġbet": 2305,
      "Ð·Ð°ÐºÐ¾Ð½": 2306,
      "ENRY": 2307,
      "aught": 2308,
      "Ð´ÑĥÐ¼ÑĭÐ²Ð°": 2309,
      "ÑģÑģÐµ": 2310,
      "Ð²Ð°Ðº": 2311,
      "Ð´Ð¸Ð½Ð°": 2312,
      "Ð²ÑģÐ¿Ð°": 2313,
      "Ð±Ð»Ð°Ð³Ð¾ÑģÐ»Ð¾": 2314,
      "Ð²Ð¾Ðº": 2315,
      "Ð³Ð¸Ð´ÑĢÐ¸": 2316,
      "Ð²Ð¾ÑģÐ¿Ð°": 2317,
      "Ð°Ð´ÑĢÐµÑģ": 2318,
      "Ð±Ð°ÐºÑĤÐµÑĢÐ¸": 2319,
      "Is": 2320,
      "LE": 2321,
      "ber": 2322,
      "ff": 2323,
      "Ð²ÑĤÑı": 2324,
      "Ð·Ð³Ð°": 2325,
      "Ð½Ð¾Ð»Ð¾Ð³Ð¸": 2326,
      "Ð°Ð²ÑĤÐ¾Ð¼Ð¾": 2327,
      "Ð²Ð¾Ð¾Ð´ÑĥÑĪÐµ": 2328,
      "ĠGod": 2329,
      "Ð¼ÐµÑĢÐ¸": 2330,
      "Ð·Ð°Ð½Ð¾": 2331,
      "ÑĢÐ¾Ð¹": 2332,
      "Ð³Ð¾ÑĢÐµ": 2333,
      "ough": 2334,
      "ved": 2335,
      "ÑģÐ°Ð¼": 2336,
      "Ð²Ð°Ð½Ð½ÑĭÐ¹": 2337,
      "Ð¾Ð±": 2338,
      "Ð³ÐµÑĤ": 2339,
      "Ð±Ð¾Ñı": 2340,
      "Ġbre": 2341,
      "Ð·Ð°ÑĤÑĢÐµ": 2342,
      "Ð²Ð¾Ð»Ð¾Ðº": 2343,
      "Ð´ÐµÑĤÐ¾": 2344,
      "ÑĮÐºÐ¾": 2345,
      "ÑĢÐ°Ð²Ð»Ñı": 2346,
      "Ð²Ð¸ÑĢ": 2347,
      "Ð²ÑĭÐ¿Ð»ÐµÑģ": 2348,
      "Ð²ÑĢÐ°Ð·Ñĥ": 2349,
      "ÑģÐ¾ÑĢÐ±Ð¸": 2350,
      "cc": 2351,
      "Ð·Ð¼": 2352,
      "ÑĩÐ¾": 2353,
      "ÑĤÐ¸Ð½": 2354,
      "Ð»ÐµÐ²ÑĭÐ²Ð°": 2355,
      "ÑģÐ¾Ð»Ñİ": 2356,
      "ower": 2357,
      "Ð°ÐºÐ²Ð°": 2358,
      "Ð´Ð²Ð¸Ð½Ñĥ": 2359,
      "Ġnever": 2360,
      "ĠVINCENTIO": 2361,
      "Ð²Ð¾ÑģÑģÐ¾ÐµÐ´Ð¸": 2362,
      "Be": 2363,
      "ap": 2364,
      "igh": 2365,
      "ĠK": 2366,
      "Ð²Ð²Ð¾": 2367,
      "Ð·Ð¼Ð°": 2368,
      "Ð¶ÑĳÐ½": 2369,
      "Ð´Ð¸ÑĢÐ°": 2370,
      "Ð³ÑĥÐ»Ñı": 2371,
      "Ð°ÑĢÑĤÐ¸": 2372,
      "Ġgreat": 2373,
      "Ð·Ð°ÑģÑĤÑĢÐ°": 2374,
      "ÐĴÐ°": 2375,
      "Ð²Ð»Ð°Ð³Ð¾": 2376,
      "Ġfair": 2377,
      "Ð±Ð¸Ð±Ð»Ð¸Ð¾": 2378,
      "Who": 2379,
      "ee": 2380,
      "tle": 2381,
      "Ð²Ð°ÐºÑĥ": 2382,
      "Ð½Ð¾Ð²Ð»Ñı": 2383,
      "ÑħÑĢÐ°": 2384,
      "Ð´ÐµÐ»Ñı": 2385,
      "Ġmen": 2386,
      "Ð²Ð·Ð´Ñĭ": 2387,
      "orrow": 2388,
      "Ġcou": 2389,
      "Ð²ÑģÐºÐ¸Ð¹": 2390,
      "Ð°Ð±ÑģÐ¾Ð»Ñİ": 2391,
      "Ġnew": 2392,
      "ĠRome": 2393,
      "aster": 2394,
      "Ð²ÑĩÐ¸": 2395,
      "uke": 2396,
      "ÐµÐ»Ð¾": 2397,
      "Ð¿Ð»ÐµÐ½": 2398,
      "ÑħÑĢÐ¾": 2399,
      "Ð»Ð°Ð¼Ð¸": 2400,
      "Ð²Ð·Ð´Ñĥ": 2401,
      "Ð·Ð¸Ð¼Ð¾": 2402,
      "Ð¶Ð¸ÑĢÑĥ": 2403,
      "ÑĤÐµÐ»ÑĮÐ½Ð¸ÑĨÐ°": 2404,
      "iz": 2405,
      "Ð´ÑĩÐ¸": 2406,
      "Ð´ÑĢÐ¸Ð²Ð°": 2407,
      "Ð²ÑĭÑĢÐ¾": 2408,
      "Ð³Ð°ÑģÑĤÑĢÐ¾": 2409,
      "Ð½ÐµÑĪÑĮ": 2410,
      "Ð·Ð°ÑģÐ»Ð¾": 2411,
      "Ð·Ð°ÑħÐ»Ñĳ": 2412,
      "Ð²ÐµÑģÐ¸": 2413,
      "ÐµÐ·Ð¶Ð°": 2414,
      "Ð²ÑģÐºÐ»Ð¾": 2415,
      "old": 2416,
      "Ð³ÐµÐ¼": 2417,
      "Ð¿Ð¾ÑĢÐ¸Ð²Ð°": 2418,
      "Ð·Ð°ÑĤÐ²ÐµÑĢ": 2419,
      "Ð²ÑĤÐ¾ÑĢÐ¾": 2420,
      "Ð»ÐµÑĤÐ¸": 2421,
      "ORK": 2422,
      "Ð²ÑĭÑĢÐ¸Ð²Ð°": 2423,
      "Ð±Ð¾Ð½": 2424,
      "Ð²ÐµÑĩÐ¸Ð²Ð°": 2425,
      "ÑĬÐµÐ¼": 2426,
      "Ð±ÑĢ": 2427,
      "Ð·Ð°ÑĦ": 2428,
      "Ð·Ð°Ð±ÑĢÐ¾": 2429,
      "ÑĩÐµÑĤ": 2430,
      "Ð´Ð¾Ð¿Ñĥ": 2431,
      "ÐºÐ¸Ð½Ñĥ": 2432,
      "Ð´ÑĳÑĢÐ½Ñĥ": 2433,
      "Ð³Ð°Ð»ÑĮÐ²Ð°": 2434,
      "Ð±Ð¾ÐºÐ¾": 2435,
      "ÑĤÐ°Ð¶": 2436,
      "Ġpart": 2437,
      "Ð·Ð°ÑģÐµÐº": 2438,
      "ation": 2439,
      "Ð·Ð°Ð±ÑĢÑĭ": 2440,
      "ÐºÐ»Ð°ÑģÑģ": 2441,
      "Ð²ÑĢÐ¾": 2442,
      "Ð±ÐµÐ»": 2443,
      "Ð·Ð¾ÑĢ": 2444,
      "Ð²Ð¾ÑģÐ¿": 2445,
      "Ð·Ð°Ð³Ð¾ÑĤÐ¾": 2446,
      "INIUS": 2447,
      "ss": 2448,
      "Ð°Ð¹": 2449,
      "ÐµÐ¿Ð¸": 2450,
      "Ð¿Ð¾Ð´Ð¾Ð±": 2451,
      "ree": 2452,
      "Ð·Ð°Ð¿Ð»Ð°": 2453,
      "ÑģÐ¸ÑĢÑĥ": 2454,
      "Ð·Ð°ÐºÐ²Ð°": 2455,
      "ide": 2456,
      "Or": 2457,
      "Ð°Ð³": 2458,
      "Ð±Ð»ÐµÐ½Ð½Ð¾": 2459,
      "Ð²ÑĭÑĪÐ¸": 2460,
      "Ð²Ð¾Ð¾Ð±ÑĢÐ°": 2461,
      "Ð´Ð¾Ð²Ð¾": 2462,
      "Ð½Ð¸ÑģÑĤ": 2463,
      "Ð»Ð¸Ð½": 2464,
      "Ġcall": 2465,
      "ple": 2466,
      "Ð´Ð¾Ð¶": 2467,
      "Ð´Ð¾ÑģÑĥ": 2468,
      "Ð»ÑĮÐµ": 2469,
      "ÑĤÐµÑĢÐ°": 2470,
      "Ð²Ð¾Ð·ÑĢÐ¾": 2471,
      "Ð·Ð°ÑħÐ»Ð°Ð¼": 2472,
      "Ð°Ð¼ÐµÑĢÐ¸": 2473,
      "Ġany": 2474,
      "Ð·Ð°Ð¿ÐµÑĩÐ°ÑĤ": 2475,
      "Ġheaven": 2476,
      "Ð´Ð²ÐµÐ½": 2477,
      "Ð·Ð°Ð²Ð¾Ðµ": 2478,
      "Ð´Ð¾ÑĢ": 2479,
      "ÑĢÐ¸ÑĢÑĥ": 2480,
      "Ġad": 2481,
      "Ð¿Ð°Ñģ": 2482,
      "Ð·Ð°ÐºÐ¾Ð½Ñģ": 2483,
      "Ð·ÐµÐ»ÐµÐ½": 2484,
      "ÑģÑĤÐºÐ¾": 2485,
      "Ð²ÐµÑīÐ°": 2486,
      "ÑģÐ¾Ð²": 2487,
      "Ð±ÑĥÐ¹": 2488,
      "Ð¿Ð°ÑĤÐ¸": 2489,
      "Ð¶ÐµÐ»Ðµ": 2490,
      "Ð³ÐµÐ»ÑĮ": 2491,
      "Ð²ÐºÐ»Ðµ": 2492,
      "ÐµÐ²ÑĢÐ¾": 2493,
      "Ð´ÑĳÑĢÐ³Ð°": 2494,
      "Ġcomm": 2495,
      "ÑĢÐ¼Ð»Ð¸Ð²Ð°": 2496,
      "Ð¶Ð¸Ð·Ð½Ðµ": 2497,
      "It": 2498,
      "Your": 2499,
      "Ð²Ð»Ñİ": 2500,
      "Ð½Ð¸ÑĨÑĭ": 2501,
      "Ð´ÐµÐ»Ð¾": 2502,
      "Ð´ÐµÐ¿Ð¾": 2503,
      "ÑĨÐµÐ¿": 2504,
      "Ġstand": 2505,
      "Ð·Ð°Ð¼ÑĥÑģÐ¾": 2506,
      "Ð±Ð°Ð»Ð°Ð¼Ñĥ": 2507,
      "Ġcannot": 2508,
      "Ġtrue": 2509,
      "Ð´Ð²ÐµÐ½Ð°Ð´": 2510,
      "DW": 2511,
      "Ð¼ÑĭÐ²Ð°": 2512,
      "Ð²ÑĭÑĢÐµ": 2513,
      "Ð²Ð¸ÑĤÐ°Ð¼Ð¸": 2514,
      "Ð²Ð¸Ð´Ð¾Ð¸Ð·": 2515,
      "Ð±Ð°Ð±": 2516,
      "Ð´ÐµÐ½Ð¾": 2517,
      "Ð³Ð¸Ð¼": 2518,
      "Ð¿Ð°ÑĢÐ°": 2519,
      "Ġname": 2520,
      "Ġbeen": 2521,
      "Ð°ÐºÑĨÐµÐ½": 2522,
      "ears": 2523,
      "DWARD": 2524,
      "ÑĩÐµÑģÑĭÐ²Ð°": 2525,
      "Ġcl": 2526,
      "Ġpre": 2527,
      "ÑģÑĤÐ°Ð¼Ð¸": 2528,
      "Ð½Ð¸ÑĨÐµÐ¹": 2529,
      "Ġsweet": 2530,
      "Ð²Ð¾Ð·Ð¾Ð±": 2531,
      "Ð·Ð»Ð°ÑĤÐ¾": 2532,
      ",--": 2533,
      "Ð²ÑĭÑĢÑı": 2534,
      "Ð²Ð¸Ð½ÑĤÐ¾": 2535,
      "Ð±ÑĥÐ»": 2536,
      "Ġdoth": 2537,
      "Ð²Ð¾ÑģÐº": 2538,
      "Ð²Ð»ÐµÐºÐ°": 2539,
      "Ġpray": 2540,
      "Ð½Ð¸ÑĨÐµÑİ": 2541,
      "hing": 2542,
      "Ð¾ÑĩÐ¸": 2543,
      "Ð´Ð¾Ñħ": 2544,
      "Ð´Ð¾Ð»Ð¾": 2545,
      "Ð¶Ð¾Ð½": 2546,
      "Ð±Ð°ÑĢÐ¾": 2547,
      "Ð±ÐµÑģÐºÐ¾": 2548,
      "Ð±Ð¸Ð¾Ð»Ð¾Ð³Ð¸": 2549,
      "PET": 2550,
      "UM": 2551,
      "Ð·Ð°ÑīÐµÐ¼": 2552,
      "Ð²ÑĭÐ²ÐµÑĤ": 2553,
      "Ð³Ð¾Ð½Ð¾": 2554,
      "Ð³Ð°Ð¼Ð¸": 2555,
      "Ð¶ÐµÐ½Ð¾": 2556,
      "ÑĤÐµÐ»ÑĮÐ½Ð¾Ðµ": 2557,
      "Ġnoble": 2558,
      "LUC": 2559,
      "MEN": 2560,
      "TH": 2561,
      "Ð°Ð»Ð°": 2562,
      "Ð½Ð°ÑĪÐ¸Ð²Ð°": 2563,
      "Ġown": 2564,
      "Ġple": 2565,
      "ÑĤÐµÐ»ÑĮÐ½Ð°Ñı": 2566,
      "ÑĤÐµÐ»ÑĮÐ½ÑĭÐµ": 2567,
      "Ð²ÑĭÐºÑĢÐ°": 2568,
      "Ð·Ð°ÑģÑĤÑĢÐµ": 2569,
      "ass": 2570,
      "ĠD": 2571,
      "Ð¼Ð»Ñı": 2572,
      "Ð´ÑĮÑı": 2573,
      "ÑİÐºÐ°": 2574,
      "ouse": 2575,
      "Ð±ÐµÐ¹": 2576,
      "Ð¼Ð¾Ð²": 2577,
      "Ġper": 2578,
      "ÑĤÐµÐ»ÑĮÐ½ÑĭÑħ": 2579,
      "ÑĤÐµÐ»ÑĮÐ½ÑĥÑİ": 2580,
      "ÑĤÐµÐ»ÑĮÐ½ÑĭÐ¼Ð¸": 2581,
      "Ð±Ð°ÑĢÑĢÐ¸ÐºÐ°": 2582,
      "ÑĤÐµÐ»ÑĮÐ½Ð¾Ð¼": 2583,
      "ÑĤÐµÐ»ÑĮÐ½Ð¾Ñİ": 2584,
      "ÑĩÑĳÑģÑĭÐ²Ð°": 2585,
      "Ð±ÑĢÐ¾ÑĪÑİ": 2586,
      "Ay": 2587,
      "Come": 2588,
      "ull": 2589,
      "Ð·Ð´ÑĢÐ°": 2590,
      "Ð·Ð°Ð½Ñĥ": 2591,
      "Ð·Ð°Ð²Ð¾ÑĢÐ¾": 2592,
      "Ð²ÑĭÑģÐºÐ¾": 2593,
      "Ð²ÑĭÐ³ÑĢÑĥ": 2594,
      "Ð²ÑĭÐ·Ð²Ð¾": 2595,
      "Ð½Ð¸ÑĨÑĥ": 2596,
      "ÑĤÐµÐ»ÑĮÐ½ÑĭÐ¼": 2597,
      "There": 2598,
      "ÑĤÐµÐ»ÑĮÐ½Ð¾Ð¹": 2599,
      "ÑĤÐµÐ»ÑĮÐ½Ð¾Ð³Ð¾": 2600,
      "ÑĤÐµÐ»ÑĮÐ½Ð¾Ð¼Ñĥ": 2601,
      "Ð²ÑĭÐ¿Ð¾Ð»": 2602,
      "ÑĩÐºÐ¾Ð¹": 2603,
      "Ð³Ð¾ÑĦ": 2604,
      "Ð¶Ð½Ð¸ÑĩÐ°": 2605,
      "Ġwr": 2606,
      "Ð²Ð¾Ð·Ð²ÐµÐ»Ð¸": 2607,
      "Ġdone": 2608,
      "Ð²ÑĭÑģÐ²Ð¾": 2609,
      "Ð²Ð¿ÐµÑĢ": 2610,
      "Ð°Ð±ÑģÑĤÑĢÐ°": 2611,
      "ife": 2612,
      "ÑĢÑĥÑİÑĤÑģÑı": 2613,
      "Ð²Ð¾ÑģÐºÑĢÐµÑģ": 2614,
      "aw": 2615,
      "Ð·Ð²ÐµÑĢÐ¾": 2616,
      "Ð·Ð°Ð¼ÐµÑĤ": 2617,
      "Ġtr": 2618,
      "ÑĦÐµÑĢÐµÐ½": 2619,
      "Ð²ÑĭÑģÐ²Ð¾Ð±Ð¾": 2620,
      "Ð²ÑĤÑĢÐ°": 2621,
      "ÑĢÐ°Ð²": 2622,
      "Ð´Ð¸ÑĢÐ¸": 2623,
      "ÑĤÐµÐ»ÐµÐ¼": 2624,
      "Ġway": 2625,
      "Ð°Ð½Ð³Ð»Ð¾": 2626,
      "Ġother": 2627,
      "Ġhead": 2628,
      "Ð°ÐºÑĢÐ¾": 2629,
      "Ð´ÐµÐ¼Ð¸": 2630,
      "ÑĦÐ¸ÑĨÐ¸ÑĢÐ¾Ð²Ð°": 2631,
      "Ð´ÑĢÑİ": 2632,
      "ÐºÐ¸Ð¹": 2633,
      "Ð²ÐµÐ½Ðµ": 2634,
      "Ġmean": 2635,
      "li": 2636,
      "Ðĸ": 2637,
      "Ð½Ð´": 2638,
      "ÑĩÐºÐ¾Ñİ": 2639,
      "ÑģÑĤÐµÑĢ": 2640,
      "Ð´Ð°Ð²Ð°": 2641,
      "red": 2642,
      "ÑģÑĤÐ¾Ð²": 2643,
      "Ð±ÐµÐ·Ð½Ð°": 2644,
      "ÑģÐµÐº": 2645,
      "Ð³Ð¸Ð¿Ð½Ð¾ÑĤÐ¸": 2646,
      "When": 2647,
      "Ð¿ÑıÑĤÐ¸": 2648,
      "dward": 2649,
      "Ð²Ñħ": 2650,
      "Ð²ÑĭÐ½Ñĥ": 2651,
      "Ð²ÑĭÐ¼Ðµ": 2652,
      "ÑħÐ»Ð¸": 2653,
      "Ġnor": 2654,
      "ÑħÐ¾Ð²ÑĭÐ²Ð°": 2655,
      "Ð·Ð°ÑĤÐµÐ¼": 2656,
      "Ð²ÑıÐ·Ð°": 2657,
      "Ð²ÑĭÑĤÑĢÐµÐ·": 2658,
      "Ð¼Ð°ÑĤÐ¸Ð·Ð¸ÑĢÐ¾Ð²Ð°": 2659,
      "Ð·Ð°Ð¸Ð½ÑĤÐµÑĢ": 2660,
      "EO": 2661,
      "MEO": 2662,
      "Ð·Ð°ÑĪÐµ": 2663,
      "Ġsc": 2664,
      "Ġsoul": 2665,
      "ÑĤÐµÐ»Ð¸": 2666,
      "Ð·Ð¾Ð¼": 2667,
      "Ð³ÑĢÐ°Ð½Ð¸": 2668,
      "Ġpres": 2669,
      "ÑģÑĤÐ¾Ð²Ð°": 2670,
      "ÑĢÐ¾Ð²Ð°Ð½Ð½ÑĭÐ¼": 2671,
      "ÑĢÐ¾Ð²Ð°Ð½Ð½ÑĭÑħ": 2672,
      "ÑĢÐ¾Ð²Ð°Ð½Ð½ÑĥÑİ": 2673,
      "ÑĢÐ¾Ð²Ð°Ð½Ð½ÑĭÐ¼Ð¸": 2674,
      "ÑĢÐ¾Ð²Ð°Ð½Ð½Ð°Ñı": 2675,
      "ÑĢÐ¾Ð²Ð°Ð½Ð½ÑĭÐµ": 2676,
      "Ð²Ð¾Ð»Ð½Ð¾": 2677,
      "ROMEO": 2678,
      "Ð²ÑĭÑıÑģ": 2679,
      "Ð²Ð·Ð»Ð¾Ñħ": 2680,
      "ace": 2681,
      "ving": 2682,
      "Ð´Ð½Ð¸ÑĩÐ°": 2683,
      "Ð¶Ð¸Ð´ÐºÐ¾": 2684,
      "Ġnight": 2685,
      "Ġbear": 2686,
      "Ð¿ÑĢÐ¾Ð½Ð¸ÑĨÐ°": 2687,
      "ENIUS": 2688,
      "aint": 2689,
      "Ð½ÑģÐºÐ¾Ð¼": 2690,
      "Ð±Ð»ÐµÐ´": 2691,
      "ĠCl": 2692,
      "Ð³ÑĢÐ°Ð¼Ð¼Ð¾": 2693,
      "Ġworld": 2694,
      "Ð°ÐºÑĤÐ¸Ð²Ð¸": 2695,
      "MENENIUS": 2696,
      "ger": 2697,
      "Ð³Ð½Ð°": 2698,
      "ÑģÐ¸Ð¼": 2699,
      "Ð±ÑĢÐ°ÐºÐ¾": 2700,
      "Ġbefore": 2701,
      "Ð±ÑĢÐ¾Ð´Ñı": 2702,
      "ÑĨÐµÐ¹": 2703,
      "ause": 2704,
      "Ð²Ð·ÑĬÐµÑĢÐ¾": 2705,
      "Ð´Ð¾Ð¹": 2706,
      "Ð»Ð°Ñħ": 2707,
      "Ġboth": 2708,
      "Ð±Ð»Ð°Ð³Ð¾Ð¿ÑĢÐ¸": 2709,
      "Ð·Ð°ÑĪÑĥ": 2710,
      "Ð½ÑĤÐ¾Ð²ÑĭÐ²Ð°": 2711,
      "Ð±Ð°Ð»Ð»Ð¾": 2712,
      "Ġqueen": 2713,
      "per": 2714,
      "ÑħÐ»Ð¾": 2715,
      "Ð±Ð°Ð»Ð°Ð½": 2716,
      "ÑĤÐµÐº": 2717,
      "Ð¼Ð°Ð½Ð¸Ð²Ð°": 2718,
      "ÑģÐ¾ÑĤ": 2719,
      "Ð±ÑĥÐ»Ð°": 2720,
      "Ð·Ð°Ð³ÑĢÐ¸": 2721,
      "Ð°ÑģÑģÐ¾": 2722,
      "Then": 2723,
      "Ð²ÑģÑĤÑĥ": 2724,
      "aughter": 2725,
      "RUCH": 2726,
      "ock": 2727,
      "Ð½Ð´Ð¸": 2728,
      "Ð´Ð²Ð¾ÑĢÑı": 2729,
      "Ð·Ð°Ð¶Ð¼Ñĥ": 2730,
      "Ð´Ð¾Ð¿Ð¾Ð»": 2731,
      "Ð½Ð¸Ð»Ð¸": 2732,
      "ÑĢÐ¸ÐµÐ½": 2733,
      "Ð±ÑĥÑħÐ°": 2734,
      "Ð²Ð¾Ð·Ð½Ð°": 2735,
      "Ġchi": 2736,
      "ÑģÑĤÐ°Ð¼": 2737,
      "ÑģÑĤÐ°Ñħ": 2738,
      "ÑĨÐµÐ²Ð°": 2739,
      "Ð·Ð°ÐºÐ°Ð±Ð°": 2740,
      "Ð²Ð¾Ð´ÑĢÑĥ": 2741,
      "Ð½ÑģÐºÐ¾Ð³Ð¾": 2742,
      "Here": 2743,
      "PETRUCH": 2744,
      "PETRUCHIO": 2745,
      "OM": 2746,
      "able": 2747,
      "Ġvery": 2748,
      "Ð°Ð±Ð¾ÑĢ": 2749,
      "ÐµÐ¶Ðµ": 2750,
      "Ð¿ÑĢÐµÑģ": 2751,
      "ÐµÐ½Ðµ": 2752,
      "Ð³ÑĢÐ°ÑĦÐ¾": 2753,
      "Ð²ÑıÐ·ÑĭÐ²Ð°": 2754,
      "Ġdead": 2755,
      "ÑĬÑĳÐ¼": 2756,
      "Ð²ÑĥÐ»ÐºÐ°Ð½Ð¸": 2757,
      "TES": 2758,
      "Ð·Ð¼Ðµ": 2759,
      "ÑĢÐ¾Ð²Ð¾Ñĩ": 2760,
      "Ð²Ð¾Ð¿ÑĢÐ¾": 2761,
      "ÑĢÐ¸Ð¹": 2762,
      "Ð±Ð¸Ð¹": 2763,
      "Ð´ÑĥÐ±Ð»Ð¸": 2764,
      "ÑģÐ¸Ð»Ð¸": 2765,
      "Ð·Ð°Ð¸Ð¼": 2766,
      "Ð°Ð´Ð°Ð¿": 2767,
      "By": 2768,
      "Ġra": 2769,
      "Ð¸Ð¼": 2770,
      "Ð½Ð½Ð°Ñı": 2771,
      "ÑĤÐ½Ð¸ÑĩÐ°": 2772,
      "Ð³Ð°Ð»Ð¸": 2773,
      "Ð´ÑĥÐ¼Ð°": 2774,
      "ÑĩÐ°ÑĤÐ°": 2775,
      "ite": 2776,
      "Ð·Ð°ÑĤÑĭ": 2777,
      "ÑĨÐµÑİ": 2778,
      "Ð¿ÐµÐº": 2779,
      "Ð·Ð°ÑĪÐ½Ñĥ": 2780,
      "ÑĨÐ¾Ð²ÑĭÐ²Ð°": 2781,
      "Than": 2782,
      "the": 2783,
      "Ġke": 2784,
      "Ð°ÑĦÐ¸": 2785,
      "ÑģÐ»Ð¸Ð²Ð°": 2786,
      "ÑĢÐ¾Ð²Ð¾": 2787,
      "Ð¶ÐµÑĢÐµ": 2788,
      "Ð´Ð°ÑĢÐ¸": 2789,
      "Ð°Ð½ÑĤÑĢÐµ": 2790,
      "Ð²Ð·Ð³ÑĢÐ¾Ð¼Ð¾": 2791,
      "Ð·Ð°Ð¿Ð°Ð´": 2792,
      "Ð³ÑĢÑĥÐ·": 2793,
      "Ð²ÑĭÑĢÐ°Ð²": 2794,
      "Ð²Ð°ÐºÑĥÑĥ": 2795,
      "ab": 2796,
      "les": 2797,
      "ĠF": 2798,
      "Ð½Ð½ÑĭÐ¼": 2799,
      "Ð½Ð½ÑĭÑħ": 2800,
      "Ð½Ð½ÑĥÑİ": 2801,
      "Ð½Ð½ÑĭÐ¼Ð¸": 2802,
      "Ð½Ð½ÑĭÐµ": 2803,
      "ÑģÑģÐ¾": 2804,
      "Ð´ÑĢÐµÐ¼": 2805,
      "ÐºÐµÑĢ": 2806,
      "ÐºÐµÑĤ": 2807,
      "Ð´Ð¾Ð¼Ñĭ": 2808,
      "Ð´ÐµÑĪÐ¸": 2809,
      "Ð·Ð°Ð¿Ð°Ñģ": 2810,
      "Ġdown": 2811,
      "Ð±ÐµÑģÐ¿ÑĢÐ¾": 2812,
      "Ð²ÐµÐ½ÑĤÐ¸": 2813,
      "Ð°ÑĦÑĦÐ¸": 2814,
      "Ð·Ð°ÑĤÑĢÑĥÐ´": 2815,
      "Ð´ÐµÑĪÐ¸ÑĦ": 2816,
      "to": 2817,
      "ÑĭÑħÐ°": 2818,
      "Ð´Ð¾ÐºÐ»Ð°": 2819,
      "ÑĪÐºÑĥ": 2820,
      "Ġapp": 2821,
      "Ð²ÐµÑĢÐ¸": 2822,
      "Ð»ÐµÐ½Ð°": 2823,
      "Ġmyself": 2824,
      "Ġcont": 2825,
      "Ð·Ð°ÐºÑĢÐµÐ¿Ð¾": 2826,
      "Ð·Ð°ÑĤÐ¾ÑĢÐ¼Ð¾": 2827,
      "Ð·Ð°Ð³ÑĢÐ¾Ð¼Ð¾": 2828,
      "GR": 2829,
      "HA": 2830,
      "Ð²ÑĭÐ¼Ñĭ": 2831,
      "ÑĩÑĮ": 2832,
      "Ð´Ð¾ÑĤÑı": 2833,
      "ÐµÑĤÑĮ": 2834,
      "Ġwh": 2835,
      "Ð³ÑĢÐ°Ð´Ð¸": 2836,
      "Ð²ÑĭÑħÐ»Ðµ": 2837,
      "Ġrem": 2838,
      "ÑĤÐµÐ»ÑıÐ¼": 2839,
      "ÑĤÐµÐ»ÑıÑħ": 2840,
      "ÑĤÐµÐ»ÑıÐ¼Ð¸": 2841,
      "Ð´ÐµÐ¼Ð°": 2842,
      "ĠLord": 2843,
      "Ġarm": 2844,
      "Ð°ÐºÐºÑĥÐ¼Ñĥ": 2845,
      "Ð°Ð²ÑģÑĤ": 2846,
      "ÑĢÐ³Ð°": 2847,
      "Ð·Ð°Ð»Ñı": 2848,
      "Ð²ÐµÑĩÐµÑĢ": 2849,
      "Ð¶Ð°ÑĢÐ¾": 2850,
      "Ġthus": 2851,
      "Ð±ÐµÑģÑģÐ¾": 2852,
      "Ð·Ð°Ð³Ð»Ñı": 2853,
      "ÐºÐ¾Ð¼Ð¿Ð»ÐµÐº": 2854,
      "ÐĴÐ¾": 2855,
      "IOLAN": 2856,
      "ilt": 2857,
      "ORIOLAN": 2858,
      "Ð²ÑĭÑĤÐ°ÑĢÐ°": 2859,
      "ORIOLANUS": 2860,
      "CORIOLANUS": 2861,
      "Sec": 2862,
      "Ð°Ð²": 2863,
      "Ð´Ð¾ÑĩÐµÑĢ": 2864,
      "Ð¶Ð´ÐµÐ½": 2865,
      "Ð½Ð¸ÑģÑĤÐ¸": 2866,
      "ÑĨÐ¸ÑĢÐ¾Ð²Ð°": 2867,
      "Ð´ÐµÑĢÐ½Ñĥ": 2868,
      "Ð´Ð¸ÑģÐºÑĥ": 2869,
      "Ð½ÑģÐºÐ¾Ð¹": 2870,
      "Ð±Ð¾Ð¼Ð±Ð°ÑĢ": 2871,
      "Ġleave": 2872,
      "Second": 2873,
      "Ð½Ðº": 2874,
      "Ð²Ð°ÑĤÑĭÐ²Ð°": 2875,
      "Ð²ÑĭÐ´ÑĢÐ°": 2876,
      "Ð±Ð°ÑĪ": 2877,
      "ÑĤÐµÐ»ÐµÐ¹": 2878,
      "Ð³Ð¸ÑĢÐ¾Ð²Ð°": 2879,
      "Ġbeing": 2880,
      "ction": 2881,
      "ĠEdward": 2882,
      "Nor": 2883,
      "sw": 2884,
      "Ð»ÐµÐ½Ð¸Ñı": 2885,
      "ÑıÐ·Ñĭ": 2886,
      "ÑĭÑĤÑĭÐ²Ð°": 2887,
      "Ð½Ð¸Ð½": 2888,
      "ÑĤÐµÐ»Ñİ": 2889,
      "Ð³Ð¸Ð´ÑĢÐ°": 2890,
      "Ð´ÑĥÐ±": 2891,
      "Ð±ÐµÑģÑĩÐµ": 2892,
      "Ġunt": 2893,
      "Ð´Ð¸ÑģÐ»Ð¾": 2894,
      "Ð½ÑģÐºÐ¾Ð¼Ñĥ": 2895,
      "ress": 2896,
      "Ġgrace": 2897,
      "less": 2898,
      "Ð¿ÑĢÐµÐ½": 2899,
      "Ð²ÑĭÐ»Ð°": 2900,
      "Ð²Ð¸Ð»Ð¾": 2901,
      "Ġbeg": 2902,
      "Ð½ÑģÐºÐ¾Ðµ": 2903,
      "Ð²ÑģÐ¿Ñĭ": 2904,
      "Ð´ÐµÐ¹ÑģÑĤÐ²Ñĥ": 2905,
      "Ġeyes": 2906,
      "Ð·Ð°Ð¸Ð½ÑĤÐµÑĢÐµÑģÐ¾": 2907,
      "BA": 2908,
      "land": 2909,
      "Ð°ÑĨÐ¸": 2910,
      "ÐµÐ½Ð¾": 2911,
      "Ð»Ð±Ð»Ð¸Ð²Ð°": 2912,
      "Ð·Ð´Ð¾ÑĢÐ¾": 2913,
      "Ð²ÑĭÑīÐµ": 2914,
      "Ġmother": 2915,
      "Ð±ÐµÑģÐ¿ÑĢÐµ": 2916,
      "Ð·ÐµÐ»Ðµ": 2917,
      "Ð´Ð¸ÑĦÑĦÐµÑĢÐµÐ½": 2918,
      "Ð°ÑģÑģÐ¸Ð¼Ð¸": 2919,
      "Ð·Ð°Ð¾ÑģÑĤ": 2920,
      "ÑĪÐµÑĢÑģÑĤ": 2921,
      "ran": 2922,
      "Ð°Ð¼Ñĥ": 2923,
      "Ð·Ð°Ð»Ñĥ": 2924,
      "Ġma": 2925,
      "Ð±ÑĥÐ´": 2926,
      "Ġold": 2927,
      "Ð½ÑģÐºÐ¾Ñİ": 2928,
      "Ð±ÐµÐ·Ð¾Ð±ÑĢÐ°": 2929,
      "Ð°Ð¿Ð¿": 2930,
      "Ð³ÑĢÑĭÐ·": 2931,
      "Ð²ÑħÐ¾": 2932,
      "Ġim": 2933,
      "Ð°Ð¿Ðµ": 2934,
      "Ð²Ð¼Ð¾": 2935,
      "INA": 2936,
      "Ð³ÐµÑĢÐ¼ÐµÑĤÐ¸": 2937,
      "Ð´Ð¾ÑĢÐ¾Ð¶": 2938,
      "ĠEDWARD": 2939,
      "Ð²Ð¾ÑģÑģÐ¾Ð·Ð´Ð°": 2940,
      "ÑĪÑĳÑĢÑģÑĤ": 2941,
      "Ð´Ð²ÐµÐ½Ð°Ð´ÑĨÐ°ÑĤÐ¸": 2942,
      "Ð°Ð±Ð°": 2943,
      "Ð´Ð¶Ð¸": 2944,
      "Ð·Ð°Ð½Ð¸": 2945,
      "ÑĩÑĳÐ½": 2946,
      "Ð´Ð¾Ð·Ð²Ð¾": 2947,
      "Ð±Ð¾ÑĤ": 2948,
      "Ð¿Ð¾Ð»Ð¸": 2949,
      "itiz": 2950,
      "Ð¿Ð¸ÑĢÑĥ": 2951,
      "Ð²ÑĭÑģÐ¼Ðµ": 2952,
      "Ð³Ð»Ð°Ð·": 2953,
      "Ð³Ð»ÑıÐ´ÑĭÐ²Ð°": 2954,
      "itizen": 2955,
      "ps": 2956,
      "Ð½ÑĳÐ½": 2957,
      "Ð·Ð°Ð½Ð¸Ð¼Ð°": 2958,
      "Ð³Ð¾Ð²Ð°": 2959,
      "Ð´ÐµÑı": 2960,
      "Ġlong": 2961,
      "Ð³ÑĢÐ°Ð¶Ð´Ð°": 2962,
      "ÑĦÐ¸Ð·Ð¸": 2963,
      "Ð±ÑĢÐ¾ÑģÐ¸": 2964,
      "Ð°Ð²ÑĤÐ¾ÑĢÐ¸": 2965,
      "Ġever": 2966,
      "Ð´ÐµÐ½Ðµ": 2967,
      "Ð·Ð°ÑĤÑĥÑĪÐµ": 2968,
      "ĠMar": 2969,
      "Ð³Ð¾ÑģÐ¿Ð¸": 2970,
      "ÑģÐºÑĥ": 2971,
      "ÑĢÐ°ÑĤÐ¾": 2972,
      "ÑĪÐºÐµ": 2973,
      "Ð¼Ð°ÑĢ": 2974,
      "Ð¼Ð°Ð³Ð½Ð¸": 2975,
      "Ð¿Ð¾ÑĢÐ¸": 2976,
      "Ð¼ÐµÐ¹": 2977,
      "Ð·Ð°ÑĤÐµÑĢ": 2978,
      "Ð»ÑİÑĩÐ¸": 2979,
      "Ð·Ð°Ð³Ð»Ð¾": 2980,
      "Ġlive": 2981,
      "ÑĢÐµÑģÑģÐ¾Ð²ÑĭÐ²Ð°": 2982,
      "Ð¶ÐµÐ»ÐµÐ·Ð¾": 2983,
      "Ġchild": 2984,
      "Let": 2985,
      "me": 2986,
      "Ð¾Ñģ": 2987,
      "Ġwife": 2988,
      "Ð²ÐµÑģÑĤÐ¸": 2989,
      "Ð·Ð¾Ð²Ð°Ð½": 2990,
      "Ð±ÐµÐ·Ð¼Ð¾": 2991,
      "Ð·Ð°Ð¼Ð¾ÑĢÐ¾": 2992,
      "Ð³ÑĢÑĭÐ·Ð°": 2993,
      "She": 2994,
      "Ð³ÐµÑĤÐ¸": 2995,
      "Ð²ÑĭÑĢÐ¸": 2996,
      "ÑĢÐ°Ð±": 2997,
      "Ġaway": 2998,
      "Ð±Ð¾Ðµ": 2999,
      "Ð°Ð½ÑĤÐ¾": 3000,
      "Ð²Ð·Ð¸": 3001,
      "Ð°ÑĢÑħÐ°": 3002,
      "Ð²Ð¾ÑģÐ¿Ð¾": 3003,
      "Ð°ÐºÑĤÐ¸Ð²": 3004,
      "Ð»ÐµÐ½Ð½ÑĭÐ¹": 3005,
      "Ġrep": 3006,
      "Ð²ÐµÑģÐ¾": 3007,
      "ĠIII": 3008,
      "Ð²Ð½Ð¾": 3009,
      "Ð²Ð»Ð¾": 3010,
      "Ð³Ð¾ÑģÑĥ": 3011,
      "Ð´Ð¾ÑĤÐ°": 3012,
      "ÑĳÑĤ": 3013,
      "Ġwom": 3014,
      "Ð³Ð¸Ð»ÑĮ": 3015,
      "Ð±Ð¸ÑĢ": 3016,
      "Ð·Ð°ÐºÐ»Ñĳ": 3017,
      "Ð±Ð»Ð°Ð³Ð¾ÑĤ": 3018,
      "Ð´ÑĭÐ¼": 3019,
      "Ð°Ð»Ð»Ð¸": 3020,
      "ÑĩÐµÐ½Ð½ÑĭÐ¹": 3021,
      "Ġpoor": 3022,
      "Ġfriends": 3023,
      "come": 3024,
      "for": 3025,
      "wick": 3026,
      "Ð¾ÑĤÐ¸": 3027,
      "Ð·Ð´Ð¾": 3028,
      "Ð·Ð¼Ñĥ": 3029,
      "Ð³Ð²Ð¾Ð·": 3030,
      "Ð²ÑĭÑīÐ¸": 3031,
      "ÐºÐ¸Ð»Ð¾": 3032,
      "Ġaf": 3033,
      "Ġmight": 3034,
      "Ð±ÑĥÑĤÐ¸": 3035,
      "Ð³Ð»Ð°Ð´Ð¸": 3036,
      "Ð·Ð°ÑģÑĤÑĭ": 3037,
      "Ð»ÑĭÑħ": 3038,
      "Ð°Ð¼Ð¿Ñĥ": 3039,
      "Ð·Ð°ÑĨÐ¸Ñı": 3040,
      "ÐµÐ²ÑĢÐ¾Ð¿Ðµ": 3041,
      "Ð·Ð¼Ð¾Ð¼": 3042,
      "Ð·Ð°ÑģÑĤÑĢÐ¾": 3043,
      "Ð²Ð°Ð»Ð¸Ð²Ð°": 3044,
      "Ð´Ð¾Ð¶Ðµ": 3045,
      "Ð±Ð°ÑĢÑĭ": 3046,
      "ÑĤÐµÐ¹": 3047,
      "nder": 3048,
      "ÑģÐ°Ð¼Ð¸": 3049,
      "Ġstay": 3050,
      "eace": 3051,
      "Ð¶ÐµÑĢÑĤ": 3052,
      "Ð²ÑĭÐºÑĢÐ¸ÑģÑĤÐ°Ð»Ð»Ð¸": 3053,
      "Ð²Ð¾Ð¾ÑĢÑĥÐ¶Ð°": 3054,
      "ks": 3055,
      "Ð°Ð·Ð¸": 3056,
      "Ð²Ð¼Ð°": 3057,
      "ÐµÑħÐ¸": 3058,
      "Ð´Ð²Ð¾ÑĢ": 3059,
      "Ð´Ð¾Ð¼Ð°": 3060,
      "Ð½Ð¸ÐºÐ¾": 3061,
      "Ð»Ð¾Ð¹": 3062,
      "Ð²Ð¸ÑĩÐµ": 3063,
      "Ð´ÐµÑĦÐ¾ÑĢ": 3064,
      "oud": 3065,
      "Ð²Ð¾Ð·Ð´ÐµÑĢ": 3066,
      "Ġdie": 3067,
      "Ð³ÑĥÐ»Ð¸Ð²Ð°": 3068,
      "atch": 3069,
      "led": 3070,
      "ÑĤÑĭÑģÑı": 3071,
      "Ð³ÑĢÑĥÐ±Ð¾": 3072,
      "Ð·Ð°Ð¼Ð°ÑģÐºÐ¸": 3073,
      "Ð³Ð°ÑĢÐ¿Ñĥ": 3074,
      "Ð±ÑĢÐµÐ·": 3075,
      "ÑĨÐ¸Ð¾Ð½Ð½ÑĭÐ¹": 3076,
      "Ð´Ð¸ÑģÐºÑĢÐµ": 3077,
      "ĠJ": 3078,
      "Ġru": 3079,
      "ÑĢÐ¸ÑģÑĤÐ¸": 3080,
      "Ð²Ð¸Ð½Ð¸": 3081,
      "Ð±Ð°ÑĤÑĢÐ°": 3082,
      "Ð¼Ð°ÑĤÐ¾": 3083,
      "Ð²ÐµÑĢÑģÑĤÐ°": 3084,
      "ÐµÐ½Ð½Ð¾ÑģÑĤÑĮ": 3085,
      "arwick": 3086,
      "Ġcomes": 3087,
      "Ġcons": 3088,
      "Ð±ÑİÑĢÐ¾": 3089,
      "Ð´Ð¶": 3090,
      "Ð³Ð½Ð¾ÑģÑĤÐ¸": 3091,
      "Ð·Ð°ÑĢÑĭ": 3092,
      "Ð·Ð°Ð±Ð¾ÑĢ": 3093,
      "Ð¼Ð¸Ð½": 3094,
      "Ð½Ð°ÑĤÐ¾": 3095,
      "Ð²ÐµÑĪÐ°": 3096,
      "Ð±ÑĥÐºÑģÐ¸": 3097,
      "Ð¶Ð¸ÑĢ": 3098,
      "Ġcrown": 3099,
      "Ð³ÑĢÐ°Ð²Ð¸": 3100,
      "ows": 3101,
      "Ð²Ð¾ÑģÑħ": 3102,
      "Ð²Ð¾ÑģÐ¿Ð»Ð°": 3103,
      "Ð²Ð¾ÑģÑģÐ»Ð°": 3104,
      "Ð»ÑĭÐ¹": 3105,
      "Ġmany": 3106,
      "Ð°Ð½ÑĤÑĢÐµÐ¿ÑĢÐµÐ½": 3107,
      "Ð·Ð²Ð°": 3108,
      "ÐºÑĤÐ¾ÑĢ": 3109,
      "Ð²Ð°ÑĤÐµÑĢ": 3110,
      "Ð´ÐµÑĦÐµÐº": 3111,
      "Ð±ÐµÐ»Ð¸": 3112,
      "Ð¼Ð¾ÑĤ": 3113,
      "ÑģÐ¸Ð½": 3114,
      "Ġpe": 3115,
      "Ð¶ÐµÑģÑĤÐºÐ¾": 3116,
      "Ð¼Ð¾ÑĢÑĦ": 3117,
      "Ð·Ð°Ð¿ÑĢÐ°Ð²Ð»Ñı": 3118,
      "Tis": 3119,
      "hall": 3120,
      "ison": 3121,
      "Ð½ÐµÑĨ": 3122,
      "Ð·Ð¾Ð²ÑĭÐ²Ð°": 3123,
      "ÑĨÐ¸Ð°": 3124,
      "Ð²ÐµÑĢÑħ": 3125,
      "Ġle": 3126,
      "Ð³ÑĥÑĢ": 3127,
      "Ð·Ð°Ð³ÑĢÐµ": 3128,
      "Ð¿ÑĢÐ¾Ð²Ð¾Ð´": 3129,
      "Ð²Ð¿Ð»Ð°": 3130,
      "Ð·Ð°ÑĤÐ¸ÑĢÐ°": 3131,
      "ĠYORK": 3132,
      "lo": 3133,
      "uck": 3134,
      "Ð±ÑĮ": 3135,
      "Ð³Ð°Ñĥ": 3136,
      "iss": 3137,
      "Ġhouse": 3138,
      "Ð²Ð¾ÑģÐºÑĢÐµ": 3139,
      "Ð±ÑĢÐ¾ÑģÐ°": 3140,
      "Ð²ÑĤÐ¾Ð»": 3141,
      "Ġhar": 3142,
      "Ġthought": 3143,
      "Ġrest": 3144,
      "Ð·Ð°Ð¿Ð¸ÑģÑĭÐ²Ð°": 3145,
      "Ð·Ð°Ð¶Ð¸Ð³Ð°": 3146,
      "ISAB": 3147,
      "ELLA": 3148,
      "ISABELLA": 3149,
      "ian": 3150,
      "Ð°ÑĤÑĢÐ¸": 3151,
      "ÑģÑģÐ°": 3152,
      "ÑĤÑĢÑĥ": 3153,
      "Ð²ÑĭÐ¼Ñĥ": 3154,
      "Ð²ÑĭÑģÑĤÑĢÐµ": 3155,
      "Ð´Ð¾Ð¼Ð¸": 3156,
      "Ð»ÑĮÑı": 3157,
      "ÑĳÑĤÐµ": 3158,
      "Ð´ÐµÑĢÐ¾": 3159,
      "Ð¼Ð°Ñħ": 3160,
      "Ð²Ð·Ð¼Ñĭ": 3161,
      "Ð²ÑĥÐ°Ð»Ð¸": 3162,
      "erc": 3163,
      "Ġcour": 3164,
      "ÑĦÐ¸ÐºÐ°": 3165,
      "Ð²ÐµÐ½ÑĩÐ°": 3166,
      "Ð´Ð¸Ð°Ð»ÐµÐº": 3167,
      "RAN": 3168,
      "Ġent": 3169,
      "Ð²ÑĭÐ³ÑĢÐµ": 3170,
      "Ð³Ð¾ÑĤÐ¾": 3171,
      "Ð´Ð¸ÑģÑĤÐ¸": 3172,
      "ÑĢÑĥÑģ": 3173,
      "Ð°Ð½ÑĤ": 3174,
      "Ð·Ð°ÑĤÐµÐ½": 3175,
      "Ð°ÐºÑĨÐµÐ¿": 3176,
      "Ð³ÐµÐº": 3177,
      "Ð±ÑĢÐ¾Ð½Ðµ": 3178,
      "Ð³Ð¸Ð´ÑĢÐ¾Ð»Ð¸": 3179,
      "Ġlie": 3180,
      "Ð·Ð°Ð¼ÐµÐ´": 3181,
      "Ð·Ð°Ð¿ÑĢÐ¾Ð´Ð°": 3182,
      "Ð±ÐµÑģÐ¿Ð¾ÐºÐ¾": 3183,
      "che": 3184,
      "ÐºÑĢÐ¾": 3185,
      "Ð½Ð¾Ð·": 3186,
      "ÑģÑĤÐ½Ñĥ": 3187,
      "ÐºÐ¸Ð½": 3188,
      "Ġset": 3189,
      "Ð´Ð°ÐºÑĤÐ¸": 3190,
      "Ð³Ð¸Ð³ÑĢÐ¾": 3191,
      "ÑģÐ¸Ð¾": 3192,
      "ÑĢÑıÐ´": 3193,
      "Ð°ÐºÐºÑĢÐµ": 3194,
      "ÑĳÑĢÐºÐ¸Ð²Ð°": 3195,
      "Ð·Ð°Ð¿Ð¾ÑĢÐ¾": 3196,
      "ÑĤÑĢÐ¾ÑĦÐ¸": 3197,
      "Ð³Ð¸Ð¼Ð½Ð°": 3198,
      "JU": 3199,
      "well": 3200,
      "Ð²Ð´Ñĥ": 3201,
      "ÑĢÐ³Ð°Ð½Ð¸": 3202,
      "Ð³Ð»Ñİ": 3203,
      "Ð´Ð¾Ð½Ð¾": 3204,
      "Ð´Ð¾ÑģÐºÐ°": 3205,
      "Ð°Ð½Ð³Ð»Ð¸": 3206,
      "ors": 3207,
      "atter": 3208,
      "Ð´ÑĢÐ¾Ð±Ð¸": 3209,
      "ÑĩÐµÐ²Ð°": 3210,
      "Ð·Ð°ÑģÑĤÑĳ": 3211,
      "Ð·Ð°Ð±Ð»Ñĥ": 3212,
      "Ð½ÑĳÑģ": 3213,
      "Ð²ÑģÐºÐ¾Ð³Ð¾": 3214,
      "LIET": 3215,
      "ONTES": 3216,
      "ĠWarwick": 3217,
      "LEONTES": 3218,
      "JULIET": 3219,
      "Nay": 3220,
      "Ð»ÐµÑĤÐµ": 3221,
      "Ð²ÑĭÑĤÐ¸": 3222,
      "Ð²ÑĭÐ±Ð¸Ð²Ð°": 3223,
      "Ð³Ð¾ÑĢÐ¾Ð´": 3224,
      "Ð³Ð°Ð¹": 3225,
      "ÑĤÐµÐºÐ°": 3226,
      "int": 3227,
      "Ð·Ð°Ð¿ÑĢÐ¸": 3228,
      "ittle": 3229,
      "Ġdaughter": 3230,
      "ÑĨÐ°ÑĢÐ°": 3231,
      "Ð²Ð¾ÑģÐ¿Ðµ": 3232,
      "Ġgone": 3233,
      "Ð¿ÐµÑĢÐµ": 3234,
      "Ð´Ð¾Ð±ÑĭÐ²Ð°": 3235,
      "Ð½ÑģÐ¿Ð¾ÑĢ": 3236,
      "Ġbetter": 3237,
      "Ð±ÑĥÐ»ÑĤÑĭ": 3238,
      "MI": 3239,
      "rant": 3240,
      "ÐµÐ³Ð¾": 3241,
      "Ð´Ð¾Ð¿Ð°": 3242,
      "Ð³Ð°Ñħ": 3243,
      "ought": 3244,
      "Ð°Ð½ÑĤÑĢÐ°": 3245,
      "Ð±Ð¸ÑĤÑĥ": 3246,
      "Ð²ÑģÐºÐ¾Ð¼": 3247,
      "Ð¶Ð°ÑĢ": 3248,
      "Ð·Ð°ÑģÑĤÐµÐº": 3249,
      "Ð·Ð°ÑĨÐ¸Ðº": 3250,
      "Ð´ÐµÑĤÐµÑĢ": 3251,
      "Ġprince": 3252,
      "DY": 3253,
      "His": 3254,
      "Ġtong": 3255,
      "Ð±Ð¾Ð´Ð°": 3256,
      "Ġwit": 3257,
      "Ð³ÑĥÐ¼ÐµÐ½": 3258,
      "Ð²ÑĭÑģÐ»Ðµ": 3259,
      "Ð²Ð¾ÑģÐ¿ÑĢÐµ": 3260,
      "ÑģÐ°Ñħ": 3261,
      "Ġnothing": 3262,
      "Ð±ÐµÑĢÑĳ": 3263,
      "Ð³ÑĢÐµÐ¹": 3264,
      "ÐĳÑĥ": 3265,
      "ÑģÑĤÑĭÐ¹": 3266,
      "Ð±Ð¾Ð³Ð¾ÑħÑĥ": 3267,
      "CE": 3268,
      "VOL": 3269,
      "ÑĤÑĳ": 3270,
      "ÑģÑĤÐ²Ð¸": 3271,
      "Ð³Ð¾Ð´": 3272,
      "Ð²Ð¸Ñģ": 3273,
      "Ð±ÐµÑģÑĤÐ¾": 3274,
      "Ð³Ð¸ÑĢÐ¾": 3275,
      "Ð²Ð·Ñı": 3276,
      "Ð·Ð¸Ð¼": 3277,
      "Ð½ÐµÑİ": 3278,
      "Ð¿Ð°Ð¼": 3279,
      "Ð³ÑĥÐ¼": 3280,
      "Ð°ÑĢÑħÐµ": 3281,
      "Ð·Ð°ÐºÑĢÐ°": 3282,
      "ÑĩÐµÐ±": 3283,
      "ENCE": 3284,
      "Ð°Ð¼Ð¸Ð½Ð¾": 3285,
      "LADY": 3286,
      "Ð´Ð¸ÑģÐºÑĢÐµÐ´Ð¸": 3287,
      "Ð°ÐºÐºÑĢÐµÐ´Ð¸": 3288,
      "BR": 3289,
      "TA": 3290,
      "cl": 3291,
      "ied": 3292,
      "Ð°Ð»Ñİ": 3293,
      "Ð¾Ð¼": 3294,
      "Ð·Ð°Ð¶": 3295,
      "Ð´Ð¾ÑģÐ¸": 3296,
      "Ð´ÐµÐ±Ð°": 3297,
      "Ð°Ð½Ð³Ð¸": 3298,
      "Ð·Ð°Ð¿Ñĭ": 3299,
      "Ð³ÑĥÐ»ÑĮ": 3300,
      "ÑģÑĤÐ°ÑĤÐ¸": 3301,
      "Ð±Ð»Ð¸Ð·": 3302,
      "Ð³ÐµÑĢÐ¼Ð°": 3303,
      "Ġkeep": 3304,
      "Ð»Ð»Ñı": 3305,
      "Ð±Ð½Ñĥ": 3306,
      "Ð´Ð¸ÑĢÐµ": 3307,
      "Ð±ÑĥÑħ": 3308,
      "Ð²ÑģÐ°": 3309,
      "Ð²ÑĭÐ¿ÑĢÐ¾": 3310,
      "Ð½Ð¾Ð¼ÐµÑĤ": 3311,
      "Ð¼ÐµÑĤÑĢÐ¾": 3312,
      "Ð´Ð²ÑĥÑħÑģÐ¾ÑĤ": 3313,
      "Ð°Ð´Ð¼Ð¸Ð½Ð¸": 3314,
      "Ð³ÐµÐ½ÐµÑĢÐ¸": 3315,
      "Ð²ÑĭÐ¼ÐµÑĢ": 3316,
      "Ð·Ð»Ð¾Ñĥ": 3317,
      "Ð²ÐµÐ´Ñĳ": 3318,
      "Ð²ÐµÐ»Ð¸ÑĩÐ°": 3319,
      "Ð´ÑĢÐµÐ²Ð½Ðµ": 3320,
      "Ð·Ð°ÑĤÐµÐ¹": 3321,
      "Ð²Ð¾ÑģÐ¿Ð¸ÑĤÐ°": 3322,
      "Go": 3323,
      "Well": 3324,
      "ces": 3325,
      "ious": 3326,
      "os": 3327,
      "Ð°Ð³ÑĢÐµ": 3328,
      "ÑĥÑĤ": 3329,
      "ÐºÐ°ÑĤÑĥ": 3330,
      "ÑĤÐ¾Ð²ÑĭÐ²Ð°": 3331,
      "Ð³Ð°ÑĢÐ°Ð½": 3332,
      "Ġsle": 3333,
      "ÑĨÐ¸ÑĢÑĥ": 3334,
      "Ð³ÑĢÑĥÐ½ÑĤÐ¾": 3335,
      "Ð»ÑĭÐµ": 3336,
      "Ð»ÑĭÐ¼": 3337,
      "Ð»ÑĭÐ¼Ð¸": 3338,
      "Ġres": 3339,
      "Ð²ÑģÐºÐ¸Ð¼": 3340,
      "Ð½Ð¸ÑĨÐ°Ð¼": 3341,
      "Ð½Ð¸ÑĨÐ°Ñħ": 3342,
      "Ð½Ð¸ÑĨÐ°Ð¼Ð¸": 3343,
      "Ð±Ð¾Ð¼Ð±Ð¾": 3344,
      "hard": 3345,
      "Ð°Ð±ÑģÐ¾Ð»ÑİÑĤÐ¸": 3346,
      "Ġnews": 3347,
      "Ð·Ð°ÑģÐµÐºÑĢÐµ": 3348,
      "Ð²Ð·Ð»Ð¾ÑħÐ¼Ð°": 3349,
      "SIC": 3350,
      "ft": 3351,
      "ier": 3352,
      "Ð½ÐºÐ¾": 3353,
      "Ð½ÑīÐ¸": 3354,
      "Ð·Ð°Ð²ÐµÑĤ": 3355,
      "Ð·Ð°Ð²ÑĳÑĢ": 3356,
      "ÑĭÐ¿": 3357,
      "Ð³Ð¾Ð»ÑĮ": 3358,
      "Ġtri": 3359,
      "Ġmo": 3360,
      "ret": 3361,
      "Ð°Ð½Ð³Ð°": 3362,
      "Ð²ÑĥÐ»ÑĮÐ³Ð°": 3363,
      "Ð²ÑģÐºÐ°Ñı": 3364,
      "ont": 3365,
      "Ġthose": 3366,
      "Ð³ÑĥÐ½": 3367,
      "Ð¼ÐµÑħÐ°": 3368,
      "Ġgri": 3369,
      "Ð°ÑģÐ¿Ð¸": 3370,
      "ool": 3371,
      "ÐĴÐ»Ð°": 3372,
      "Ð²ÑĭÑĩÐ¸ÑĤÐ°": 3373,
      "Ð´ÐµÐ·Ð¾ÑĢÐ¸ÐµÐ½": 3374,
      "une": 3375,
      "Ð¼ÑĳÑĤÑĭÐ²Ð°": 3376,
      "Ð°Ð¼ÐµÑĢÐ¸ÐºÐ°": 3377,
      "Ð³Ð¾ÑģÐ¿Ð¸ÑĤÐ°Ð»Ð¸": 3378,
      "SICINIUS": 3379,
      "Not": 3380,
      "Ð·Ð°Ð¼ÐµÐ½Ñı": 3381,
      "Ð±Ð°ÑħÐ°": 3382,
      "ÑĢÐµÐ²Ð°": 3383,
      "Ð±ÑĥÑĦ": 3384,
      "Ð²ÐµÑĢÑĤÐ¸": 3385,
      "Ġlittle": 3386,
      "Ð´ÐµÑĢÐ³Ð°": 3387,
      "ÐĴÐ°Ð»": 3388,
      "Ð·Ð°ÑĪÑĤÑĢÐ¸": 3389,
      "Ð´ÐµÐ¹ÑģÑĤÐ²Ð¾Ð²Ð°": 3390,
      "Ġlords": 3391,
      "Ð²ÑģÐºÑĢÐ¸": 3392,
      "Ġagainst": 3393,
      "Ð²ÑĥÐ»ÑĮÐ³Ð°ÑĢÐ¸": 3394,
      "ford": 3395,
      "Ð´Ð²Ð¾Ðµ": 3396,
      "ÐºÐ¾Ð¼Ð¾": 3397,
      "ÐµÑĢÐ½Ð¸ÑĩÐ°": 3398,
      "Ð½Ð°Ð´": 3399,
      "Ð±Ð¾Ð»Ð¾": 3400,
      "Ġbest": 3401,
      "Ð²Ð·ÑĢÐµ": 3402,
      "Ð½Ð½Ð¾ÑģÑĤÑĮ": 3403,
      "Ð²Ð¾Ð·Ð½ÐµÑģ": 3404,
      "ÐµÐ½Ð½Ð¾ÑģÑĤÐ¸": 3405,
      "Ġhour": 3406,
      "Ð±ÐµÑģÐµ": 3407,
      "Ġhence": 3408,
      "Ð»ÐµÐ½Ð½Ð¾Ðµ": 3409,
      "Ð»ÐµÐ½Ð½Ð¾Ð¼": 3410,
      "Ð»ÐµÐ½Ð½Ð¾Ñİ": 3411,
      "Ð»ÐµÐ½Ð½Ð¾Ð¹": 3412,
      "Ð»ÐµÐ½Ð½Ð¾Ð³Ð¾": 3413,
      "Ð»ÐµÐ½Ð½Ð¾Ð¼Ñĥ": 3414,
      "Ð±Ð¾ÑĢÐ¾Ð´Ð°": 3415,
      "Ð»ÐµÐºÑģÐ°Ð½": 3416,
      "ardon": 3417,
      "Ð·Ð°ÑĤÑĥÑĪÑĳ": 3418,
      "Ð²ÑģÐºÐ¾Ð¼Ñĥ": 3419,
      "Ð·Ð°Ð²Ð¾Ñĳ": 3420,
      "akes": 3421,
      "Ð·Ð°ÑĪÐ¸ÑĦ": 3422,
      "ÑįÐ»ÐµÐºÑĤÑĢÐ¾": 3423,
      "lse": 3424,
      "Ð¸ÑĢÐ¾Ð²Ð°": 3425,
      "Ð·Ð¶Ð°": 3426,
      "Ð²ÑĭÐ±ÑĢÐ°ÑģÑĭÐ²Ð°": 3427,
      "Ð´Ð¾ÑģÐ¾": 3428,
      "ÐºÐ¸Ðµ": 3429,
      "Ġacc": 3430,
      "Ð²Ð·Ð±ÑĢÑĭ": 3431,
      "sed": 3432,
      "ÑĪÐµÐ½ÑĮ": 3433,
      "Ġface": 3434,
      "ult": 3435,
      "Ð²Ð·Ð±ÑĥÐ´Ð¾ÑĢÐ°": 3436,
      "Ġfoll": 3437,
      "On": 3438,
      "ew": 3439,
      "ud": 3440,
      "ÑģÐ»Ðµ": 3441,
      "Ð·ÐµÑĤ": 3442,
      "Ð·Ð½Ñĥ": 3443,
      "Ð´Ð½Ð¾": 3444,
      "Ð±Ð»ÐµÑģ": 3445,
      "Ð²ÑĭÑģÑĤÐ¸": 3446,
      "Ð²ÑĭÑģÑĤÑĢÐ¸": 3447,
      "Ð²ÑĭÑĪÑĥ": 3448,
      "Ð´Ð¾ÑĢÐµ": 3449,
      "Ð´Ð¾Ð¿ÑĢÐ¾": 3450,
      "Ð»Ð¸Ð¾": 3451,
      "Ð±Ð°Ñģ": 3452,
      "ÐºÐ¸Ð¼": 3453,
      "ÐºÑĥÑĢ": 3454,
      "ark": 3455,
      "Ġyoung": 3456,
      "Ð³ÑĥÐ´ÑĢÐ¾": 3457,
      "Ð²ÑĭÑģÐ²ÐµÑĤ": 3458,
      "Ð²ÑĭÑģÐ¼Ð¾ÑĢ": 3459,
      "Ð»ÐµÐ½Ñĭ": 3460,
      "Ð²Ð°Ð½Ð½ÑĭÑħ": 3461,
      "Ð²Ð°Ð½Ð½ÑĭÐ¼Ð¸": 3462,
      "Ð²Ð°Ð½Ð½Ð°Ñı": 3463,
      "Ġend": 3464,
      "Ð·Ð°ÐºÐ¾Ð½Ð¾Ð¿Ð°": 3465,
      "Ð²Ð·ÑĭÑģÐºÐ°": 3466,
      "Ð°ÑĨÐµÑĤÐ¸": 3467,
      "Ð°ÑģÑģÐ¾ÑĨÐ¸Ð¸": 3468,
      "ÑĤÐºÐ°": 3469,
      "Ð»ÑĥÑİ": 3470,
      "Ð±ÑĢÐµÐ½": 3471,
      "ÐºÐ°Ð»Ð¾": 3472,
      "Ð½Ð¸Ð·Ð¸ÑĢÐ¾Ð²Ð°": 3473,
      "Ð´ÐµÐ³Ñĥ": 3474,
      "Ð¼Ð°Ð¼Ð¸": 3475,
      "Ð´Ð°Ð»ÑĮ": 3476,
      "ork": 3477,
      "Ð²ÑģÐºÐ¾Ð¹": 3478,
      "Ð¶Ð¸ÑĢÐ¾": 3479,
      "ÐµÐ½Ð½Ð¾ÑģÑĤÑĮÑİ": 3480,
      "Ġthing": 3481,
      "Ð²Ð°Ð½Ð½ÑĭÐ¼": 3482,
      "Ð²Ð°Ð½Ð½ÑĥÑİ": 3483,
      "Ð²Ð°Ð½Ð½ÑĭÐµ": 3484,
      "Ġstill": 3485,
      "Ġkind": 3486,
      "Ð½ÑĮÐµ": 3487,
      "Ð°Ð½Ð°ÑĤÐ¾": 3488,
      "Ð²Ð¾Ð»Ð½Ð¾Ð²Ð°": 3489,
      "ÑģÐ»Ð¾Ð²": 3490,
      "Ð°ÑĥÐ´Ð¸Ð¾": 3491,
      "ield": 3492,
      "Ð´ÐµÐ·Ð¾ÑĢÐ³Ð°Ð½Ð¸": 3493,
      "Ð±ÑİÑĢÐ¾ÐºÑĢÐ°ÑĤÐ¸": 3494,
      "ST": 3495,
      "ÑĤÐ½Ð¾": 3496,
      "Ð·Ð°Ð»ÑĮ": 3497,
      "Ð·Ð°Ð·ÐµÐ¼": 3498,
      "Ð¿ÐµÑĤ": 3499,
      "Ð´Ð¾Ð¶Ð°": 3500,
      "ÐºÐ¸ÑĢÐ¾Ð²Ð°": 3501,
      "Ð±ÐµÐ»Ðµ": 3502,
      "Ð¼Ð¾Ñģ": 3503,
      "Ð¼Ð¾Ð¹": 3504,
      "Ð°Ð½ÐºÐµÑĤÐ¸": 3505,
      "Ġpri": 3506,
      "Ġpur": 3507,
      "Ð²ÑĭÑģÐ²ÐµÑĢ": 3508,
      "Ð³Ð¾ÑĢÑİ": 3509,
      "alk": 3510,
      "Ð·Ð°Ð¼ÐµÑĩÐ°": 3511,
      "Thy": 3512,
      "Ġcomp": 3513,
      "Ð²Ð°ÐºÑĨÐ¸": 3514,
      "LUCIO": 3515,
      "ale": 3516,
      "Ð¼Ð½Ð¸": 3517,
      "Ð·Ð°Ð´Ð¾Ð»": 3518,
      "Ð²ÑĭÑĨÐµ": 3519,
      "ÑĪÐºÐ°Ð¼": 3520,
      "ÑĪÐºÐ°Ð¼Ð¸": 3521,
      "Ð³Ð°Ð»Ð°": 3522,
      "ÑĦÑĢÐ°": 3523,
      "ins": 3524,
      "Ð²Ð·ÑĢÑĭÐ²Ð°": 3525,
      "ert": 3526,
      "Ð²ÐµÑĢÑĪÐ¸": 3527,
      "Ġput": 3528,
      "Ġpower": 3529,
      "ĠIV": 3530,
      "ÑĩÐ½Ð¾ÑģÑĤÑĮ": 3531,
      "Ð»ÑĳÑģÐºÐ¸Ð²Ð°": 3532,
      "ichard": 3533,
      "ÑĦÐ¸ÑĨÐ¸ÑĢÑĥ": 3534,
      "Ð°Ð²Ð°Ð½ÑĤÑİ": 3535,
      "Ġtwo": 3536,
      "Ð·Ð°ÑĦÑĢÐ°Ñħ": 3537,
      "Ð²Ð¼ÐµÑĤ": 3538,
      "Ð²ÑĭÐ±ÑĢÑĭÐ·": 3539,
      "Ð²Ð¾Ð¶": 3540,
      "Ð³Ð¾Ð½Ð°": 3541,
      "ÑĪÐºÐ°Ñħ": 3542,
      "Ð»Ð¾Ñİ": 3543,
      "ÐºÐ¸Ñħ": 3544,
      "ÐºÐ¸Ð¼Ð¸": 3545,
      "Ð±Ð¾ÑĩÐ°": 3546,
      "Ð´Ð°Ð»ÑĮÐ½Ð¾": 3547,
      "Ġcha": 3548,
      "Ġhimself": 3549,
      "Ð²ÑĢÐ°ÑīÐ°": 3550,
      "Ð±Ð»Ð¸ÑģÑĤÐ°": 3551,
      "Ð²Ð°ÑĢÑĮÐ¸": 3552,
      "Ð³Ð»ÑıÐ½": 3553,
      "Ð²ÑģÐ¿ÐµÐ½": 3554,
      "ÑĤÐµÑħÐ½Ð¸": 3555,
      "Pro": 3556,
      "ÐºÑĨÐ¸Ð¾": 3557,
      "Ð³Ð´Ð°": 3558,
      "Ð²ÑĭÐºÐ¸": 3559,
      "ÑĩÐºÐ¾": 3560,
      "iness": 3561,
      "Ð¿Ð¾Ð·Ð¸": 3562,
      "Ð³Ð¸ÑģÑĤÐ¾": 3563,
      "Ð±ÑĥÑĢÐ°": 3564,
      "Ð²ÑģÐºÑĥÑİ": 3565,
      "Ð²ÑģÐ°ÑģÑĭÐ²Ð°": 3566,
      "Ġfirst": 3567,
      "Ð±ÐµÑģÑģÑĤÑĭ": 3568,
      "Ġpeace": 3569,
      "Ġgu": 3570,
      "Ð·Ð°ÐºÐ¾Ð»": 3571,
      "Ð°Ð²ÑĤÐ¾Ð¼Ð°ÑĤÐ¸": 3572,
      "Ġelse": 3573,
      "ried": 3574,
      "Ġdear": 3575,
      "Ð±ÐµÐ½Ð·Ð¸": 3576,
      "Ð´ÐµÐ¼Ð¾ÐºÑĢÐ°ÑĤÐ¸": 3577,
      "Ð·Ð°Ð´ÑĢÐ°Ð¿Ð¸": 3578,
      "cious": 3579,
      "Ð±Ð°Ð»ÑĮÐ·Ð°Ð¼Ð¸": 3580,
      "Ð¿ÑĭÑħÐ°": 3581,
      "Sir": 3582,
      "ail": 3583,
      "ty": 3584,
      "Ð°ÑģÑĤ": 3585,
      "ÐµÐ»Ð¸": 3586,
      "Ð·Ð»Ð¸": 3587,
      "Ð²ÑĭÐ¶": 3588,
      "ÑģÑĤÐµÐ½": 3589,
      "ÐµÑĢÑĪÐ¸": 3590,
      "ÑĥÑİÑĤ": 3591,
      "Ð±Ð¾Ð²ÑĭÐ²Ð°": 3592,
      "Ð´ÑĥÑĪÐ¸": 3593,
      "Ð³ÐµÐ¹": 3594,
      "Ð²ÑıÐºÐ°": 3595,
      "ÑĦÐ¾ÑĤÐ¾": 3596,
      "Ð·Ð°Ð¿Ð¾ÑĢ": 3597,
      "ason": 3598,
      "Ð±ÑĢÐ¸ÐºÐµÑĤÐ¸": 3599,
      "hile": 3600,
      "Ð²ÑģÐºÐ¸Ðµ": 3601,
      "Ð²ÑģÐºÐ¸Ñħ": 3602,
      "Ġsub": 3603,
      "Ð´ÐµÐ»Ð¸ÐºÐ°ÑĤ": 3604,
      "Ð·Ð°Ð²ÐµÑīÐ°": 3605,
      "Ð²ÑĭÑģÐºÐ°Ð·ÑĭÐ²Ð°": 3606,
      "Ð±ÑĢÑĭÐ·Ð³Ð°": 3607,
      "Ð²Ð¾ÑģÐ¿ÑĢÐ¸Ð½Ð¸Ð¼Ð°": 3608,
      "Ġunto": 3609,
      "Ð±Ð¾Ð³Ð¾ÑħÑĥÐ»ÑĮ": 3610,
      "ile": 3611,
      "ray": 3612,
      "Ð°Ð³Ð°": 3613,
      "Ð²Ð²ÑĳÑĢ": 3614,
      "Ð´Ð¾ÑħÐ½Ñĥ": 3615,
      "Ð´Ð¾Ð¼Ð¸Ð½Ð°": 3616,
      "Ð´Ð¾Ð¿Ð¾Ð»Ð½Ñı": 3617,
      "ÐºÐ¾ÑĤÐ°": 3618,
      "Ġtill": 3619,
      "Ð±Ð¾Ð»ÐµÐ·": 3620,
      "Ġsm": 3621,
      "Ð±ÑĢÐ°Ð½Ñı": 3622,
      "Ð²ÑĭÑģÐºÑĢÐµ": 3623,
      "Ð´Ð²ÑĥÑĢÑĥ": 3624,
      "uty": 3625,
      "ÑĢÐ¾Ð²Ð½Ñı": 3626,
      "Ð²ÑĭÑĢÐ°Ð·Ð¸": 3627,
      "Ð²ÑģÐºÐ¾Ðµ": 3628,
      "Ð»ÐµÐ½Ð¸Ðµ": 3629,
      "RI": 3630,
      "ZAB": 3631,
      "ect": 3632,
      "Ð´Ð¶Ð°": 3633,
      "Ð´Ð²Ð¾Ð¹": 3634,
      "Ð²ÑĭÐ¼ÐµÑĤ": 3635,
      "Ð²ÑĭÐ·Ñĥ": 3636,
      "ÑĩÐ»Ð¸": 3637,
      "Ð²Ð¾ÐµÐ½": 3638,
      "Ð´Ð¾ÑĩÐ¸": 3639,
      "Ġtra": 3640,
      "Ð»Ð°Ð³Ð°": 3641,
      "Ð´ÐµÑĨÐ¸": 3642,
      "Ð¼Ð°Ð¼": 3643,
      "Ð²ÐµÐ»ÑĮ": 3644,
      "Ġbid": 3645,
      "Ġback": 3646,
      "Ð²Ð·Ð¼Ð¾": 3647,
      "ÑģÐ¸ÑģÑĤ": 3648,
      "Ġdre": 3649,
      "Ġhus": 3650,
      "ÑĪÐµÐº": 3651,
      "Ð¶ÐµÐ»ÐµÐ·": 3652,
      "Ð·Ð°ÐºÐ¾Ð»Ð¾": 3653,
      "Ð°Ð´ÑĬ": 3654,
      "ÑĨÐµÐ½ÑĤÑĢÐ¸": 3655,
      "ETH": 3656,
      "ĠELI": 3657,
      "Ġtherefore": 3658,
      "Ð·Ð°ÑĢÑıÐ¶Ð°": 3659,
      "Ð´Ð¸ÑģÐºÑĢÐ¸": 3660,
      "Ð´ÐµÑĤÐµÐº": 3661,
      "Ġearth": 3662,
      "Ġwords": 3663,
      "Ġcount": 3664,
      "ZABETH": 3665,
      "ĠELIZABETH": 3666,
      "Have": 3667,
      "band": 3668,
      "ius": 3669,
      "men": 3670,
      "ople": 3671,
      "yal": 3672,
      "Ð°ÑĦÐ¾": 3673,
      "Ð²Ð¸Ð²Ð°": 3674,
      "Ð´ÑĢÐµÐ½Ð°": 3675,
      "Ð·Ð°Ð»Ð¸Ð²Ð°": 3676,
      "Ð·Ð°Ð±Ð¾ÑĢÐ¾": 3677,
      "Ð½Ð¸ÑĤ": 3678,
      "Ð±Ð°ÑĤ": 3679,
      "Ð±Ð°Ð·Ð¸": 3680,
      "Ð¼Ð¾Ðµ": 3681,
      "Ð²Ð·Ð±Ð¾ÑĢÐ¾": 3682,
      "Ð²ÑģÑħÐ¾": 3683,
      "Ġfind": 3684,
      "Ġcould": 3685,
      "ÑĢÑĭÐ³Ð½Ñĥ": 3686,
      "ÑħÐ°Ð¶Ð¸Ð²Ð°": 3687,
      "ÐºÐ¾Ð¼Ð¿Ð°": 3688,
      "Ð²ÑĭÑħÐ°ÑĢ": 3689,
      "Ð½Ð¸ÑıÐ¼Ð¸": 3690,
      "Ð´ÑıÑĤ": 3691,
      "Ð²ÑģÐºÐ¸Ð¼Ð¸": 3692,
      "Ð·Ð°Ð¿Ð¸ÑĢÐ°": 3693,
      "Ð´ÐµÐ¼Ð¿": 3694,
      "Ð²ÑģÐ¿Ð¾Ð»Ð¾": 3695,
      "Ġtongue": 3696,
      "Ð°Ð·": 3697,
      "ÑĥÑģÑĤÐ¾Ð¹": 3698,
      "ÐµÐ½Ð½ÑĭÐ¹": 3699,
      "Ð´Ð¾Ð±Ñĭ": 3700,
      "Ð»Ð¸ÑģÑĤ": 3701,
      "Ð´Ð¸Ð¹": 3702,
      "Ð±Ð°Ð½Ð°": 3703,
      "ÑĳÑģÑĭÐ²Ð°": 3704,
      "orse": 3705,
      "Ð²ÑģÐºÐ¾Ñİ": 3706,
      "Ġlady": 3707,
      "Ġthine": 3708,
      "ÑħÐ¾Ð²Ð°": 3709,
      "Ð²ÑĭÑģÑĭÐ¿Ð°": 3710,
      "Ð·Ð°ÐºÑĢÐ¸": 3711,
      "Ð·Ð°ÐºÑĢÑĭÐ²Ð°": 3712,
      "ÑĩÐµÐ½Ñĭ": 3713,
      "Ð²ÐºÐ»ÑİÑĩÐ°": 3714,
      "Ð´Ð¸Ð°Ð³Ð½Ð¾ÑģÑĤÐ¸": 3715,
      "Ð³Ð»ÑĥÐ±Ð¾ÐºÐ¾": 3716,
      "Ġneed": 3717,
      "Ð²Ð·ÑĢÑĭÑħ": 3718,
      "ĠYork": 3719,
      "Ð³ÑĢÐ°Ð´ÑĥÑģ": 3720,
      "Ð²ÑĭÑĤÑıÐ³Ð¸Ð²Ð°": 3721,
      "HENRY": 3722,
      "get": 3723,
      "tw": 3724,
      "ÑģÐ»ÐµÐ½": 3725,
      "Ð·Ð´ÑĭÐ²Ð°": 3726,
      "Ð²Ð°Ð»ÐµÐ½": 3727,
      "Ð²ÑĭÐ·ÑĭÐ²Ð°": 3728,
      "Ð³Ð¾ÑģÑĤÐ¸": 3729,
      "Ġtre": 3730,
      "Ð½Ð°ÑĢ": 3731,
      "Ð´ÐµÐ²Ð¸": 3732,
      "Ð²Ð·Ð²ÐµÑĪÐ¸Ð²Ð°": 3733,
      "Ð±Ð¸Ð»ÐµÑĤ": 3734,
      "Ð½Ð½Ð¾ÑģÑĤÐ¸": 3735,
      "Ġfell": 3736,
      "Ð²Ð¾Ð·Ð´Ð²Ð¸": 3737,
      "enry": 3738,
      "Ġhigh": 3739,
      "Ð°ÑĢÐ³ÑĥÐ¼ÐµÐ½": 3740,
      "ÑįÑĤÐ°Ð¶": 3741,
      "Ð³Ð»Ð°Ð·Ñĥ": 3742,
      "Ġforth": 3743,
      "Ð²ÑĭÐºÐ»ÑİÑĩÐ°": 3744,
      "Ð°Ð´ÑģÐ¾ÑĢÐ±Ð¸": 3745,
      "ÑģÑĥÑĢ": 3746,
      "Ð²ÑĭÑĤÐ°Ð»ÐºÐ¸Ð²Ð°": 3747,
      "Ġhope": 3748,
      "Ð·Ð²ÐµÐ·Ð´Ð¾": 3749,
      "Ð°ÑĢÐ¾Ð¼Ð°ÑĤÐ¸": 3750,
      "Ð²ÑģÑĤÑĢÑıÑħÐ¸Ð²Ð°": 3751,
      "Ð·Ð°ÑĨÐ¸ÐºÐ»Ð¸Ð²Ð°": 3752,
      "MER": 3753,
      "St": 3754,
      "lp": 3755,
      "ÐµÑħÐ°": 3756,
      "Ð²ÑĭÐ´Ð²Ð¸Ð³Ð°": 3757,
      "Ð¶ÐµÑģ": 3758,
      "ÑĪÐ»ÐµÐ½": 3759,
      "Ð´ÐµÑĪÐµ": 3760,
      "Ð±Ð¾Ð´": 3761,
      "Ð±Ð¸ÑĤ": 3762,
      "ÑīÐ¸Ðº": 3763,
      "Ġhome": 3764,
      "vere": 3765,
      "eth": 3766,
      "Ð³Ð»Ð°Ð´ÐºÐ¾": 3767,
      "Ð·Ð°ÐºÐ°Ð»Ð¸Ð²Ð°": 3768,
      "Ð¶ÐµÐ½Ð½ÑĭÐ¹": 3769,
      "ÑĩÐµÐ½Ð½ÑĭÐ¼": 3770,
      "ÑĩÐµÐ½Ð½ÑĥÑİ": 3771,
      "ÑĬÑı": 3772,
      "Ġseem": 3773,
      "Ð·Ð°Ð¼ÑĭÐºÐ°": 3774,
      "Ð²ÑĭÐ¶Ð¸Ð¼Ð°": 3775,
      "Ð²ÑĤÐ¸ÑĢÐ°": 3776,
      "Ð²ÑĭÑĢÐ½Ñĥ": 3777,
      "ÑįÐ»ÐµÐºÑĤÑĢÐ¸": 3778,
      "eech": 3779,
      "ĠRomeo": 3780,
      "Ð±ÐµÐ·Ð¾Ð±ÑĢÐ°Ð·": 3781,
      "Ð°ÑĢÑħÐ°Ð¸": 3782,
      "Ġhusband": 3783,
      "CL": 3784,
      "Ð½ÐºÑĥ": 3785,
      "ÑģÐµÐ½Ð¸": 3786,
      "ÐºÐ»Ð¾": 3787,
      "Ð·Ð°Ð´Ð¸ÑĢÐ°": 3788,
      "Ð²Ð°ÑĤÑĮ": 3789,
      "Ð²ÑĭÑĢÑĭÐ²Ð°": 3790,
      "ÑĩÐµÐ½Ð½Ð¾Ð³Ð¾": 3791,
      "Ð³Ð¾Ð²Ðµ": 3792,
      "Ð´Ð¾Ð±ÑĢÐµ": 3793,
      "ÐºÐ¾Ð¼Ñĥ": 3794,
      "ÑĪÐ°Ð½": 3795,
      "Ð³Ð°Ð´ÑĭÐ²Ð°": 3796,
      "Ð°Ð½Ð½Ñĥ": 3797,
      "Ð²Ð·Ð±Ð°Ð»Ð°Ð¼Ñĥ": 3798,
      "Ð½Ð½Ð¾ÑģÑĤÑĮÑİ": 3799,
      "Ġduke": 3800,
      "ÑĩÐ½Ð¾ÑģÑĤÐ¸": 3801,
      "ÐĲÐ»ÑĮ": 3802,
      "Ð´ÑĭÐ¼Ð¸": 3803,
      "Ð·Ð°Ð³Ð¾Ð²Ð°ÑĢÐ¸Ð²Ð°": 3804,
      "ÑĩÐµÐ½Ð½ÑĭÑħ": 3805,
      "ÑĩÐµÐ½Ð½ÑĭÐ¼Ð¸": 3806,
      "ÑĩÐµÐ½Ð½Ð°Ñı": 3807,
      "ÑĩÐµÐ½Ð½ÑĭÐµ": 3808,
      "Ð·Ð°Ð±ÑĭÐ²Ð°": 3809,
      "ÑĨÐ¸Ð¾Ð½Ð½ÑĭÐ¼": 3810,
      "ÑĨÐ¸Ð¾Ð½Ð½ÑĭÑħ": 3811,
      "ÑĨÐ¸Ð¾Ð½Ð½ÑĥÑİ": 3812,
      "ÑĨÐ¸Ð¾Ð½Ð½ÑĭÐ¼Ð¸": 3813,
      "ÑĨÐ¸Ð¾Ð½Ð½Ð°Ñı": 3814,
      "ÑĨÐ¸Ð¾Ð½Ð½ÑĭÐµ": 3815,
      "Ð·Ð°Ð¿ÑĥÐ³Ð¸Ð²Ð°": 3816,
      "Ð´ÐµÐ¼Ð¾ÑĢÐ°Ð»Ð¸": 3817,
      "Ð·Ð°Ð´ÑĥÑĢ": 3818,
      "Ð°ÑĤÑĤÐµ": 3819,
      "ÑģÑĤÑĢÐ¸ÑĢÐ¾Ð²Ð°": 3820,
      "Ð³Ð¸Ð¿ÑģÐ¾": 3821,
      "Ð·Ð°Ð´ÑĢÐ°Ð·": 3822,
      "Ð´Ð¾Ð¸Ð³ÑĢÑĭÐ²Ð°": 3823,
      "Ġright": 3824,
      "Ð´Ð¾Ð¿ÑĥÑģÐºÐ°": 3825,
      "GE": 3826,
      "WAR": 3827,
      "WIC": 3828,
      "fort": 3829,
      "ĠWhat": 3830,
      "Ð¸Ð¾": 3831,
      "ÑĢÐ¼Ð¸": 3832,
      "Ð·Ð°ÑĪÐ¸Ð²Ð°": 3833,
      "Ð·Ð°ÑĢÑĭÐ²Ð°": 3834,
      "Ð·Ð°Ð´Ð²Ð¸Ð³Ð°": 3835,
      "Ð·Ð°Ð´ÐµÐ»ÑĭÐ²Ð°": 3836,
      "Ð²ÑĭÐ±Ð¸ÑĢÐ°": 3837,
      "ÑĩÐµÐ½Ð½Ð¾Ñİ": 3838,
      "ÑĩÐµÐ½Ð½Ð¾Ð¹": 3839,
      "ÑĩÐµÐ½Ð½Ð¾Ð¼": 3840,
      "ÑĩÐµÐ½Ð½Ð¾Ðµ": 3841,
      "ÑĩÐµÐ½Ð½Ð¾Ð¼Ñĥ": 3842,
      "Ð²Ð¾Ð·Ð¸": 3843,
      "Ð´Ð¾Ð±Ð¸ÑĢÐ°": 3844,
      "ÑĪÐºÐ¾Ð¹": 3845,
      "Ð½Ð¸ÑģÑĤÐ¾": 3846,
      "Ð»Ð¸ÑĤ": 3847,
      "ÐµÑģÐ¸": 3848,
      "Ð½Ð°Ñĥ": 3849,
      "Ð´ÐµÑĦÐ¸": 3850,
      "Ð±Ð¾Ðº": 3851,
      "Ð»ÐµÑĢÐ¾": 3852,
      "Ð±ÐµÐ¶Ð°": 3853,
      "rer": 3854,
      "Ġban": 3855,
      "ÑģÐ¾Ð´ÐµÑĢÐ¶Ð°": 3856,
      "Ð·Ð¸Ñı": 3857,
      "Ð·Ð¾Ð½": 3858,
      "ÑĪÐ¸ÑĢÐ¾Ð²Ð°": 3859,
      "Ð±ÐµÐ·ÑĢÐ°Ñģ": 3860,
      "ÑĦÐ¸Ð»ÑĮ": 3861,
      "Ð°ÐºÑĤÑĥ": 3862,
      "Ð³ÐµÐºÑĤÐ¾": 3863,
      "uth": 3864,
      "ÑįÐ½ÐµÑĢ": 3865,
      "Ġthough": 3866,
      "Ð½Ð¸ÑıÐ¼": 3867,
      "ÐĵÐµÐ½": 3868,
      "Ð´Ð¾Ð¿ÑĢÐ°ÑĪÐ¸Ð²Ð°": 3869,
      "Ð·Ð°Ð¿ÐµÐºÐ°": 3870,
      "Ð´ÐµÐ¼Ð¾Ð±Ð¸Ð»Ð¸": 3871,
      "Ð´Ð¾Ð±Ð¸Ð²Ð°": 3872,
      "Ð¾ÑĢÐ³Ð°Ð½Ð¸": 3873,
      "Ð²ÑĢÐµÐ·Ð°": 3874,
      "Ð¶Ð´Ñĳ": 3875,
      "ĠVI": 3876,
      "Ð²Ð¼ÐµÑĪÐ¸Ð²Ð°": 3877,
      "Ð²ÑģÑĤÑĢÐµÑĩÐ°": 3878,
      "Ð³ÐµÑĢÐ¾Ð¸": 3879,
      "Ð²ÑĭÑģÐ°Ð¶Ð¸Ð²Ð°": 3880,
      "Ð²ÑĭÑĩÐ»ÐµÐ½": 3881,
      "Ð°Ð³Ð¸ÑĤ": 3882,
      "Ð·Ð°ÑĤÑıÐ³Ð¸Ð²Ð°": 3883,
      "Ð²ÑĤÑıÐ³Ð¸Ð²Ð°": 3884,
      "Ð·Ð°Ð±ÑĢÑĭÐ·": 3885,
      "WARWIC": 3886,
      "WARWICK": 3887,
      "UT": 3888,
      "ach": 3889,
      "ix": 3890,
      "Ð°ÑħÐ°": 3891,
      "Ð°Ð³Ð»Ð¾": 3892,
      "Ð¾ÑĢÐ¾": 3893,
      "Ð²Ð¼Ñĥ": 3894,
      "Ð²ÑĤÑĭ": 3895,
      "Ð²ÑģÐ¾Ð²ÑĭÐ²Ð°": 3896,
      "Ð·Ð°Ð±Ñĭ": 3897,
      "Ð·Ð°Ð±Ð¸ÑĢÐ°": 3898,
      "Ð·Ð°ÐµÐ´Ð°": 3899,
      "Ð·Ð°Ð²ÑĳÑĢÑĤÑĭÐ²Ð°": 3900,
      "Ð¿ÐµÐ½Ð¸": 3901,
      "Ð²ÑĭÑģÑĤÑĢÐ°Ð¸Ð²Ð°": 3902,
      "Ð²ÑĭÑĨÐ°ÑĢÐ°": 3903,
      "Ð²Ð¾Ð»Ñĭ": 3904,
      "Ð³Ð¾Ð¼": 3905,
      "ÐºÐ¾Ðµ": 3906,
      "ÑĪÐ½Ðµ": 3907,
      "Ð±Ð°Ð¼": 3908,
      "Ð±Ð°ÑĢÐ°Ñħ": 3909,
      "Ġmind": 3910,
      "Ġbra": 3911,
      "Ð±Ð¸ÑĢÑİ": 3912,
      "Ð±ÑĥÑĤÑĭ": 3913,
      "ister": 3914,
      "Ġche": 3915,
      "Ġchar": 3916,
      "Ð²ÑĭÐ²Ð°Ð»Ð¸Ð²Ð°": 3917,
      "Ð±ÐµÑģÐ¿Ñĥ": 3918,
      "Ð³ÑĥÐ¼Ð°Ð½Ð¸": 3919,
      "ÑħÐ¾Ð·Ñı": 3920,
      "Ð²ÑĭÑģÐ²ÐµÑĩÐ¸Ð²Ð°": 3921,
      "Ð²ÑĭÑģÐ¾Ð²ÑĭÐ²Ð°": 3922,
      "Ð²ÑĭÐºÐ»Ð°Ð´ÑĭÐ²Ð°": 3923,
      "Ð²ÑĭÐºÑĢÑĥÑĩÐ¸Ð²Ð°": 3924,
      "Ð·Ð°ÐºÐ°ÑĤÑĭÐ²Ð°": 3925,
      "Ð·Ð°ÐºÐ°Ð¿ÑĭÐ²Ð°": 3926,
      "Ð·Ð°Ð¼Ð°Ð·ÑĭÐ²Ð°": 3927,
      "Ð·Ð°Ð³Ð¾ÑĢÐ°Ð¶Ð¸Ð²Ð°": 3928,
      "Ð½Ð¸ÑıÑħ": 3929,
      "Ð´Ð¸ÑģÑģÐ¸": 3930,
      "hip": 3931,
      "Ð²ÑĭÐºÐ°ÑĤÑĭÐ²Ð°": 3932,
      "Ð·Ð°ÐºÑĥÑĤÑĭÐ²Ð°": 3933,
      "Ð·Ð°ÐºÑĥÐ¿Ð¾ÑĢÐ¸Ð²Ð°": 3934,
      "Ð·Ð°Ð¿Ð°ÑģÐ°": 3935,
      "Ð·Ð°ÑĤÐ¾Ð²Ð°ÑĢÐ¸Ð²Ð°": 3936,
      "Ð·Ð°Ð±Ð¸Ð²Ð°": 3937,
      "ÐµÐ´Ð¸Ð½": 3938,
      "Ð·Ð°Ð²ÐµÑĢÑĤÑĭÐ²Ð°": 3939,
      "Ð²ÑĭÐ¼Ð°Ð·ÑĭÐ²Ð°": 3940,
      "Ð·Ð°Ð¿ÑĥÑĤÑĭÐ²Ð°": 3941,
      "Ð²ÑĭÐ¼Ð¾Ð³Ð°": 3942,
      "Ð·Ð°Ð¼ÑĥÑĢÐ¾Ð²ÑĭÐ²Ð°": 3943,
      "Ð²ÑĭÐ³Ð¾ÑĢÐ°Ð¶Ð¸Ð²Ð°": 3944,
      "Ð·Ð°ÑĩÐ¸ÑĤÑĭÐ²Ð°": 3945,
      "ÑģÑĤÑĢÐ¸ÑĢÑĥ": 3946,
      "Ð²ÑĭÐ¿ÑĥÑĤÑĭÐ²Ð°": 3947,
      "Ð·Ð°Ð²Ð¾ÑĢÐ°ÑĩÐ¸Ð²Ð°": 3948,
      "Ð²Ð¿Ð¸ÑģÑĭÐ²Ð°": 3949,
      "Ð·Ð°Ð²Ð°Ð»Ð¸Ð²Ð°": 3950,
      "Ð·Ð°Ð´ÐµÑĢÐ¶Ð¸Ð²Ð°": 3951,
      "ĠHENRY": 3952,
      "Ð²ÑĭÑħÐ¾Ð»Ð°": 3953,
      "Ð´Ð¾Ð¿Ð¸ÑģÑĭÐ²Ð°": 3954,
      "Ð²Ð¸ÑħÐ»Ñı": 3955,
      "Ð²Ð¿ÑĥÑĤÑĭÐ²Ð°": 3956,
      "Ð·Ð°ÑģÑĤÐµÐ³Ð¸Ð²Ð°": 3957,
      "Ð²Ð¶Ð¸Ð¼Ð°": 3958,
      "Ð²ÑĭÐ¿ÑıÑĩÐ¸Ð²Ð°": 3959,
      "Ð·Ð°Ð²Ð¸Ð²Ð°": 3960,
      "Ð²ÑĭÐ²Ð¾ÑĢÐ°ÑĩÐ¸Ð²Ð°": 3961,
      "Ð²ÐºÐ»Ð¸Ð½Ð¸Ð²Ð°": 3962,
      "Ð·Ð°ÑģÑĤÑĢÐ°ÑħÐ¾Ð²ÑĭÐ²Ð°": 3963,
      "Ð·Ð°Ð²Ð¾ÐµÐ²ÑĭÐ²Ð°": 3964,
      "Ð²Ð¾ÑģÐ¿Ð»Ð°Ð¼ÐµÐ½Ñı": 3965,
      "Ġpeople": 3966,
      "Ð·Ð°ÑģÑĤÑĳÐ³Ð¸Ð²Ð°": 3967,
      "Ð²Ð¾ÑģÐ¿ÐµÐ²Ð°": 3968,
      "Ð·Ð°ÑģÐµÐºÑĢÐµÑĩÐ¸Ð²Ð°": 3969,
      "Ð·Ð°Ð²Ð¾ÑĳÐ²ÑĭÐ²Ð°": 3970,
      "Nurse": 3971,
      "ds": 3972,
      "ged": 3973,
      "ÐµÑĨ": 3974,
      "Ð´Ð½ÑĥÑİ": 3975,
      "Ð´Ð½Ð¾Ð¹": 3976,
      "Ð²ÑĭÐ³Ð¸Ð±Ð°": 3977,
      "Ð½Ð¸ÑĩÐµ": 3978,
      "Ð±Ð°Ð±Ñĥ": 3979,
      "Ð´ÐµÐ³Ð°": 3980,
      "ÑĤÑĮÐµ": 3981,
      "ÑĩÐ¸Ð½": 3982,
      "ÑĩÐ¸Ðº": 3983,
      "Ð¶Ð¸Ð»Ð¸": 3984,
      "ÑģÑĤÐ°Ð±Ð¸Ð»Ð¸": 3985,
      "Ð²Ð¾ÑģÐºÐ»Ð¸": 3986,
      "Ð´Ð²ÑĥÑģ": 3987,
      "ÑĤÑĥÐºÐ°ÑĤÑĥ": 3988,
      "Ð·Ð°Ð¿Ð¾Ð¼Ð¸Ð½Ð°": 3989,
      "Ð´Ð¸ÑģÑģÐ¾": 3990,
      "Ð³ÐµÑĢÐ¼Ð°Ð½Ð¸": 3991,
      "Ð²ÑĭÑĢÐ°Ð±Ð°ÑĤÑĭÐ²Ð°": 3992,
      "Ð·Ð°ÑĢÐ°Ð±Ð°ÑĤÑĭÐ²Ð°": 3993,
      "ĠCitizen": 3994,
      "Ð²ÑĭÐ¿ÑĥÑģÐºÐ°": 3995,
      "Ð´ÑİÐ¹": 3996,
      "Ð±ÑĥÐ¼Ð°Ð³Ð¾": 3997,
      "Ð²Ð¾Ð·Ð±ÑĥÐ¶Ð´Ð°": 3998,
      "Ð·Ð°ÑģÐ»Ð¾Ð½Ñı": 3999,
      "Ð´ÐµÐ¼Ð°ÑģÐºÐ¸": 4000,
      "Ð²ÑĭÑĤÐ¸ÑĢÐ°": 4001,
      "Ð·Ð°ÑģÐºÐ¾": 4002,
      "Ð·Ð°Ð±ÑĢÐ°ÑģÑĭÐ²Ð°": 4003,
      "Ð·Ð°Ð³Ð¸Ð±Ð°": 4004,
      "Ð²Ð°Ð»Ð°": 4005,
      "Ð²Ð°ÑģÐ¸": 4006,
      "Ð²ÑĭÑĪÐ¸Ð²Ð°": 4007,
      "Ð²ÑĭÑīÑĥ": 4008,
      "Ð²ÑĭÐ´ÐµÐ»Ñı": 4009,
      "Ð²ÑĭÑĩÐµÑģÑĭÐ²Ð°": 4010,
      "Ð²ÑĭÑĩÑĳÑģÑĭÐ²Ð°": 4011,
      "Ð³Ð¾Ð¼Ðµ": 4012,
      "ÑĢÐ°Ð½Ð¸Ð²Ð°": 4013,
      "Ð´Ð¾Ð¼Ñĥ": 4014,
      "Ð´Ð¾ÑģÑĤÑĢÐ°Ð¸Ð²Ð°": 4015,
      "Ð²Ð¸Ð»": 4016,
      "Ð±Ð°Ð´ÑĢÐ¸Ð²Ð°": 4017,
      "Ð¿Ð¾Ð»Ñĥ": 4018,
      "ren": 4019,
      "Ð²Ð·ÑĢÐ¾": 4020,
      "Ð²Ð·Ð±Ð°Ð´ÑĢÐ¸Ð²Ð°": 4021,
      "Ð²ÐµÑĢÐµÑĤ": 4022,
      "Ð³ÑĢÐ°Ð´Ð¾": 4023,
      "Ð·Ð°ÑģÐ°ÑģÑĭÐ²Ð°": 4024,
      "ÑĩÐ½Ð¾ÑģÑĤÑĮÑİ": 4025,
      "Ð´ÐµÑĢÐ³Ð¸Ð²Ð°": 4026,
      "Ð´ÑĢÐ°Ð·": 4027,
      "Ð·Ð°Ð¼Ð°ÑĩÐ¸Ð²Ð°": 4028,
      "Ð¶ÐµÐ½Ñĭ": 4029,
      "They": 4030,
      "Ð·Ð°Ð¿Ð°ÐºÐ¾Ð²ÑĭÐ²Ð°": 4031,
      "Ð²ÑģÐºÐ¸Ð´ÑĭÐ²Ð°": 4032,
      "Ð²ÑģÐµÐ»Ñı": 4033,
      "Ð·Ð°Ð²ÐµÑĢÐ±Ð¾Ð²ÑĭÐ²Ð°": 4034,
      "Ð´ÑĢÐµÐ¹": 4035,
      "Ð°Ð¿Ð¿Ð°ÑĢÐ°": 4036,
      "Ð·Ð°Ð¿ÑĢÐ¾ÐºÐ¸Ð´ÑĭÐ²Ð°": 4037,
      "Ð·Ð°ÑĥÑĩÐ¸Ð²Ð°": 4038,
      "Ð´Ð¾Ð²ÐµÑĢÐ¸": 4039,
      "Ð·Ð°ÐºÑĢÑĥÑĩÐ¸Ð²Ð°": 4040,
      "Ð±ÐµÐ·ÑĥÐ¼": 4041,
      "Ð·Ð°Ð²ÐµÑĪÐ¸Ð²Ð°": 4042,
      "ĠHenry": 4043,
      "Ð·Ð°Ð¿ÑĢÑıÑĤÑĭÐ²Ð°": 4044,
      "Ð²Ð´Ð°Ð²Ð»Ð¸Ð²Ð°": 4045,
      "Ð²ÑĤÐ¸ÑģÐºÐ¸Ð²Ð°": 4046,
      "Ð²ÑĭÐ´ÐµÑĢÐ¶Ð¸Ð²Ð°": 4047,
      "Ð²ÑĭÑģÐ¸Ð¶Ð¸Ð²Ð°": 4048,
      "Ð´Ð¾Ð¶Ð¸Ð³Ð°": 4049,
      "Ð´ÑĢÑĭÐ³Ð°": 4050,
      "Ð·Ð°ÑħÐ»Ð¾Ð¿ÑĭÐ²Ð°": 4051,
      "Ð´Ð¾ÑģÑĥÑĪÐ¸Ð²Ð°": 4052,
      "Ð¾ÑĩÐ¸ÑģÑĤÐ¸": 4053,
      "Ð²Ð¾Ð·Ð²ÐµÐ»Ð¸ÑĩÐ¸Ð²Ð°": 4054,
      "HAM": 4055,
      "Ð²ÑĭÑģÐ¼ÐµÐ¸Ð²Ð°": 4056,
      "Ð²Ð·Ð»Ð¾ÑħÐ¼Ð°ÑĩÐ¸Ð²Ð°": 4057,
      "Ð·Ð°Ð´ÑĢÐ°Ð¿Ð¸ÑĢÐ¾Ð²ÑĭÐ²Ð°": 4058,
      "IAN": 4059,
      "LET": 4060,
      "PU": 4061,
      "eed": 4062,
      "Ð»Ð»Ð¾": 4063,
      "Ð´Ð½ÑĭÐ¹": 4064,
      "Ð´Ð½Ð¾Ð¼": 4065,
      "Ð´Ð½Ð¾Ñİ": 4066,
      "Ð·Ð°Ð´ÑĳÑĢÐ³Ð¸Ð²Ð°": 4067,
      "Ð²ÑĭÐ¼ÐµÑĤÐ°": 4068,
      "Ð²ÑĭÐ´Ð²Ð¾ÑĢÑı": 4069,
      "ÑģÑĤÐµÐ¹": 4070,
      "Ð´Ð¾Ñİ": 4071,
      "Ð´Ð¾ÑħÐ¾": 4072,
      "Ð´Ð¾ÑģÐµ": 4073,
      "ÑĳÐº": 4074,
      "Ð±Ð¾Ð»Ðµ": 4075,
      "Ð¿Ð¾Ð»Ð¾": 4076,
      "Ð²ÐµÐ´Ñĥ": 4077,
      "Ġbri": 4078,
      "Ġchan": 4079,
      "Ġlaw": 4080,
      "ÑīÐ¸Ð¹ÑģÑı": 4081,
      "Ð·Ð°ÑĤÐ²Ð¾ÑĢÑı": 4082,
      "ÑĪÐ°Ñħ": 4083,
      "Ð·Ð°ÐºÐ¾Ð»ÑĮ": 4084,
      "Ð·Ð°ÐºÐ¾Ð²ÑĭÐ²Ð°": 4085,
      "Ð±Ð»Ð°Ð³Ð¾Ð´Ð°ÑĢ": 4086,
      "Ð³ÑĢÐ¾Ð·": 4087,
      "Ð²ÑĭÐºÑĢÐ¾": 4088,
      "Ð°Ð»Ð»Ðµ": 4089,
      "Ð·Ð°Ð¼Ð°ÑĤÑĭÐ²Ð°": 4090,
      "Ð½ÑĮÐµÑĢ": 4091,
      "Ð´Ð²Ð¸Ð¶": 4092,
      "Ð²Ð½ÐµÐ´ÑĢÑı": 4093,
      "Ð·Ð°Ð´ÑĥÐ¼ÑĭÐ²Ð°": 4094,
      "ĠRichard": 4095,
      "Ġshow": 4096,
      "Ð·Ð°ÑĩÐ¸ÑģÐ»Ñı": 4097,
      "Ð·Ð°ÑīÐ¸ÑīÐ°": 4098,
      "Ġconf": 4099,
      "Ð´Ð¾Ð²ÐµÑĢÑı": 4100,
      "Ð·Ð°ÐºÑĢÑĥÐ³Ð»Ñı": 4101,
      "Ð²ÑĭÑĢÑĥÐ±Ð°": 4102,
      "Ð·Ð°Ð´ÐµÑĢÐ³Ð¸Ð²Ð°": 4103,
      "Ð½ÐµÐ¹ÑĪÐ¸Ð¹": 4104,
      "Ð´Ð¸ÑĦÑĢÐ°": 4105,
      "Ġhands": 4106,
      "Ð²ÑĭÑģÑĤÐ°Ð²Ð»Ñı": 4107,
      "Ð²Ð¾Ð·Ð²ÑĢÐ°ÑīÐ°": 4108,
      "Ð·Ð°ÑĤÑĢÑĥÐ´Ð½Ñı": 4109,
      "Ð³Ð¾ÑģÑĥÐ´Ð°ÑĢ": 4110,
      "Ð²ÑĭÐ³ÑĢÐµÐ±Ð°": 4111,
      "Ð·Ð°Ð¼ÐµÐ´Ð»Ñı": 4112,
      "PULET": 4113,
      "EY": 4114,
      "be": 4115,
      "Ð²ÑĢÑĭÐ²Ð°": 4116,
      "Ð½ÑĤÐ¸ÑĢÐ¾Ð²Ð°": 4117,
      "ÑĤÐ¸Ð²Ð°": 4118,
      "Ð´Ð½ÑĭÑħ": 4119,
      "Ð´Ð½Ð¾Ð³Ð¾": 4120,
      "Ð´Ð½Ð¾Ð¼Ñĥ": 4121,
      "Ð·Ð°Ð½Ñı": 4122,
      "Ð²ÑĭÑĤÐµÑĢ": 4123,
      "ÑĩÐµÐ¼": 4124,
      "Ð²Ð¾Ð²": 4125,
      "Ð»Ð°ÑģÐºÐ¸Ð²Ð°": 4126,
      "Ð´Ð¸ÑĤ": 4127,
      "Ð´Ð¸ÑĤÐµ": 4128,
      "ÑĤÐµÑĢÐ¾": 4129,
      "Ġmaster": 4130,
      "Ġwhy": 4131,
      "Ð°Ð½Ð½Ðµ": 4132,
      "Ð²Ð·Ð¾": 4133,
      "Ð²Ð·Ð´ÑĭÑħÐ°": 4134,
      "Ð·Ð°Ð¿Ð»ÐµÑĤÐ°": 4135,
      "Ð±ÑĥÑĢÐ¸": 4136,
      "Ð½ÐµÐ¿ÑĢÐ¾Ð½Ð¸ÑĨÐ°": 4137,
      "Ð´ÑĥÐ±Ð¸": 4138,
      "Ġco": 4139,
      "Ġcause": 4140,
      "Ð±ÐµÑģÐ¸": 4141,
      "Ġgl": 4142,
      "Ð·Ð°ÐºÐ»Ð°": 4143,
      "ÑĨÐ¸Ð¾Ð½Ð½Ð¾Ð³Ð¾": 4144,
      "ÑĨÐ¸Ð¾Ð½Ð½Ð¾Ð¹": 4145,
      "ÑĨÐ¸Ð¾Ð½Ð½Ð¾Ñİ": 4146,
      "ÑĨÐ¸Ð¾Ð½Ð½Ð¾Ð¼": 4147,
      "ÑĨÐ¸Ð¾Ð½Ð½Ð¾Ðµ": 4148,
      "ÑĨÐ¸Ð¾Ð½Ð½Ð¾Ð¼Ñĥ": 4149,
      "Ð°Ð»Ð»Ð¾": 4150,
      "Ð·ÐµÐ²Ð°": 4151,
      "Ð²Ð¾ÑĢÐ¾ÑĩÐ°": 4152,
      "Ġonce": 4153,
      "ÐĵÐ¾": 4154,
      "ÑĤÑĢÐ°ÐºÑĤÐ¾": 4155,
      "Ð·Ð°ÐºÑĥÐ¿Ð°": 4156,
      "Ð´Ð¾Ð¿Ð¸Ð²Ð°": 4157,
      "Ð·Ð°ÑĨÐ¸Ð¸": 4158,
      "Ð·Ð°ÑĨÐ¸Ñİ": 4159,
      "Ð·Ð°ÑĨÐ¸ÐµÐ¹": 4160,
      "Ð·Ð°ÑĨÐ¸ÐµÑİ": 4161,
      "Ð·Ð°Ð¿ÑĢÐ°Ð²Ð¸": 4162,
      "Ð·Ð°Ð±Ð°Ð²Ð»Ñı": 4163,
      "Ð·Ð°Ð½Ð°Ð²ÐµÑĪÐ¸Ð²Ð°": 4164,
      "Ð·Ð°ÑĢÑĥÐ±": 4165,
      "Ð·Ð°ÑģÑĤÐ°Ð²Ð»Ñı": 4166,
      "Ġsaid": 4167,
      "Ð·Ð°ÑħÐ²Ð°ÑĤÑĭÐ²Ð°": 4168,
      "Ð·Ð°ÑģÐ»ÑĥÑĪÐ¸Ð²Ð°": 4169,
      "Ð²ÑĭÐ¿Ð¾Ð»Ð¾": 4170,
      "Ð²Ð¾ÑģÐ¿ÑĢÐ¾Ð¸Ð·Ð²Ð¾Ð´Ð¸": 4171,
      "Ð´Ð¾ÑĥÑĩÐ¸Ð²Ð°": 4172,
      "Ġimp": 4173,
      "Ð²ÑĭÑħÐ°ÑĢÐºÐ¸Ð²Ð°": 4174,
      "Good": 4175,
      "MIO": 4176,
      "Shall": 4177,
      "Ð°Ð¼Ð¾ÑĢ": 4178,
      "Ð¾Ð·": 4179,
      "Ð²ÐºÐ¸": 4180,
      "Ð²Ð¿Ð¾Ð»": 4181,
      "Ð²Ð¼ÐµÐ½Ñı": 4182,
      "Ð¼ÐµÐ½Ð¸": 4183,
      "Ð´Ð½ÑĭÐ¼": 4184,
      "Ð´Ð½ÑĭÐ¼Ð¸": 4185,
      "Ð´Ð½Ð°Ñı": 4186,
      "Ð´Ð½ÑĭÐµ": 4187,
      "Ð´Ð½Ð¾Ðµ": 4188,
      "Ð¿ÑģÐ¸": 4189,
      "Ð²ÑĭÐ¼ÐµÐ½": 4190,
      "Ð´Ð¾Ð´ÑĥÐ¼ÑĭÐ²Ð°": 4191,
      "ÑĪÐ¾": 4192,
      "ÑĪÐºÐ¾Ñİ": 4193,
      "ÐºÐ°ÑĤÑĮ": 4194,
      "Ð½Ð¸ÑĤÑĮ": 4195,
      "Ð±Ð°ÑĤÐ°": 4196,
      "ÐºÐ¸ÑģÐ»Ð¾": 4197,
      "Ð±Ð¾Ð´ÑĢÐ¸": 4198,
      "Ġbod": 4199,
      "Ð²Ð¾Ð·Ð´ÐµÐ»ÑĭÐ²Ð°": 4200,
      "Ġnone": 4201,
      "ÑģÑĤÐ¸ÐºÑĥ": 4202,
      "Ð·Ð°ÑģÑĭÐ»Ð°": 4203,
      "Ð²ÑĭÑģÐ°ÑģÑĭÐ²Ð°": 4204,
      "Ð·Ð°ÑĤÐ²Ð¾ÑĢ": 4205,
      "Ð·Ð°ÐºÐ»ÑİÑĩÐ°": 4206,
      "Ð·Ð°ÐºÐ»Ð°Ð´ÑĭÐ²Ð°": 4207,
      "Ð°ÐºÑĢÐ¸": 4208,
      "Ð±ÑĢÐ¾Ð¼": 4209,
      "Ð·Ð°Ð¿Ð¾Ð»Ð¾": 4210,
      "Ð±ÑĭÑĤÐ¾": 4211,
      "Ð·Ð°Ð¿ÑĥÑģÐºÐ°": 4212,
      "Ð°Ð¿Ð¿ÑĢÐ¾": 4213,
      "Ð·Ð°ÑĢÐ°Ð¶Ð°": 4214,
      "Ð·Ð°Ð±Ð¾Ð»Ð°ÑĩÐ¸Ð²Ð°": 4215,
      "ousin": 4216,
      "Ð´Ð¾Ð±ÑĢÐ¸Ð²Ð°": 4217,
      "Ð²ÑģÐºÑĢÑĭÐ²Ð°": 4218,
      "Ð·Ð°Ð¶Ð¸Ð¼Ð°": 4219,
      "Ð³Ð°Ð»Ð»Ñİ": 4220,
      "Ð»ÐµÐ½Ð¸Ñİ": 4221,
      "Ð»ÐµÐ½Ð¸ÐµÐ¼": 4222,
      "Ð²ÑģÐ¿Ð¾Ð¼Ð¸Ð½Ð°": 4223,
      "Ð²ÑĭÐ´Ð°Ð²Ð»Ð¸Ð²Ð°": 4224,
      "Ð·Ð°ÐºÑĢÐµÐ¿Ð»Ñı": 4225,
      "Ġjoy": 4226,
      "Ð·Ð°Ð¿ÑĢÑıÐ³Ð°": 4227,
      "Ð³Ð¾Ð¼Ð¾Ð³ÐµÐ½Ð¸": 4228,
      "Ð²Ð´Ð¾ÑħÐ½Ð¾Ð²Ð»Ñı": 4229,
      "Ð´ÐµÐ·Ð¸Ð½ÑĦÐ¾ÑĢ": 4230,
      "Ð²Ð¾ÑģÐ¿Ð¸ÑĤÑĭÐ²Ð°": 4231,
      "Ð·Ð°ÑĨÐµÐ¿Ð»Ñı": 4232,
      "ervant": 4233,
      "Ð·Ð°Ð³ÑĢÑıÐ·Ð½Ñı": 4234,
      "Ð²Ð¿ÑĢÑıÐ³Ð°": 4235,
      "Ð²Ð¾Ð¾Ð´ÑĥÑĪÐµÐ²Ð»Ñı": 4236,
      "Ð²Ð¾ÑģÑģÐ¾ÐµÐ´Ð¸Ð½Ñı": 4237,
      "Ð²Ð¾Ð·ÑĢÐ¾Ð¶Ð´Ð°": 4238,
      "Ð²ÑĭÑģÐ²Ð¾Ð±Ð¾Ð¶Ð´Ð°": 4239,
      "Ð´Ð¾ÐºÐ»Ð°Ð´ÑĭÐ²Ð°": 4240,
      "ÑĥÑģÑĤÐ¾Ð¹ÑĩÐ¸": 4241,
      "All": 4242,
      "bt": 4243,
      "Ð½ÐºÐ¸": 4244,
      "ÑģÐ»Ñĥ": 4245,
      "Ð·Ð°Ð²Ð¾Ð´Ð¸": 4246,
      "Ð·Ð°Ð²Ð¸Ð½ÑĩÐ¸Ð²Ð°": 4247,
      "Ð·Ð°Ð·ÐµÐ¼Ð»Ñı": 4248,
      "Ð²ÑĭÐ»Ð¸Ð²Ð°": 4249,
      "Ð²ÑĭÐ²Ð¸Ð½ÑĩÐ¸Ð²Ð°": 4250,
      "Ð²ÑĭÐ½Ð°ÑĪÐ¸Ð²Ð°": 4251,
      "Ð´Ð¾Ð»Ð¸Ð²Ð°": 4252,
      "ÑĤÐ°Ð²Ð»Ð¸Ð²Ð°": 4253,
      "Ð°Ð½ÐµÑģÑĤÐµ": 4254,
      "Ð²Ð·Ð±Ð°Ð»ÑĤÑĭÐ²Ð°": 4255,
      "Ð°ÑĢÐ¼Ð°": 4256,
      "Ð²ÑĭÐ¿Ð»Ð°ÑĩÐ¸Ð²Ð°": 4257,
      "Ð²ÑĭÐ¿Ð»ÑĳÑģÐºÐ¸Ð²Ð°": 4258,
      "Ð¶ÐµÑģÑĤÐ¾": 4259,
      "ÑĩÐµÐ½Ð¾": 4260,
      "Ð³Ð»Ð°Ð¶Ð¸Ð²Ð°": 4261,
      "Ġfort": 4262,
      "Ð²Ð¿Ð»ÐµÑĤÐ°": 4263,
      "Ð²Ð¿ÑĢÑĭÑģÐºÐ¸Ð²Ð°": 4264,
      "Ð²ÑĭÐºÐ»Ñı": 4265,
      "Ð·Ð°ÐºÐ°ÑĩÐ¸Ð²Ð°": 4266,
      "Ð·Ð°ÑģÑĤÑĢÐ°Ð¸Ð²Ð°": 4267,
      "Ð°Ð¼Ð¼Ð¾": 4268,
      "Ð·Ð°Ð³Ð¾ÑĤÐ°Ð²Ð»Ð¸Ð²Ð°": 4269,
      "Ð²ÑĭÑĤÑĢÐ°": 4270,
      "Ð²ÑģÑĤÑĢÐ°Ð¸Ð²Ð°": 4271,
      "ÑģÑĥÐ»ÑĮ": 4272,
      "ÑĩÐµÐ½Ð°": 4273,
      "Ð´Ð¸ÑģÑĨÐ¸": 4274,
      "Ð²ÑĭÐºÐ°Ð»ÑĭÐ²Ð°": 4275,
      "Ð·Ð°ÑĤÐ°ÑĩÐ¸Ð²Ð°": 4276,
      "Ð·Ð°ÑĤÐ°Ð»ÐºÐ¸Ð²Ð°": 4277,
      "Ð·Ð°ÑĤÐ°Ð¿ÑĤÑĭÐ²Ð°": 4278,
      "Ð°Ð±ÑģÐ¾ÑĢÐ±Ð¸": 4279,
      "Ð²ÑĭÐ¼Ð°ÑĩÐ¸Ð²Ð°": 4280,
      "ÐĶÐ°": 4281,
      "Ð²ÑĭÑĢÐ°Ð¶Ð°": 4282,
      "Ð²ÑĭÑĢÐ°ÑīÐ¸Ð²Ð°": 4283,
      "Ð·Ð°ÑĤÑĥÐ¼Ð°Ð½Ð¸Ð²Ð°": 4284,
      "Ð·Ð°ÑģÐµÐ¸Ð²Ð°": 4285,
      "Ð²ÑĭÐ¼Ð¾ÑĢÐ°Ð¶Ð¸Ð²Ð°": 4286,
      "Ð²ÑĭÐ¿Ð°Ð¸Ð²Ð°": 4287,
      "Ð²ÑĭÐ¿Ð°ÑĢÐ¸Ð²Ð°": 4288,
      "Ð´Ð¾ÑĢÐ°Ð±Ð°ÑĤÑĭÐ²Ð°": 4289,
      "Ð²Ð¿Ð¸ÑĤÑĭÐ²Ð°": 4290,
      "Ð·Ð°Ð²Ð°ÑĢÐ¸Ð²Ð°": 4291,
      "Ð»ÐµÐ½Ð¸Ð¸": 4292,
      "Ġbring": 4293,
      "Ð·Ð°ÑĤÑĢÐ°Ð³Ð¸Ð²Ð°": 4294,
      "Ð·Ð°Ð²ÑıÐ·ÑĭÐ²Ð°": 4295,
      "Ð·Ð°ÐºÐ»ÐµÐ¸Ð²Ð°": 4296,
      "Ð·Ð°ÑģÐ°Ð»Ð¸Ð²Ð°": 4297,
      "Ð·Ð°ÑīÐµÐ»ÐºÐ¸Ð²Ð°": 4298,
      "Ð·Ð°Ð¿Ð¾Ð»Ð½Ñı": 4299,
      "Ð·Ð°Ð³Ð»Ð°Ð¶Ð¸Ð²Ð°": 4300,
      "Ð·Ð°Ð¶Ð°ÑĢÐ¸Ð²Ð°": 4301,
      "Ð·Ð°Ð¿ÑĢÑĥÐ¶Ð¸Ð²Ð°": 4302,
      "Ð·Ð°ÑīÑĳÐ»ÐºÐ¸Ð²Ð°": 4303,
      "Ð·Ð°Ð·ÑĥÐ±ÑĢÐ¸Ð²Ð°": 4304,
      "Ð²ÑĭÐ¿Ð»ÐµÑģÐºÐ¸Ð²Ð°": 4305,
      "Ð·Ð°ÐºÐ²Ð°ÑĪÐ¸Ð²Ð°": 4306,
      "Ð²ÐºÐ»ÐµÐ¸Ð²Ð°": 4307,
      "Ð²ÑĭÐ²ÐµÑĤÑĢÐ¸Ð²Ð°": 4308,
      "Ð·Ð°ÑĤÑĥÑĪÐµÐ²ÑĭÐ²Ð°": 4309,
      "Ð²ÑĭÑĢÐ¸ÑģÐ¾Ð²ÑĭÐ²Ð°": 4310,
      "Ð²Ð·Ð¸Ð¼Ð°": 4311,
      "Ð·Ð°ÑĤÑĥÑĪÑĳÐ²ÑĭÐ²Ð°": 4312,
      "Ð°Ð½Ð½ÐµÐºÑģÐ¸": 4313,
      "Ð°Ð¿Ð¿ÑĢÐ¾ÐºÑģÐ¸": 4314,
      "Yet": 4315,
      "ÑģÐ¼Ð¸": 4316,
      "ÑģÐ½ÑĭÐ¹": 4317,
      "Ð±ÐµÑĤ": 4318,
      "Ð·Ð°Ð¼ÐµÑĤÐ°": 4319,
      "Ð²Ð°Ð»Ð¾": 4320,
      "ÑħÐ²Ð¾": 4321,
      "ÑīÐµÐ¼ÑģÑı": 4322,
      "ÐµÐ½Ð°": 4323,
      "ÐµÐ½Ñĭ": 4324,
      "Ð´Ð¾Ð»ÑĮ": 4325,
      "ÐºÐ¾ÑģÑĤ": 4326,
      "Ð½Ð¸Ð¼Ð¸": 4327,
      "Ð½Ð¸Ð»Ð¾": 4328,
      "Ð»Ð¸ÑĤÐ°ÑĢÐ¸": 4329,
      "Ð½Ð°Ð²Ð»Ð¸Ð²Ð°": 4330,
      "Ð´Ð¸ÐºÐ¾": 4331,
      "Ð´Ð¸Ð»Ð°": 4332,
      "Ð²ÐµÑı": 4333,
      "Ð²Ð·Ð½Ñĥ": 4334,
      "Ð¶Ð¸Ð²Ð¾ÑĤ": 4335,
      "Ġdou": 4336,
      "Ð²ÑĭÑģÑĭÐ»Ð°": 4337,
      "ates": 4338,
      "Ġevery": 4339,
      "Ð°Ð»ÐºÐ¾Ð³Ð¾": 4340,
      "Ð·Ð°ÑĪÐ¿Ð¸": 4341,
      "ÑĤÑĢÐ°Ð½ÑģÐ¿Ð¾ÑĢ": 4342,
      "Ð´ÑĢÐµÐ²": 4343,
      "UCKING": 4344,
      "ÐµÑĢÐµÐ¿ÐµÐ½Ð¸": 4345,
      "Ð°ÑĢÐ¸ÑģÑĤÐ¾": 4346,
      "Ð²Ð¿ÑĥÑģÐºÐ°": 4347,
      "Ð²Ð»Ð¸Ñı": 4348,
      "Ð²Ð¾ÑģÑģÑĤÐ°Ð½Ð°Ð²Ð»Ð¸Ð²Ð°": 4349,
      "Ð²Ð¾Ð·Ð¼ÑĥÑīÐ°": 4350,
      "Ð·Ð°Ð±Ð¸Ð½ÑĤÐ¾Ð²ÑĭÐ²Ð°": 4351,
      "Ð²Ð¾Ð¿Ð»Ð¾ÑīÐ°": 4352,
      "Ð´Ð¾Ð²Ð¾Ð»Ð°ÐºÐ¸Ð²Ð°": 4353,
      "Ð·Ð°ÑħÐ»Ð°Ð¼Ð»Ñı": 4354,
      "Ð²Ð·ÑĬÐµÑĢÐ¾ÑĪÐ¸Ð²Ð°": 4355,
      "Ð·Ð°ÑĤÑĭÐºÐ°": 4356,
      "BRUT": 4357,
      "Ð·Ð°ÐºÐ¾Ð½Ð¾Ð¿Ð°ÑĩÐ¸Ð²Ð°": 4358,
      "Ð²ÑĭÐ¼ÐµÐ½Ð¸Ð²Ð°": 4359,
      "Ð³Ð°Ð»Ð»ÑİÑĨÐ¸": 4360,
      "Ð´Ð¸ÑģÑĨÐ¸Ð¿Ð»Ð¸": 4361,
      "UCKINGHAM": 4362,
      "BRUTUS": 4363,
      "BRO": 4364,
      "BUCKINGHAM": 4365,
      "From": 4366,
      "TRAN": 4367,
      "iet": 4368,
      "Ð°Ð¼Ðµ": 4369,
      "Ð²Ð¼Ð¸Ð½Ð°": 4370,
      "Ð²Ð½Ð¸Ð¼Ð°": 4371,
      "ÑĤÐ½Ñĥ": 4372,
      "Ð»ÑĩÐ¸Ð²Ð°": 4373,
      "Ð¿ÑıÑĤ": 4374,
      "Ð²ÑĭÐ¿Ð¾Ð»Ð½Ñı": 4375,
      "Ð½Ð¾ÑģÑı": 4376,
      "Ð²Ð¾Ñı": 4377,
      "Ð²Ð¾ÐµÐ½Ð¸": 4378,
      "Ð²Ð¾Ð²Ð»ÐµÐºÐ°": 4379,
      "ÑĢÐ°Ð»ÑĮ": 4380,
      "Ð´Ð¾ÑģÐº": 4381,
      "ÑĢÐ¸Ñı": 4382,
      "Ð´Ð¸Ð²Ð¸": 4383,
      "Ð´ÐµÐ´Ñĥ": 4384,
      "Ġmist": 4385,
      "Ð´Ð°ÑĢÐ¾": 4386,
      "Ð´Ð°ÑĤÐµÐ»ÑĮ": 4387,
      "Ð³Ð¸ÑĢÑĥ": 4388,
      "Ð²ÐµÐ´ÐµÑĢ": 4389,
      "Ð°Ð½ÑĤÐ°": 4390,
      "Ð²ÑģÑħÑĢÐ°": 4391,
      "Ð²ÐµÑĢÐµ": 4392,
      "Ð³ÑĢÐ°Ð²Ð¸ÑĢÐ¾Ð²Ð°": 4393,
      "Ġpass": 4394,
      "Ð·Ð°ÑģÐ»Ð°": 4395,
      "Ð²ÑĭÐ¿ÑĢÑĭÑģÐºÐ¸Ð²Ð°": 4396,
      "Ð²ÑĤÐ¾ÑĢ": 4397,
      "ird": 4398,
      "Ð·Ð°Ð¼Ð°Ð»ÑĩÐ¸Ð²Ð°": 4399,
      "Ġlight": 4400,
      "Ð²Ð»Ð°Ð´Ð¸": 4401,
      "Ð²Ð½ÑĥÑĪÐ°": 4402,
      "Ð·Ð°ÑĤÐ¾Ð¿Ð»Ñı": 4403,
      "Ð·Ð°Ð¼ÑĭÐ²Ð°": 4404,
      "Ð²ÑģÐµÐ¿Ð¾": 4405,
      "ÐºÐ¾Ð²Ð°Ñı": 4406,
      "INGBRO": 4407,
      "Ð·Ð°Ð»ÐµÑĩÐ¸Ð²Ð°": 4408,
      "Ð²ÑģÐ¿Ð»ÐµÑģ": 4409,
      "ESS": 4410,
      "Ð´ÐµÑĤÐ°Ð»Ð¸": 4411,
      "Ð²ÑĭÐ¿Ð¸ÑģÑĭÐ²Ð°": 4412,
      "Ð·Ð°ÑĤÑĢÐ°Ð²Ð»Ð¸Ð²Ð°": 4413,
      "ĠBOL": 4414,
      "Ð·Ð°Ð³ÑĢÑĥÐ¶Ð°": 4415,
      "Ð·Ð°ÑģÑĤÐ¾Ð¿Ð¾ÑĢÐ¸Ð²Ð°": 4416,
      "Ð²ÑĭÑģÑĤÑĥÐ¶Ð¸Ð²Ð°": 4417,
      "Ð²ÑĭÑģÐ°Ð»Ð¸Ð²Ð°": 4418,
      "Ð·Ð°ÐºÐ»Ð¸Ð½Ð¸Ð²Ð°": 4419,
      "Ð²Ð·ÑĢÐ°ÑīÐ¸Ð²Ð°": 4420,
      "Ð²ÑĭÐ³ÑĢÑĥÐ¶Ð°": 4421,
      "Ð·Ð°ÐºÐ°Ð±Ð°Ð»Ñı": 4422,
      "Ð±ÐµÑģÐ¿Ð¾ÐºÐ¾Ð¸": 4423,
      "Ð²ÑģÐ¿ÐµÐ½Ð¸Ð²Ð°": 4424,
      "TRANIO": 4425,
      "INGBROKE": 4426,
      "ĠBOLINGBROKE": 4427,
      "Do": 4428,
      "Will": 4429,
      "lt": 4430,
      "vost": 4431,
      "Ð°Ð¿ÑĢÐ¾": 4432,
      "Ð½ÐºÐ°": 4433,
      "Ð²ÑĭÐ²Ñı": 4434,
      "Ð²Ð¾ÑĨÐ°": 4435,
      "Ð¶Ð½ÑĭÐ¹": 4436,
      "Ð»Ð¸Ð²": 4437,
      "ÑĤÐ¾Ñĩ": 4438,
      "ÑĢÑĥÑĤÐ¸": 4439,
      "Ġwo": 4440,
      "Ð²ÑģÑħÐ»Ð¸": 4441,
      "Ð²Ð¾Ð·Ð´ÑĥÑĪ": 4442,
      "Ġnat": 4443,
      "Ġthr": 4444,
      "Ð·Ð°ÑģÑĭÐ¿Ð°": 4445,
      "Ð·Ð°ÑģÐ²ÐµÑĩÐ¸Ð²Ð°": 4446,
      "Ð±Ð»Ð°Ð³Ð¾Ð²Ðµ": 4447,
      "Ð´ÑĭÐ¼Ð¾": 4448,
      "Ð´ÑĭÑĪÐ°": 4449,
      "Ð²Ð¾Ð´Ð¾Ñģ": 4450,
      "Ð½ÐµÐ¹ÑĪÐµÐµ": 4451,
      "Ð½ÐµÐ¹ÑĪÐµÐ³Ð¾": 4452,
      "Ð·Ð°Ð³Ð¾Ð½Ñı": 4453,
      "Ð±Ð¸Ð¾ÑĤÐ¸": 4454,
      "Ð±ÑĢÐ¸Ð³Ð°": 4455,
      "Ð°Ð½Ð°ÑĢ": 4456,
      "ÐĵÑĥ": 4457,
      "ÑģÑĤÑĥÐ¿": 4458,
      "Ð·Ð°ÑģÐµÐ²Ð°": 4459,
      "Ð·Ð°ÑģÐµÐ»Ñı": 4460,
      "ÑĨÐµÐ½ÑĤÑĢÐ°": 4461,
      "Ð½ÐµÐ¹ÑĪÐ¸Ð¼": 4462,
      "ÑīÐ°ÑıÑģÑı": 4463,
      "Ð²ÑĭÑħÐ¾Ð»Ð¾": 4464,
      "Ð´Ð¾ÑģÑĤÐ°Ð²Ð»Ñı": 4465,
      "Ð²ÑĭÐ¿ÑĢÑıÐ¼Ð»Ñı": 4466,
      "Ð±Ð¾Ð»ÑĮÑĪÐµÐ²Ð¸": 4467,
      "Ð²Ð¾Ð·Ð¼ÑĥÑĤÐ¸": 4468,
      "Ð²ÑĭÑĤÐµÑģÐ½Ñı": 4469,
      "Ð·Ð°ÑĪÑĤÐ¾ÑĢÐ¸Ð²Ð°": 4470,
      "Ġroyal": 4471,
      "Ð·Ð°ÑĤÐµÐ¼Ð½Ñı": 4472,
      "Ð²ÑĭÑıÑģÐ½Ñı": 4473,
      "swer": 4474,
      "Ð·Ð°Ð¾ÑģÑĤÑĢÑı": 4475,
      "Ð²Ð¾ÑģÑģÐ»Ð°Ð²Ð»Ñı": 4476,
      "Ð·Ð°Ð±ÑĢÑĭÐ·Ð³Ð¸Ð²Ð°": 4477,
      "PER": 4478,
      "TIS": 4479,
      "cle": 4480,
      "Ð²Ð³Ð¾Ð½Ñı": 4481,
      "Ð¸Ð½Ð¾": 4482,
      "ÐºÑģÐµ": 4483,
      "Ð·Ð°Ð»": 4484,
      "Ð²ÑĭÑĤÐ¾ÑĢ": 4485,
      "ÑģÑĤÐºÐ°": 4486,
      "Ð½Ð¸ÑģÑĤÑĭ": 4487,
      "Ġtears": 4488,
      "Ð´ÐµÐ¿Ð¾ÑĢ": 4489,
      "Ð²Ð·Ð¼Ð°": 4490,
      "Ð²Ð·Ð´ÑĢÑİ": 4491,
      "Ð·Ð°Ð¿Ð»ÐµÑģ": 4492,
      "Ð·Ð¾Ð¹": 4493,
      "its": 4494,
      "Ġcame": 4495,
      "ary": 4496,
      "Ð¼ÐµÑĤÑĢ": 4497,
      "ÑīÐµÐ¹ÑģÑı": 4498,
      "ÑĦÐ¾Ñģ": 4499,
      "Ð²ÐµÑĤÐ¾": 4500,
      "ÑģÐµÐ¹": 4501,
      "Ð°Ð¼ÑĦÐ¸": 4502,
      "Ð·Ð°Ð³Ð¾Ð²Ð¾ÑĢ": 4503,
      "Ð¶ÐµÐ½Ð°": 4504,
      "ÑĩÐµÑĢÐµ": 4505,
      "Ð²Ð¾ÑĢÐ¾ÑĤÐ¸": 4506,
      "ÑģÑĤÐ²Ð¾Ð²Ð°ÑĤÑĮ": 4507,
      "Ð´Ð¾ÑģÑĭÐ»Ð°": 4508,
      "ĠMAR": 4509,
      "Ð°ÑĢÐ°Ð½": 4510,
      "Ð³Ð¸Ð¿ÐµÑĢÐ±Ð¾Ð»Ð¸": 4511,
      "Ð½ÐµÐ¹ÑĪÐ¸Ðµ": 4512,
      "Ð²Ð¼ÐµÑģÑĤÐ¸": 4513,
      "ÑīÐµÐ³Ð¾ÑģÑı": 4514,
      "ÑīÐµÐµÑģÑı": 4515,
      "ÑīÐµÐ¼ÑĥÑģÑı": 4516,
      "Ð´Ð¸ÑģÐºÐ²Ð°Ð»Ð¸": 4517,
      "Ð²ÑĭÐ¶Ð¸Ð³Ð°": 4518,
      "Ð²ÑĨÐµ": 4519,
      "Ġwhose": 4520,
      "Ð²Ð¾Ð·Ð³Ð»Ð°Ð²Ð»Ñı": 4521,
      "Ð²Ð¿ÐµÑĩÐ°ÑĤ": 4522,
      "Ð²Ð·Ð´ÑĭÐ¼Ð°": 4523,
      "Ð²Ð¾Ð·Ð¾Ð±Ð½Ð¾Ð²Ð»Ñı": 4524,
      "Ġplease": 4525,
      "Ð±Ð»Ð°Ð³Ð¾ÑĤÐ²Ð¾ÑĢÐ¸": 4526,
      "lf": 4527,
      "vy": 4528,
      "Ð²Ð³Ð¸Ð±Ð°": 4529,
      "ÑĥÑį": 4530,
      "Ð·Ð°Ð·": 4531,
      "Ð²ÑĭÐ²Ð¸": 4532,
      "ÑĢÐ°ÑĤ": 4533,
      "ÐµÑĢÑĥ": 4534,
      "Ð»ÐµÐ±Ð°": 4535,
      "Ð¼Ð¾Ñİ": 4536,
      "Ð²ÐµÐ´Ð°": 4537,
      "Ð²Ð·Ð²Ð¸Ð·": 4538,
      "Ð±ÑĥÑĢÑĥ": 4539,
      "ory": 4540,
      "Ð±ÐµÑģÐ¿": 4541,
      "Ġpardon": 4542,
      "Ð·Ð°ÑģÐ¼Ðµ": 4543,
      "Ð·Ð°ÑģÑĩÐ¸ÑĤÑĭÐ²Ð°": 4544,
      "Ð±ÐµÐ·Ð»Ð¸": 4545,
      "Ð±ÑĢÐ°Ð·Ð¸": 4546,
      "Ð·Ð°ÑĤÐ¼Ðµ": 4547,
      "Ð»ÑĳÐ¶Ð¸Ð²Ð°": 4548,
      "Ð·Ð°Ð³ÑĢÑĭ": 4549,
      "Ð¿ÐµÑĢÐ¾": 4550,
      "Ð³Ð¾ÑĢÐ»Ð°": 4551,
      "Ð²Ð¾Ð´Ð¾Ð¾ÑĤ": 4552,
      "Ð·Ð°ÐºÐ°Ð½ÑĩÐ¸Ð²Ð°": 4553,
      "Ð½ÐµÐ¹ÑĪÐ°Ñı": 4554,
      "Ð½ÐµÐ¹ÑĪÑĥÑİ": 4555,
      "Ð½ÐµÐ¹ÑĪÐµÐ¼": 4556,
      "Ð½ÑĮÑı": 4557,
      "roke": 4558,
      "Ð±ÑĥÑĢÐ³": 4559,
      "Ð·Ð°Ð²ÐµÑĢÑı": 4560,
      "Ð·Ð°Ð²ÐµÑĢÑĪÐ°": 4561,
      "Ð´Ð¾Ð²Ð°ÑĢÐ¸Ð²Ð°": 4562,
      "Ð²ÑĭÐ³Ð¾Ð½Ñı": 4563,
      "Ð²Ð²ÐµÑĢÐ³Ð°": 4564,
      "Ð²ÑĭÐºÑĥÐ¿Ð°": 4565,
      "Ð²ÑĭÑģÐµÐºÐ°": 4566,
      "Ð·Ð°ÑĤÑĢÐ°ÑĩÐ¸Ð²Ð°": 4567,
      "Ð½ÐµÐ¹ÑĪÐ¸Ñħ": 4568,
      "Ð·Ð°ÑĢÑĥÐ¼Ñı": 4569,
      "Ð·Ð°Ð¼ÑĭÑĪÐ»Ñı": 4570,
      "ÑīÐµÑİÑģÑı": 4571,
      "ÑīÑĥÑİÑģÑı": 4572,
      "Ð²ÑĭÑıÐ²Ð»Ñı": 4573,
      "ĠAn": 4574,
      "Ð²Ð¶Ð¸Ð²Ð»Ñı": 4575,
      "Ð·Ð°Ð³Ð»ÑĥÑĪÐ°": 4576,
      "Ð´Ð¾Ð±Ð°Ð²Ð»Ñı": 4577,
      "Ð²Ð¾Ð½Ð·Ð°": 4578,
      "Ð·Ð°Ð¿ÑĢÐµÑīÐ°": 4579,
      "Ð·Ð°ÑīÐµÐ¼Ð»Ñı": 4580,
      "Ð·Ð°ÐºÑĢÐµÐ¿Ð¾ÑīÐ°": 4581,
      "Ð·Ð°Ð³ÑĢÐ¾Ð¼Ð¾Ð¶Ð´Ð°": 4582,
      "Ð²ÑĭÑģÑĤÑĢÐµÐ»Ð¸Ð²Ð°": 4583,
      "Ð·Ð°ÑĤÐµÐ½Ñı": 4584,
      "Ð²ÑĤÑĭÐºÐ°": 4585,
      "ÑħÐ¾Ð·ÑıÐ¹": 4586,
      "Cl": 4587,
      "GAR": 4588,
      "NE": 4589,
      "pose": 4590,
      "Ð²Ð²ÑıÐ·ÑĭÐ²Ð°": 4591,
      "Ð³Ð½": 4592,
      "Ð·Ð°Ð½ÐµÑģ": 4593,
      "Ð·Ð°ÐµÐ·": 4594,
      "Ð²Ð¾ÐµÐ½Ð½Ð¾": 4595,
      "ÑĪÐ»Ð¸Ð²Ð°": 4596,
      "Ð»Ð¸ÑĤÑĮ": 4597,
      "Ð»Ð°Ñı": 4598,
      "Ð´Ð¸ÐºÑĤÐ¾": 4599,
      "Ð±ÐµÐ»Ð¸Ð²Ð°": 4600,
      "Ġbes": 4601,
      "Ġboy": 4602,
      "Ġfull": 4603,
      "Ð²Ð¾Ð·Ð´Ð²Ð¸Ð³Ð°": 4604,
      "arry": 4605,
      "Ġheard": 4606,
      "Ġhapp": 4607,
      "Ð°Ð½ÑĤÐ¸Ð¼Ð¾": 4608,
      "Ð³ÑĢÐ¾Ð¼": 4609,
      "Ð²Ð°Ð½Ð¸Ð²Ð°": 4610,
      "Ð»ÑĭÐ¶": 4611,
      "Ð½ÐµÐ¹ÑĪÐµÐ¹": 4612,
      "Ð½ÐµÐ¹ÑĪÐµÐ¼Ñĥ": 4613,
      "Ð·Ð°Ð¸Ð³ÑĢÑĭÐ²Ð°": 4614,
      "Ġdev": 4615,
      "Ð·Ð°Ð¿Ð°ÑħÐ¸Ð²Ð°": 4616,
      "Ð´Ð¾ÑģÐ»Ðµ": 4617,
      "Ð·Ð»Ð¾Ð¿ÑĭÑħÐ°": 4618,
      "Ð·Ð°ÑĤÐ°Ð¸Ð²Ð°": 4619,
      "Ð³Ð»ÑıÐ´Ðµ": 4620,
      "Ð·Ð°Ð»ÐµÐ¿Ð»Ñı": 4621,
      "Ð²ÑĭÐ³Ð¾Ð²Ð°ÑĢÐ¸Ð²Ð°": 4622,
      "Ð³ÑĢÐ°Ð¼Ð¼": 4623,
      "Ð·Ð°Ð²Ð¾Ð»Ð°ÐºÐ¸Ð²Ð°": 4624,
      "Ð½ÑİÑħÐ¸Ð²Ð°": 4625,
      "Ð²ÑĢÑĥÑĩÐ°": 4626,
      "Ð½ÐµÐ¹ÑĪÐ¸Ð¼Ð¸": 4627,
      "Ġjust": 4628,
      "ÑĨÐµÐ¼ÐµÐ½": 4629,
      "Ð·Ð°ÑħÐ»ÐµÐ±ÑĭÐ²Ð°": 4630,
      "Ð²ÑģÑĤÐ°Ð²Ð»Ñı": 4631,
      "Ð²ÑĭÐ´ÑĥÐ²Ð°": 4632,
      "Ð·Ð°ÑģÐ°Ð¶Ð¸Ð²Ð°": 4633,
      "Ð´Ð¸ÐºÑĤÐ°": 4634,
      "Ġwrong": 4635,
      "Ġpresent": 4636,
      "Ð·Ð°ÑĪÐ½ÑĥÑĢÐ¾Ð²ÑĭÐ²Ð°": 4637,
      "Ð·Ð°Ð³Ð»ÑıÐ´ÑĭÐ²Ð°": 4638,
      "Ð²ÑĭÐ±ÑĢÑĭÐ·Ð³Ð¸Ð²Ð°": 4639,
      "ĠMARGAR": 4640,
      "ĠMARGARET": 4641,
      "ATH": 4642,
      "eel": 4643,
      "Ð¸Ð´Ð°": 4644,
      "Ð±Ñĳ": 4645,
      "Ð·Ð°ÑĪÐ°": 4646,
      "Ð·Ð°Ð²ÑĭÑĪÐ°": 4647,
      "Ð·Ð°Ð²Ð»ÐµÐºÐ°": 4648,
      "Ð¿ÑĢÑı": 4649,
      "Ð²ÑĭÐ½Ð¸Ð¼Ð°": 4650,
      "Ð»Ð¾Ð²Ðµ": 4651,
      "Ð´Ð¸Ð½Ð¾": 4652,
      "Ð´Ð¸ÑģÑĤÐ°Ð½": 4653,
      "Ð±Ð°Ð¿ÑĤÐ¸": 4654,
      "Ġsince": 4655,
      "Ġmis": 4656,
      "ÑĩÐ°ÑģÐ¾": 4657,
      "ens": 4658,
      "Ġland": 4659,
      "Ġlast": 4660,
      "Ð·Ð°ÑģÐ¼Ð¾": 4661,
      "Ġere": 4662,
      "Ð½ÐµÐ¹ÑĪÐµÑİ": 4663,
      "Ġstate": 4664,
      "ÑĳÐ½Ð½ÑĭÐ¹": 4665,
      "ÑĳÐ½Ð½ÑĭÐ¼": 4666,
      "ÑĳÐ½Ð½ÑĭÑħ": 4667,
      "ÑĳÐ½Ð½ÑĥÑİ": 4668,
      "ÑĳÐ½Ð½ÑĭÐ¼Ð¸": 4669,
      "ÑĳÐ½Ð½Ð°Ñı": 4670,
      "ÑĳÐ½Ð½ÑĭÐµ": 4671,
      "Ð½ÑĮÑİ": 4672,
      "Ð½ÐµÐ½Ð°Ð²Ð¸": 4673,
      "Ð·Ð°Ð¼ÐµÑīÐ°": 4674,
      "Ð²Ð¾Ð»Ð½Ñĥ": 4675,
      "Ð·Ð°ÑĤÑĥÐ¿Ð»Ñı": 4676,
      "Ð·Ð°ÑĢÐ¾Ð¶Ð´Ð°": 4677,
      "Ð²Ð¾ÑģÑĤÐ¾ÑĩÐ½Ð¾": 4678,
      "Ġplace": 4679,
      "Ð²ÐºÑĥÑģ": 4680,
      "Ð·Ð°ÑħÐ»ÐµÑģÑĤÑĭÐ²Ð°": 4681,
      "Ð°ÑĢÐµÑģÑĤÐ¾": 4682,
      "Ð²ÑĭÐ¿Ð»Ð°Ð²Ð»Ñı": 4683,
      "Ð²Ð¾Ð·Ð¼ÐµÑīÐ°": 4684,
      "Ð·Ð°ÑħÐ»ÑĳÑģÑĤÑĭÐ²Ð°": 4685,
      "Ð·Ð°ÑħÐ»ÑĳÐ±ÑĭÐ²Ð°": 4686,
      "Ð·Ð°Ð³Ð¾ÑĤÐ¾Ð²Ð»Ñı": 4687,
      "Ð²Ð¸Ð´Ð¾Ð¸Ð·Ð¼ÐµÐ½Ñı": 4688,
      "Ð²ÑĭÐ¼ÐµÑīÐ°": 4689,
      "Ð²ÑĭÐºÑĢÐ¸ÑģÑĤÐ°Ð»Ð»Ð¸Ð·Ð¾Ð²ÑĭÐ²Ð°": 4690,
      "Ð²Ð¾ÑģÐºÑĢÐµÑĪÐ°": 4691,
      "MIL": 4692,
      "bl": 4693,
      "sand": 4694,
      "ÐµÐ³Ð¸Ð¿": 4695,
      "Ð¸ÑĢÑĥ": 4696,
      "Ð½ÑģÐºÐ¸Ð¹": 4697,
      "ÑģÐ¿ÐµÐº": 4698,
      "ÑĤÐ¼Ð¸": 4699,
      "Ð·Ð°Ð±ÐµÐ³Ð°": 4700,
      "Ð·Ð°Ð±Ð°Ð»ÑĤÑĭÐ²Ð°": 4701,
      "Ð²ÑĭÐ±ÑĢÐ¸Ð²Ð°": 4702,
      "ÐºÐ¾Ð²ÑĭÐ¹": 4703,
      "Ð²Ð¸ÑĤÐµ": 4704,
      "ÑģÑĤÐ¸ÑĢÐ¾Ð²Ð°": 4705,
      "Ð°ÑĢÐ¸Ð²Ð°": 4706,
      "Ð²ÑĭÑģÐ²Ð¸": 4707,
      "Ð¶ÐµÑģÑĤÑı": 4708,
      "Ð»ÑİÐ½Ñĥ": 4709,
      "Ð±Ð»Ð°Ð¶ÐµÐ½": 4710,
      "Ġmeet": 4711,
      "Ð³Ð¾ÑĢÐ±Ð°": 4712,
      "Ġunder": 4713,
      "Ð·Ð°ÐºÐ°Ð»Ñı": 4714,
      "Ð²Ð¾Ð´ÑıÑīÐ¸": 4715,
      "Ð¶ÑĥÐ»ÑĮ": 4716,
      "Ð´ÐµÐ½Ð´ÑĢÐ¾": 4717,
      "Ġkill": 4718,
      "Ð·Ð°Ð³Ð¾ÑĢÐ°": 4719,
      "Ð´Ð¾Ð»Ð±Ð¸": 4720,
      "Ð³ÑĢÐ¸Ð¿": 4721,
      "ÑĪÐµÐ½ÑĮÐºÐ¸": 4722,
      "Ð²ÑĭÐ¼Ð°ÑĤÑĭÐ²Ð°": 4723,
      "Ð´Ð¾ÐºÐ°Ð·Ð°": 4724,
      "Ð¶ÐµÐ»Ð°ÑĤÐ¸": 4725,
      "Ð²Ð¾ÑģÑģÑĤÐ°Ð½Ð¾Ð²Ð¸": 4726,
      "Ð²ÑĭÐºÑĢÐ¸ÐºÐ¸Ð²Ð°": 4727,
      "Ð´Ð¾Ð»ÐµÑĩÐ¸Ð²Ð°": 4728,
      "Ð´Ð¾Ð³Ð¼Ð°ÑĤÐ¸": 4729,
      "Ð²ÐµÑĢÑĤÐ¾Ð»Ñĳ": 4730,
      "Ð·Ð°Ð½Ð¸Ð¶Ð°": 4731,
      "Ġafter": 4732,
      "ÑįÐ½ÐµÑĢÐ³ÐµÑĤÐ¸": 4733,
      "HOR": 4734,
      "cent": 4735,
      "Ð¸Ð·Ð¾": 4736,
      "ÑĤÐµÐ¼": 4737,
      "Ð·Ð°Ð²Ð»Ð°": 4738,
      "Ð·Ð°Ð·Ð½Ð°": 4739,
      "Ð²ÑĭÐ´ÑĭÑħÐ°": 4740,
      "ÑĮÐµÐ¼": 4741,
      "ÐµÐ¼Ñı": 4742,
      "ÑĪÐ½Ð¸ÑĩÐ°": 4743,
      "ÐºÐ°Ð»Ð°": 4744,
      "ÑĤÐ¾Ð½Ð¸": 4745,
      "Ð´ÐµÐ·Ð°Ðº": 4746,
      "Ġsorrow": 4747,
      "Ð¿Ð¾ÑĤÑĢÐµ": 4748,
      "Ð²Ð·Ð²Ð¸Ñħ": 4749,
      "Ð±ÑĥÐ±": 4750,
      "ition": 4751,
      "Ġcare": 4752,
      "Ð´ÑĢÐ¾ÑģÑģÐµ": 4753,
      "Ð³Ð»Ð°Ñģ": 4754,
      "Ð²ÑĭÑģÐ¾ÐºÐ¾Ð¾": 4755,
      "Ġthousand": 4756,
      "Ð·Ð°ÑĪÑĤÑĥÐºÐ°ÑĤÑĥ": 4757,
      "Ð²Ð»Ð°Ð´ÐµÐ»ÑĮ": 4758,
      "Ð±Ð»Ð¸Ð½": 4759,
      "Ð±Ð°Ð»Ð»Ð°": 4760,
      "esty": 4761,
      "Ð·Ð°Ð¼Ñı": 4762,
      "Ð°Ð¿Ð»Ð¾": 4763,
      "ANGE": 4764,
      "ORD": 4765,
      "ÑĢÐµÐ¼ÐµÐ½": 4766,
      "Ð²ÑĭÑģÐµÐ»Ñı": 4767,
      "Ð´Ð¸ÑĦÑĦÑĥ": 4768,
      "Ð³Ð½ÐµÐ·": 4769,
      "Ġhold": 4770,
      "Ð·Ð°ÑģÑĤÑĥÐ¿Ð°": 4771,
      "Ð·Ð°Ð³ÑĢÐ°Ð±Ð°": 4772,
      "Ð·Ð°ÑĢÐ¸ÑĦ": 4773,
      "Ð´Ð¾ÑģÑĤÐ¸Ð³Ð°": 4774,
      "Ð´ÐµÐ½Ð°ÑĤÑĥ": 4775,
      "Ð°Ð¼Ð°Ð»ÑĮÐ³Ð°": 4776,
      "Ð±Ð°ÑĢÑĢÐ¸ÐºÐ°Ð´Ð¸ÑĢÐ¾Ð²Ð°": 4777,
      "GRE": 4778,
      "Ð²Ð·Ð±ÑĢÑĭÐºÐ¸Ð²Ð°": 4779,
      "Ð°Ð¼Ð¾ÑĢÑĤÐ¸": 4780,
      "ANGELO": 4781,
      "CU": 4782,
      "Our": 4783,
      "Ð²ÑģÑĤÐ²Ð¾Ð²Ð°": 4784,
      "Ð¸Ñģ": 4785,
      "Ð½Ð´Ñĥ": 4786,
      "Ð»ÐºÐ¸": 4787,
      "Ð´ÐµÑģÑĤÐ°Ð±Ð¸Ð»Ð¸": 4788,
      "Ð³Ð°Ð·Ð¸": 4789,
      "Ð±Ð¾Ð¾Ð±ÑĢÐ°Ð·": 4790,
      "Ð¼ÑĥÑĦ": 4791,
      "Ð¼Ð°Ð¶Ð¸Ð²Ð°": 4792,
      "Ð±ÑĥÑĤÐ°": 4793,
      "Ð±ÑĢÐ°ÑĤ": 4794,
      "Ġhelp": 4795,
      "Ð°ÐºÑģÐµ": 4796,
      "Ð²ÑĭÐºÑĢÐ°ÑĪÐ¸Ð²Ð°": 4797,
      "Ð·Ð°Ð¿Ð¾Ð»Ñĥ": 4798,
      "Ð°Ð¼Ð½Ð¸ÑģÑĤÐ¸": 4799,
      "Ð·Ð°Ð¼Ð°ÑģÐ»Ð¸Ð²Ð°": 4800,
      "ARINA": 4801,
      "ÐµÐ½Ð¸ÑıÑħ": 4802,
      "arence": 4803,
      "Ð³Ð¾ÑģÐ¿Ð¾Ð´": 4804,
      "Ð²ÑĢÑĥÐ±Ð°": 4805,
      "Ð·Ð°ÑĤÐ¾ÑĢÐ¼Ð°Ð¶Ð¸Ð²Ð°": 4806,
      "Ð´Ð¾Ð³Ð¾Ð²Ð°ÑĢÐ¸Ð²Ð°": 4807,
      "Ð¶ÐµÐ¼Ð°Ð½": 4808,
      "Ð¶Ð¸Ð²Ð¾Ð¿Ð¸": 4809,
      "Ð²Ð¾ÑģÑħÐ¸ÑĤÐ¸": 4810,
      "Ð²Ð¾ÑģÑħÐ¸ÑīÐ°": 4811,
      "ÑĨÐ²ÐµÑĤÐ°": 4812,
      "Ð·Ð°Ð¿ÐµÑĩÐ°ÑĤÐ»ÐµÐ²Ð°": 4813,
      "Ð·Ð°Ð¶Ð¼ÑĥÑĢÐ¸Ð²Ð°": 4814,
      "Ð²ÑĭÑĢÐ°Ð²Ð½Ð¸Ð²Ð°": 4815,
      "Ġwhom": 4816,
      "Ð´Ð¸ÑģÑĤÐ¸Ð»Ð»Ð¸": 4817,
      "Ð±ÑĥÐ»ÑĤÑĭÑħÐ°": 4818,
      "Ġfollow": 4819,
      "ÑĦÑĢÐ°Ð³": 4820,
      "KATH": 4821,
      "day": 4822,
      "Ð·Ð°ÑĩÐµ": 4823,
      "Ð²ÑĭÐ±Ð¾ÑĢ": 4824,
      "Ð´Ð¾ÑĤ": 4825,
      "Ð´Ð¾ÐºÐ¸": 4826,
      "ÑĢÐ¸ÑģÑĤ": 4827,
      "Ð´Ð¸Ð²ÐµÑĢ": 4828,
      "Ð±Ð¾ÐºÑģÐ¸": 4829,
      "Ð¼Ð°ÑĪÐ¸": 4830,
      "Ð´Ð°Ð²Ð¸": 4831,
      "Ð±ÑĥÐ·Ð¾": 4832,
      "Ġfar": 4833,
      "ÑģÐ¸Ð²": 4834,
      "Ð²Ð¾Ð·Ð»Ð°Ð³Ð°": 4835,
      "Ġless": 4836,
      "Ġhither": 4837,
      "Ð·Ð°ÐºÑĢÑĭ": 4838,
      "ceive": 4839,
      "irt": 4840,
      "Ð°Ð½ÑĤÐ¸Ñģ": 4841,
      "Ð²Ð¿Ð»ÐµÑĤ": 4842,
      "Ġweep": 4843,
      "Ð´ÐµÐ½ÑĮ": 4844,
      "Ð°Ð¼Ð±Ð¸": 4845,
      "Ð°Ð»Ð»ÐµÑĢ": 4846,
      "Ð²Ð»Ð°Ð´Ñĭ": 4847,
      "Ð´Ð¾Ð¿ÑĭÑĤÑĭÐ²Ð°": 4848,
      "Ġshame": 4849,
      "Ð³Ð»Ð¸Ð½Ð¾": 4850,
      "Ð·Ð°Ð¼Ð¾ÑĢ": 4851,
      "ÐµÐ½Ð¸ÑıÐ¼": 4852,
      "ÐµÐ½Ð¸ÑıÐ¼Ð¸": 4853,
      "selves": 4854,
      "Ð·Ð°ÑĤÐµÐ²Ð°": 4855,
      "Ð°Ð½Ð¾Ð½": 4856,
      "cius": 4857,
      "Ġenem": 4858,
      "Ð²Ð´Ð¾ÑħÐ½Ð¾Ð²Ð¸": 4859,
      "Ð´Ð¾ÐºÑĥÐ¼ÐµÐ½ÑĤÐ¸ÑĢÐ¾Ð²Ð°": 4860,
      "Ġabout": 4861,
      "Ġeye": 4862,
      "Ð²ÑĢÐ°Ð·ÑĥÐ¼Ð»Ñı": 4863,
      "Ð²ÑĭÑĤÑĢÐµÐ·Ð²Ð»Ñı": 4864,
      "Ð´Ð¾ÑĤÑıÐ³Ð¸Ð²Ð°": 4865,
      "Ð´ÐµÐ¼Ð¿ÑĦÐ¸": 4866,
      "Ð·Ð°ÑĤÐ¼ÐµÐ²Ð°": 4867,
      "KATHARINA": 4868,
      "iol": 4869,
      "Ð²Ð²Ð¸Ð½ÑĩÐ¸Ð²Ð°": 4870,
      "ÐµÐ¶Ð¸": 4871,
      "Ð¼ÐµÑĤÐµ": 4872,
      "Ð¶Ð³Ñĥ": 4873,
      "Ð¶Ð½Ð¾Ð¹": 4874,
      "Ð½ÑĥÑĤÑĮ": 4875,
      "Ð»ÑıÐ¼Ð¸": 4876,
      "Ð¿Ð¾ÑĤÐ°": 4877,
      "Ð°Ð½ÐµÐº": 4878,
      "Ġfal": 4879,
      "Ġfool": 4880,
      "ons": 4881,
      "Ð²Ð¾Ð·Ð²ÑĭÑĪÐ°": 4882,
      "Ġpat": 4883,
      "ÑģÑĤÐ¾Ðº": 4884,
      "Ð·Ð°ÑģÐ»Ñİ": 4885,
      "Ð±ÐµÐ·Ð´ÐµÐ»ÑĮ": 4886,
      "Ð±ÑĢÐ°Ð½": 4887,
      "Ð·Ð°Ð³Ð½Ð°": 4888,
      "ÑĤÐµÑĢÐ¼Ð¸": 4889,
      "Ð·Ð°Ð¿Ð¾ÑĤÐµ": 4890,
      "Ð²Ð¾Ð»Ð¾ÑģÐ¾": 4891,
      "Ð²Ð¾Ð»Ð¾ÑĩÐ¸": 4892,
      "urde": 4893,
      "ÑĤÑĢÐ¾Ð¿Ð¸": 4894,
      "Ð±ÑĥÑĢÐ»Ð¸": 4895,
      "Ġsun": 4896,
      "Ð½Ð¾Ð²Ð°Ñı": 4897,
      "Ð·Ð°Ð¼Ð¾Ð»": 4898,
      "Ġanswer": 4899,
      "Ð´Ð¾ÐºÑĤÑĢÐ¸": 4900,
      "Ð²Ð¾ÑģÑĤÐ¾ÑĢÐ³Ð°": 4901,
      "Ð²ÑĢÐµÐ¼ÐµÐ½": 4902,
      "Ð·Ð°ÐºÐ¾Ð½ÑĤÑĢÐ°ÐºÑĤÐ¾": 4903,
      "Ð²ÑĭÑĢÐµÐ·Ð°": 4904,
      "Ð²ÑĭÑĤÐ°ÑĢÐ°ÑīÐ¸Ð²Ð°": 4905,
      "Ð²Ð¾Ð·Ð´ÐµÑĢÐ¶Ð¸Ð²Ð°": 4906,
      "Ð°Ð³ÑĢÐµÐ³Ð°": 4907,
      "Ð´ÑİÐ¹Ð¼Ð¾": 4908,
      "air": 4909,
      "Ð²ÐºÐµ": 4910,
      "Ð²ÑģÑĤÐ²Ñĥ": 4911,
      "Ð¸ÑģÑĤ": 4912,
      "ÑĢÐ½Ð¸ÑĩÐ°": 4913,
      "Ð´ÐµÐ½Ð¸": 4914,
      "Ð³Ð»Ðµ": 4915,
      "Ð¿ÑĢÐ°": 4916,
      "Ð´Ð¾ÑĤÐµÑĢ": 4917,
      "ÐºÐ°Ð»ÑĮ": 4918,
      "Ð²Ð¸Ð¾": 4919,
      "Ð±Ð°Ð³ÑĢÑı": 4920,
      "ÑĢÐµÑĨ": 4921,
      "Ð»ÑıÐ¼": 4922,
      "Ð»ÑıÑħ": 4923,
      "Ð²Ð·Ð±Ðµ": 4924,
      "Ð·Ð°Ð¿ÑĢÐµÑģÑģÐ¾Ð²ÑĭÐ²Ð°": 4925,
      "Ð²Ð¾Ð·Ð´Ð°": 4926,
      "ÑĢÑıÑĤ": 4927,
      "Ġch": 4928,
      "Ð³ÑĥÐ±ÐµÑĢ": 4929,
      "Ð²ÑĭÐ¿ÑĢÐ°Ð²Ð»Ñı": 4930,
      "Ð°ÐºÑĨÐ¸Ð¾": 4931,
      "Ð°ÐºÑĤÐ¸ÑĢÐ¾Ð²Ð°": 4932,
      "Ð»ÐµÐ½Ð½Ð°Ñı": 4933,
      "Ð³ÑĢÐ¾Ð¼Ñĭ": 4934,
      "Ð°Ð´Ð²Ð¾": 4935,
      "Ð²ÑĭÑħÐ»Ð¾": 4936,
      "Ð·ÐµÐ»ÐµÐ½Ð¾": 4937,
      "asure": 4938,
      "Ð²ÑĭÐºÐ°ÑĪÐ»Ð¸Ð²Ð°": 4939,
      "Ð·Ð°Ð¼Ð¾ÑĢÐ°Ð¶Ð¸Ð²Ð°": 4940,
      "Ð³Ð»ÑĥÑħÐ¾": 4941,
      "Ġfall": 4942,
      "Ð´Ð¾ÐºÐ°ÑĤÑĭÐ²Ð°": 4943,
      "Ð¼Ð¾ÑĢÑĦÐ¸": 4944,
      "Ð²ÑģÐºÑĢÑĭ": 4945,
      "Ð±ÑİÐ´Ð¶": 4946,
      "Ð²ÑĢÐµÐ·ÑĭÐ²Ð°": 4947,
      "Ð²Ð¼ÐµÑīÐ°": 4948,
      "Ð²ÑĭÑģÐºÐ°Ð±Ð»Ð¸Ð²Ð°": 4949,
      "Ð²ÑģÐ¿ÑĥÑĩÐ¸Ð²Ð°": 4950,
      "Ð²ÑĭÐ¿ÑıÐ»Ð¸Ð²Ð°": 4951,
      "Ð±ÑĢÑıÐºÐ°": 4952,
      "Ð°ÑĢÐµÐ½Ð´Ð¾Ð²Ð°": 4953,
      "Ð±Ð»Ð°Ð³Ð¾ÑĥÑģÑĤÑĢÐ°Ð¸Ð²Ð°": 4954,
      "ÑĤÐµÑĢÐ°Ð¿Ð¸": 4955,
      "Ð²ÑĭÐ·Ð²Ð¾Ð»Ñı": 4956,
      "Ð±Ð»Ð°Ð³Ð¾Ð¿ÑĢÐ¸ÑıÑĤ": 4957,
      "Ð²ÑģÑĤÑĥÐ¿Ð°": 4958,
      "Ð·Ð°Ð¸Ð½ÑĤÐµÑĢÐµÑģÐ¾Ð²ÑĭÐ²Ð°": 4959,
      "Ġmaid": 4960,
      "Ð²ÑĭÑģÐ»ÐµÐ¶Ð¸Ð²Ð°": 4961,
      "Ð°Ð½Ð°ÑĢÑħÐ¸": 4962,
      "LUS": 4963,
      "Un": 4964,
      "Up": 4965,
      "Ð²Ð´ÑĭÑħÐ°": 4966,
      "ÐµÐºÐ°": 4967,
      "ÐµÐ»ÑĮ": 4968,
      "Ð³ÑĤÐ¾": 4969,
      "Ð²ÑĭÐ³ÑĥÐ»Ð¸Ð²Ð°": 4970,
      "Ð³Ð¾Ð³Ð¾": 4971,
      "Ð´Ð¾Ð±ÑĢÐ¸": 4972,
      "Ð±Ð¾Ð²Ð¸Ð´": 4973,
      "ount": 4974,
      "Ð³Ð¸Ðµ": 4975,
      "Ġbus": 4976,
      "Ð²Ð·Ð¾ÑĢ": 4977,
      "Ð²ÐµÑĢÐ±Ð¾": 4978,
      "Ġcousin": 4979,
      "Ð¿Ð¸ÑĢ": 4980,
      "Ð±ÐµÑģÐ¿Ðµ": 4981,
      "Ð¶ÐµÐ²Ð°": 4982,
      "Ð´Ð²ÑĥÐ»Ð¸": 4983,
      "Ð³ÐµÐ½Ð¾": 4984,
      "Ð»ÐµÐ½Ð½ÑĭÐ¼": 4985,
      "Ð»ÐµÐ½Ð½ÑĭÑħ": 4986,
      "Ð»ÐµÐ½Ð½ÑĥÑİ": 4987,
      "Ð»ÐµÐ½Ð½ÑĭÐ¼Ð¸": 4988,
      "Ð»ÐµÐ½Ð½ÑĭÐµ": 4989,
      "Ð´ÑĢÐ°Ð¼Ð°ÑĤÐ¸": 4990,
      "ÑĦÐ¾Ð±": 4991,
      "ÑĤÑĢÐ¾Ð¿": 4992,
      "Ð´Ð¾Ð»Ð¶": 4993,
      "Ð²ÑĭÐ¼Ð°Ð½Ð¸Ð²Ð°": 4994,
      "thy": 4995,
      "Ð°ÑĥÐºÐ°": 4996,
      "ESCA": 4997,
      "Ð²ÑĭÐ¿ÑĥÑĩÐ¸Ð²Ð°": 4998,
      "Ġhate": 4999,
      "Ð½Ð¾Ð²Ð¸ÑĩÐ°": 5000,
      "Ð±Ð¾ÑĤÐ°Ð½Ð¸": 5001,
      "Ð²ÐºÐ¾ÑĢÐµÐ½": 5002,
      "ÑĢÐµÑĤÐ¸ÑĢÐ¾Ð²Ð°": 5003,
      "Ġgracious": 5004,
      "Ð¶Ð°Ð»Ð¾ÑģÑĤ": 5005,
      "Ġgentleman": 5006,
      "Ð´Ð¾ÑģÐ»ÑĥÐ¶Ð¸Ð²Ð°": 5007,
      "Ð²ÑģÐ¿Ð°ÑĢÑĭÐ²Ð°": 5008,
      "ĠKing": 5009,
      "Ð³Ð¸Ð»ÑĮÐ¾ÑĤÐ¸": 5010,
      "Ġgrief": 5011,
      "ESCALUS": 5012,
      "An": 5013,
      "ject": 5014,
      "ove": 5015,
      "Ð°ÑĤÐ¸": 5016,
      "Ð°Ð´ÐµÐ½Ð¾": 5017,
      "Ð´ÑĮ": 5018,
      "Ð·Ð°Ð°ÑĢÐºÐ°": 5019,
      "Ð³Ð¾ÑĢÐ°": 5020,
      "Ð²Ð¸ÑĤÐ°": 5021,
      "Ð³Ð°ÑģÐ¸": 5022,
      "Ð»ÐµÐ¶Ð°": 5023,
      "Ġmakes": 5024,
      "Ð±Ð¸ÑĢÐ¾Ð²Ð°": 5025,
      "Ð·Ð°Ð¿ÑıÑĤ": 5026,
      "ÑĪÐ¸Ð¹ÑģÑı": 5027,
      "Ð±ÐµÐ·ÑĢÐ°Ð·": 5028,
      "Ð±ÑĢÐ°ÑħÐ¸": 5029,
      "Ð²Ð¾ÑģÐ¿Ð¾Ð»Ð½Ñı": 5030,
      "Ġinto": 5031,
      "ÑĪÐ°Ð¼": 5032,
      "ÑĪÐ°Ð¼Ð¸": 5033,
      "imes": 5034,
      "Ð±Ð»Ð°Ð³Ð¾ÑĢÐ°": 5035,
      "Ð³ÑĢÐ¾ÑħÐ°": 5036,
      "Ġstri": 5037,
      "Ð¶ÐµÐ½Ð½ÑĭÑħ": 5038,
      "Ð²ÑģÑĤÑĢÑĳ": 5039,
      "ÑĤÐ¸Ð²Ð½ÑĭÐ¹": 5040,
      "Ð³Ð»Ð¾ÑĤÐ°": 5041,
      "Ð´ÑĢÐµÐ±ÐµÐ·": 5042,
      "Ð´Ð¾ÐºÑĥÐ¿Ð°": 5043,
      "Ð´ÐµÐ¹ÑģÑĤÐ²Ð¸": 5044,
      "Ð²Ð¸ÑħÑĢÐµ": 5045,
      "Ð´Ð¾Ð¿ÐµÑĩÐ°ÑĤÑĭÐ²Ð°": 5046,
      "Ð±ÐµÑģÐ¿ÑĢÐ¸Ð·Ð¾ÑĢ": 5047,
      "Ð°ÑģÑĦÐ°Ð»ÑĮÑĤÐ¾": 5048,
      "Ð²ÑĭÐºÐ¾ÑĢÑĩÐµ": 5049,
      "Ð°Ð²ÑĤÐ¾Ð¼Ð¾Ð±Ð¸": 5050,
      "Ð²ÑĭÑīÐµÐ»Ð°ÑĩÐ¸Ð²Ð°": 5051,
      "Hath": 5052,
      "iv": 5053,
      "ild": 5054,
      "ÑĥÐ¿Ð¾ÑĢ": 5055,
      "Ð³ÑĢ": 5056,
      "Ð·Ð°Ð·ÑĭÐ²Ð°": 5057,
      "Ð²ÑĭÑģÑĤÑĢÑĥ": 5058,
      "Ð½Ð¾Ð²ÑĭÐ¹": 5059,
      "Ð´Ð¾Ð±Ð¸": 5060,
      "Ð²Ð¸Ð¹": 5061,
      "Ð±Ð°ÑĨÐ°": 5062,
      "ÑĳÑĪÑĮ": 5063,
      "Ð´ÐµÐ²Ð°Ð»ÑĮ": 5064,
      "Ð±Ð¾ÑĢÐ¸": 5065,
      "Ð³ÑĢÐ°Ð´": 5066,
      "ÑħÐ¾Ð²": 5067,
      "Ð°ÑĢÐ¼Ñı": 5068,
      "Ð·Ð°ÐºÐ¾Ð¿": 5069,
      "Ð°Ð½ÑĤÐ¸ÑĨÐ¸": 5070,
      "Ð³Ð»Ð°Ð·Ð¾": 5071,
      "Ð·Ð°ÑģÑĤÑĢÑĥ": 5072,
      "Ð°Ð´Ð¼Ð¸": 5073,
      "Ġstre": 5074,
      "Ð¶ÐµÐ½Ð½ÑĭÐ¼": 5075,
      "Ð¶ÐµÐ½Ð½ÑĥÑİ": 5076,
      "Ð¶ÐµÐ½Ð½ÑĭÐ¼Ð¸": 5077,
      "Ð¶ÐµÐ½Ð½Ð°Ñı": 5078,
      "Ð¶ÐµÐ½Ð½ÑĭÐµ": 5079,
      "Ð±Ð°ÑĢÑħÐ°": 5080,
      "Ð²ÑĢÐ°Ð¶": 5081,
      "Ð½ÐµÐ½Ð½ÑĭÐ¹": 5082,
      "Ð·Ð»Ð¾Ð±": 5083,
      "ÑĪÐµÐ½Ð½ÑĭÐ¹": 5084,
      "Ð°ÑĥÑĤÐ¾": 5085,
      "Ð´Ð¾ÑĢÐ¾Ð¶Ð°": 5086,
      "Ð·Ð°ÑģÐ¾ÑĢÑı": 5087,
      "ĠEng": 5088,
      "Ð·Ð°ÑĢÐ¶Ð°": 5089,
      "Ð²Ð¸ÑĢÑĤÑĥ": 5090,
      "ÑģÐµÐºÑģÑĥ": 5091,
      "Ġwoman": 5092,
      "Ð·Ð»Ð¾ÑĥÐ¿Ð¾ÑĤÑĢÐµ": 5093,
      "Ð²ÑĭÐ²ÑıÐ»Ð¸Ð²Ð°": 5094,
      "DUCH": 5095,
      "Ð°ÑģÑĤÑĢÐ°": 5096,
      "Ð°ÑģÐ¸Ð¼": 5097,
      "Ð°ÑĤÑĢÐ¾ÑĦÐ¸": 5098,
      "ÑĤÐµÑĤ": 5099,
      "Ð±Ð»ÑĳÐ½": 5100,
      "Ð·Ð°ÑĩÐµÑģÑĭÐ²Ð°": 5101,
      "Ð³Ð¾ÑĤ": 5102,
      "Ð´Ð¾Ð±ÑĢÐ°": 5103,
      "Ð´Ð¾Ð½Ñı": 5104,
      "Ð¶Ð½ÑĭÑħ": 5105,
      "Ð¶Ð½Ð°Ñı": 5106,
      "Ð¶ÐµÐ½Ð½Ð¾Ñİ": 5107,
      "Ð¶ÐµÐ½Ð½Ð¾Ð¹": 5108,
      "Ð¶ÐµÐ½Ð½Ð¾Ð³Ð¾": 5109,
      "Ð¶ÐµÐ½Ð½Ð¾Ð¼": 5110,
      "Ð¶ÐµÐ½Ð½Ð¾Ðµ": 5111,
      "Ð¶ÐµÐ½Ð½Ð¾Ð¼Ñĥ": 5112,
      "Ġturn": 5113,
      "Ð´ÐµÐ²Ñĩ": 5114,
      "Ð¼Ð°Ñģ": 5115,
      "Ð´Ð°Ð¹": 5116,
      "Ð¼Ð¾ÑĤÐ¾ÑĢ": 5117,
      "ÑģÐ¾Ð²ÐµÑĤ": 5118,
      "Ð±ÑĥÑĢÐµ": 5119,
      "Ð½ÐµÐ³Ð¾": 5120,
      "Ð´ÑĥÑį": 5121,
      "ÑĩÐ¸Ð¼": 5122,
      "Ð²Ð¾Ð·Ð±ÑĢÐ°Ð½Ñı": 5123,
      "Ġhum": 5124,
      "ÑģÑĤÐ¾Ñİ": 5125,
      "Ð¶ÐµÐ»Ñĥ": 5126,
      "Ġbel": 5127,
      "ÑĤÐµÑĢÐ½Ð°": 5128,
      "Ð³Ð¾ÑĢÐ´Ð¸": 5129,
      "Ð³Ð»Ð°Ð³Ð¾": 5130,
      "Ð²ÑĭÑģÐ¾ÐºÐ¾Ð¿ÑĢÐ¾": 5131,
      "alt": 5132,
      "Ð´Ð¸Ð°ÑĦÑĢÐ°Ð³": 5133,
      "Ð³Ð°Ð·Ð¾Ñģ": 5134,
      "Ġdost": 5135,
      "Ġcomfort": 5136,
      "ices": 5137,
      "Ð·Ð°Ð²Ð°Ð»Ñı": 5138,
      "Ð²ÑĭÑĩÐ¸ÑģÐ»Ñı": 5139,
      "Ð·Ð°Ð½Ð°ÑĪÐ¸Ð²Ð°": 5140,
      "Ð´ÑĢÑĥÐ¶Ð¸": 5141,
      "Ð²Ð¾Ð·Ð±ÑĥÐ´Ð¸": 5142,
      "Ð´Ð¾ÑĥÐºÐ¾Ð¼Ð¿Ð»ÐµÐº": 5143,
      "Ð°ÑĢÑĤÐ¸ÐºÑĥ": 5144,
      "Ġcoun": 5145,
      "Ð²ÑģÐºÐ»Ð¾ÐºÐ¾": 5146,
      "ĠDuke": 5147,
      "Ġcourt": 5148,
      "Ġsleep": 5149,
      "Ð²ÑĭÑĩÐ»ÐµÐ½Ñı": 5150,
      "urderer": 5151,
      "DUCHESS": 5152,
      "Lord": 5153,
      "pher": 5154,
      "Ð½ÑĤÑĥ": 5155,
      "Ð²Ñİ": 5156,
      "Ð²ÑĭÐºÐ¸Ð´ÑĭÐ²Ð°": 5157,
      "ÑĩÐ°Ñı": 5158,
      "ÑģÑĤÐ½ÑĭÐ¹": 5159,
      "Ð¶Ð½ÑĭÐ¼": 5160,
      "Ð¶Ð½ÑĥÑİ": 5161,
      "Ð¶Ð½ÑĭÐ¼Ð¸": 5162,
      "Ð¶Ð½ÑĭÐµ": 5163,
      "Ð¶Ð½Ð¾Ð¼": 5164,
      "Ð¶Ð½Ð¾Ñİ": 5165,
      "Ð¶Ð½Ð¾Ð³Ð¾": 5166,
      "Ð¶Ð½Ð¾Ðµ": 5167,
      "Ð¶Ð½Ð¾Ð¼Ñĥ": 5168,
      "Ġtalk": 5169,
      "Ð³Ð°Ð»Ð°Ð½": 5170,
      "Ð±Ð¾Ð±": 5171,
      "Ð´Ð°ÑĤÐ¾": 5172,
      "Ð¿Ð¾Ð²Ð°": 5173,
      "Ð²Ð·Ð½ÐµÑģ": 5174,
      "Ð²Ð·Ð²Ð¸Ð½ÑĩÐ¸Ð²Ð°": 5175,
      "Ð²ÑģÐ»Ñĥ": 5176,
      "itor": 5177,
      "Ð²Ð¾Ð·Ñı": 5178,
      "Ð²Ð¾Ð·Ð³Ð¾Ð½Ñı": 5179,
      "Ġover": 5180,
      "Ð³ÑĥÐ±": 5181,
      "Ð°ÐºÐºÐ¾Ð¼Ð¿Ð°": 5182,
      "Ð¶ÑĥÑģÑĮ": 5183,
      "Ð·Ð°ÑĤÐ¾ÑĩÐ°": 5184,
      "Ð³ÐµÐ¾Ð»Ð¾Ð³Ð¸": 5185,
      "Ð²ÐºÐ°ÑĤÑĭÐ²Ð°": 5186,
      "Ð´Ð¾Ð²ÐµÑĢÑĪÐ°": 5187,
      "Ð²ÐµÑģÐµÐ»Ðµ": 5188,
      "Ð¿Ð¾Ð´ÑĬÐµÐ¼": 5189,
      "Ð´ÐµÐ¼Ð¾Ð½ÑģÑĤÑĢÐ°": 5190,
      "Ð²ÐºÑĢÐ°Ð¿Ð»Ñı": 5191,
      "Ð·Ð°ÐºÐ»Ð¸Ð½Ð°": 5192,
      "Ð²ÑĭÐ¿ÐµÐºÐ°": 5193,
      "Ð´Ð¸Ð½Ð°Ð¼Ð¾": 5194,
      "Ð±Ð¸Ð±Ð»Ð¸Ð¾ÑĤÐµ": 5195,
      "ÐµÐ¿Ð¸ÑģÐºÐ¾": 5196,
      "Ð³ÐµÐºÑĤÐ¾Ð³ÑĢÐ°ÑĦÐ¸": 5197,
      "Ġbody": 5198,
      "Ð´Ð¾ÑģÐºÑĢÐµ": 5199,
      "morrow": 5200,
      "Ð°Ð»ÐµÐºÑģÐ°Ð½": 5201,
      "Ð²ÑģÐ¾": 5202,
      "Ð·Ð°ÑĩÑĳÑģÑĭÐ²Ð°": 5203,
      "Ð²Ð°Ð½Ð°": 5204,
      "ÑĮÐµÑĢ": 5205,
      "ÑĢÐ¾Ð·Ð¸": 5206,
      "Ð²Ð¾ÑģÑĤÑĮ": 5207,
      "ÐºÐ¾Ð»Ð¸": 5208,
      "Ð±Ð°ÑĤÐ¾": 5209,
      "Ð´ÐµÑĨÐµÐ½ÑĤÑĢÐ°": 5210,
      "ÑĤÐ°Ð¹": 5211,
      "Ġwilt": 5212,
      "Ð³Ð¸Ð±": 5213,
      "Ġbu": 5214,
      "Ð²ÑĭÐ²Ð°Ð»Ñı": 5215,
      "Ġgr": 5216,
      "Ð¶ÐµÐ³": 5217,
      "Ð¶ÐµÐ¹": 5218,
      "Ð½Ð¾Ð¼Ñĭ": 5219,
      "Ð´ÑĢÐ¾Ð¶Ð°": 5220,
      "ÑĨÐµÐ»": 5221,
      "ute": 5222,
      "ÑĤÐµÑĢÐµ": 5223,
      "Ð³ÑĢÑĥÐ·Ð¸": 5224,
      "Ð±ÐµÑĢÐ¸": 5225,
      "Ð±Ð°ÑĢÐ±Ð¾": 5226,
      "Ð³Ð°ÑĢÐ½Ð¸": 5227,
      "Ð²ÑĭÐµÐ·": 5228,
      "gelo": 5229,
      "Ð±Ð»ÐµÐ´Ð½Ðµ": 5230,
      "ÑģÑĤÑĭÐ¼": 5231,
      "ÑģÑĤÑĭÑħ": 5232,
      "Ð»Ð°Ð½Ð´": 5233,
      "Ð±Ð¾Ð¹ÐºÐ¾": 5234,
      "deed": 5235,
      "Ð²ÑĭÐ»Ð¸Ð·ÑĭÐ²Ð°": 5236,
      "Ð±Ð»Ð¾ÐºÐ¸ÑĢÐ¾Ð²Ð°": 5237,
      "Ð·Ð°Ð¿Ð°ÑĢÑĭÐ²Ð°": 5238,
      "Ð²Ð·Ð¼ÐµÑĤÑĭÐ²Ð°": 5239,
      "ĠMarcius": 5240,
      "Ð°ÑĤÑĢÐ¸Ð±Ñĥ": 5241,
      "Ð¼ÐµÑħÐ°Ð½Ð¸": 5242,
      "Ð´ÐµÑĨÐµÐ½ÑĤÑĢÐ°Ð»Ð¸": 5243,
      "IA": 5244,
      "ience": 5245,
      "Ġi": 5246,
      "Ð²Ð½Ð¾Ð¹": 5247,
      "Ð²ÐºÐ¾Ð¹": 5248,
      "Ð²ÐºÐ¾Ñİ": 5249,
      "Ð·Ð°Ð¼Ð¸Ð½Ð°": 5250,
      "Ð²ÑĭÐ½Ñĭ": 5251,
      "Ð²ÑĭÐ½ÐµÑģ": 5252,
      "Ð²ÑĭÐ±ÐµÐ³Ð°": 5253,
      "Ð²ÑĭÐ»Ð°Ð¼ÑĭÐ²Ð°": 5254,
      "Ð½Ð¾Ð²ÑĭÐ¼": 5255,
      "ÑĩÐ½Ñĭ": 5256,
      "ÑĩÐ½Ð°": 5257,
      "ÑģÑıÑĤ": 5258,
      "Ð³Ð¾Ð³Ð¸": 5259,
      "Ð´Ð¾Ð²Ð¾Ð»ÑĮ": 5260,
      "Ð´Ð¾Ð½Ð¾ÑģÐ¸": 5261,
      "Ð½Ð¸Ð»": 5262,
      "Ð²Ð¸Ð´Ð°": 5263,
      "Ð±Ð°Ð»Ð¸": 5264,
      "Ð²Ð·Ð¼ÑĳÑĤÑĭÐ²Ð°": 5265,
      "ised": 5266,
      "ÑĩÐ¸ÐºÐ°": 5267,
      "ÑĨÐ¸Ð¹": 5268,
      "ÑģÑĤÐ¾Ñı": 5269,
      "ÑĢÑĭÐ³Ð°": 5270,
      "Ð³ÑĥÐºÐ°": 5271,
      "Ð±ÑĢÐ°ÑĤÐ¾": 5272,
      "Ð²ÑĭÐ¿ÑĢÐ°": 5273,
      "Ġbed": 5274,
      "Ð°ÐºÐºÐ»Ð¸": 5275,
      "Ð²Ð¾Ð´Ð¾ÑĢÐ¾Ð´": 5276,
      "Ð³Ð¸Ð´ÑĢÐ¾Ð³ÐµÐ½Ð¸": 5277,
      "Ð·Ð°Ð¼Ð°ÑĢÐ°": 5278,
      "Ð²ÑĭÑħÐ»Ñĳ": 5279,
      "ÑĢÐµÐ½Ð½ÑĭÐ¹": 5280,
      "Ð³ÐµÐ½Ðµ": 5281,
      "Ð²ÑĭÐ¼ÑĭÐ²Ð°": 5282,
      "Ð²ÑĭÐµÐ´Ð°": 5283,
      "Ð²ÑĭÐºÐ°Ð·ÑĭÐ²Ð°": 5284,
      "Ð±ÐµÐ½Ðµ": 5285,
      "Ð²ÑĭÐºÐ¾Ð»Ñĥ": 5286,
      "Ð±ÑĥÑĢÐ¶Ñĥ": 5287,
      "ÑģÑĤÑĭÐµ": 5288,
      "ÑģÑĤÑĭÐ¼Ð¸": 5289,
      "Ġfault": 5290,
      "Ġatt": 5291,
      "ÑĢÑĳÐ±": 5292,
      "ieve": 5293,
      "Ð·Ð°ÑĢÐµÐ³Ð¸": 5294,
      "Ð²ÑĭÐ´Ð°Ð»Ð±Ð»Ð¸Ð²Ð°": 5295,
      "Ð·Ð°ÑĢÑıÐ´Ð¸": 5296,
      "Ð²ÑĤÐ°Ð»ÐºÐ¸Ð²Ð°": 5297,
      "Ġprove": 5298,
      "Ġplay": 5299,
      "Ð²Ð¸ÑĩÐµÐ¼": 5300,
      "Ð¿Ð°ÑĢÑĤÐ¸Ð¹": 5301,
      "CAMIL": 5302,
      "Ð²ÑĭÐ²ÐµÑĢÑĤÑĭÐ²Ð°": 5303,
      "Ð±ÐµÐ´Ð½Ñı": 5304,
      "Ð²Ð¾Ð»ÑĮÐ½Ð¾Ð´ÑĥÐ¼": 5305,
      "Ð²ÑĭÑģÐ»ÑĥÑĪÐ¸Ð²Ð°": 5306,
      "Ð²Ð·Ð´ÑĥÐ²Ð°": 5307,
      "Ð·Ð°ÐºÐ¾Ð½ÑģÐ¿Ð¸": 5308,
      "ĠClarence": 5309,
      "Ð°Ð´Ð¼Ð¸Ð½Ð¸ÑģÑĤÑĢÐ°": 5310,
      "CAMILLO": 5311,
      "God": 5312,
      "ere": 5313,
      "ily": 5314,
      "Ð°Ð»Ñĥ": 5315,
      "Ð°Ð±ÑĢÐ¸": 5316,
      "Ð²Ð´ÐµÐ²Ð°": 5317,
      "Ð½ÐºÐµ": 5318,
      "ÑĢÐºÐ°": 5319,
      "ÑĥÐºÐ»Ð°": 5320,
      "Ð·Ð°Ð´ÐµÐ²Ð°": 5321,
      "Ð²Ð°Ð³Ð¾Ð½Ð¾": 5322,
      "Ð¿ÑĤÐ¾": 5323,
      "Ð²ÑĭÐ´Ð¸ÑĢÐ°": 5324,
      "ÑħÐ»Ðµ": 5325,
      "ÑĢÐ¾Ð½": 5326,
      "Ð²Ð¾ÑĢÑĥ": 5327,
      "Ð²Ð¾Ð»Ñİ": 5328,
      "Ð³Ð¾Ð¹": 5329,
      "Ð½Ð¸Ð½Ð°": 5330,
      "Ð²Ð¸ÑĩÑĥ": 5331,
      "Ð±Ð°Ð»ÐµÑĤ": 5332,
      "Ð´ÐµÐ±Ñİ": 5333,
      "Ð³Ð°Ð·ÐµÑĤ": 5334,
      "Ġsound": 5335,
      "Ð²Ð·Ð²Ð°Ð»Ð¸Ð²Ð°": 5336,
      "ÑĩÐ¸ÐºÑĥ": 5337,
      "ÑĩÐ¸ÐºÐµ": 5338,
      "ÑĩÐ¸ÐºÐ¾Ð¼": 5339,
      "Ð²ÐµÑĢÐ±Ð»Ñİ": 5340,
      "Ġdra": 5341,
      "ÑģÑĤÐ¾Ðµ": 5342,
      "ÑģÑĤÐ¾Ð³Ð¾": 5343,
      "ans": 5344,
      "omet": 5345,
      "Ð½ÑıÑı": 5346,
      "Ð²ÑĭÐ¿ÑĢÐ°ÑĪÐ¸Ð²Ð°": 5347,
      "Ġinst": 5348,
      "Ð·Ð°ÑħÐ¸": 5349,
      "Ġwel": 5350,
      "Ð·Ð°ÐºÐ°Ð¼ÑĥÑĦ": 5351,
      "ade": 5352,
      "Ð¶ÑĥÐ¶": 5353,
      "Ð·Ð°Ð¼Ð°ÑĢÐ¸": 5354,
      "Ġret": 5355,
      "Ġdeed": 5356,
      "Ð²ÑĭÐºÐ°ÑĢÐ¼Ð»Ð¸Ð²Ð°": 5357,
      "ÑĨÐ¸ÑıÐ¼Ð¸": 5358,
      "Ð´Ð½ÐµÐ¿ÑĢÐ¾": 5359,
      "Ð²ÑĭÑĢÑĥÑĩÐ°": 5360,
      "Ġthank": 5361,
      "Ð´Ð¾ÐºÐ»Ðµ": 5362,
      "Ð¿Ð¾Ð´ÑĬÑĳÐ¼": 5363,
      "Ð²ÑĭÐ¿ÑĢÑıÐ¼Ð¸": 5364,
      "Ð²ÑĭÐ²Ð¾Ð»Ð°ÐºÐ¸Ð²Ð°": 5365,
      "Ð²ÑĭÐ±ÑĢÐ°ÐºÐ¾Ð²ÑĭÐ²Ð°": 5366,
      "Ð´Ð²Ð¾Ñı": 5367,
      "Ð±Ð»Ð°Ð³Ð¾ÑĥÑħÐ°": 5368,
      "Ð±Ð¾Ð¼Ð±Ð°ÑĢÐ´Ð¸": 5369,
      "Ð·Ð°Ð¿ÑıÑĤÐ½Ð°": 5370,
      "TEN": 5371,
      "Ð°Ð±Ð¸": 5372,
      "ÐºÐ²Ð°ÑĢ": 5373,
      "Ð³Ð½Ñĳ": 5374,
      "Ð²ÑĭÑĩÐµ": 5375,
      "Ð²ÑĭÐ±Ð°Ð»ÑĤÑĭÐ²Ð°": 5376,
      "Ð²ÑĭÐ²ÑĳÑĢÑĤÑĭÐ²Ð°": 5377,
      "ÐµÐ½Ð½ÑĭÐ¼": 5378,
      "ÐµÐ½Ð½ÑĭÑħ": 5379,
      "ÐµÐ½Ð½ÑĥÑİ": 5380,
      "ÐµÐ½Ð½ÑĭÐ¼Ð¸": 5381,
      "ÐµÐ½Ð½ÑĭÐµ": 5382,
      "Ð´Ð¾Ð¶Ñĳ": 5383,
      "ÑĪÑĤ": 5384,
      "Ð»Ð¸ÑĤÐ¸": 5385,
      "Ð»Ð¸ÑĤÐµ": 5386,
      "Ð²Ð¸Ð»ÑĮ": 5387,
      "Ð´ÐµÐ·ÐµÑĢ": 5388,
      "Ġser": 5389,
      "Ð±ÐµÐ»Ñĳ": 5390,
      "Ð½ÑĥÑĤ": 5391,
      "Ġbo": 5392,
      "Ð²ÑģÑĭÐ¿Ð°": 5393,
      "ÑĩÐ¸ÑĤÑĮ": 5394,
      "ÑĩÐ¸ÐºÐ¾Ð²": 5395,
      "Ġfight": 5396,
      "Ð·Ð°ÐºÐ»ÐµÐ¹": 5397,
      "Ġindeed": 5398,
      "Ð´Ð²ÑĥÑħÐºÐ¾": 5399,
      "illain": 5400,
      "Ð±ÐµÑĢÐµÐ¼": 5401,
      "ÐĴÐ°ÑĢ": 5402,
      "ÑĢÐµÐ½Ñĭ": 5403,
      "ÐĳÐ¸": 5404,
      "ÐĵÑĢÐ¸": 5405,
      "Ð½ÐµÐ½ÑĮ": 5406,
      "Ð»Ð°Ð¼ÐµÐ½Ð¸": 5407,
      "hold": 5408,
      "Ð°ÑĥÐ´Ð¸": 5409,
      "Ġvo": 5410,
      "Ð±Ð»Ð¾Ðº": 5411,
      "Ð´Ð¾ÐºÑĥÑĢÐ¸": 5412,
      "Ð°ÑĤÐ¼Ð¾Ñģ": 5413,
      "ÑĨÐ¸ÑıÐ¼": 5414,
      "ÑĨÐ¸ÑıÑħ": 5415,
      "Ð²Ð°Ð»ÑĮÑĨÐ¾": 5416,
      "Ġsword": 5417,
      "Ð²ÑĤÐ°Ð¿ÑĤÑĭÐ²Ð°": 5418,
      "Ð²Ð·ÑĢÑĭÐ²Ð¾": 5419,
      "Ð·Ð°ÑıÐ²Ð»Ñı": 5420,
      "Ð²ÑĭÑģÑĥÑĪÐ¸Ð²Ð°": 5421,
      "Ð±Ð»Ð°Ð³Ð¾ÑģÐ»Ð¾Ð²Ð»Ñı": 5422,
      "Ð²ÑĢÐ°Ð·ÑĥÐ¼Ð¸": 5423,
      "ÑħÑĢÐ°Ð½Ð¸Ð»Ð¸": 5424,
      "Ð²Ð¾ÑģÐ¿Ð»Ð°Ð¼ÐµÐ½Ð¸": 5425,
      "Ð¶Ð¾Ð½Ð³": 5426,
      "Ð²ÐµÑĢÑħÐ½Ðµ": 5427,
      "Ð²ÑĥÐ°Ð»Ð¸ÑĢÐ¾Ð²Ð°": 5428,
      "ÑģÐ¸ÑģÑĤÐµÐ¼": 5429,
      "ĠAngelo": 5430,
      "HORTEN": 5431,
      "Ġfalse": 5432,
      "HORTENS": 5433,
      "FRI": 5434,
      "Sh": 5435,
      "Ð¼Ð»Ð¸Ð²Ð°": 5436,
      "Ð¼ÑĳÑĢ": 5437,
      "ÑĩÐºÐ¾Ð¼": 5438,
      "ÑģÑĤÐ½ÑĭÐ¼": 5439,
      "ÑģÑĤÐ½Ð¾Ð¹": 5440,
      "Ð³Ð¾Ð²Ð¾ÑĢÐ¸": 5441,
      "ÐµÐ½Ð½Ð°Ñı": 5442,
      "Ð´Ð¾Ð½ÐµÑģ": 5443,
      "Ð´Ð¾ÐºÑĢÐ°": 5444,
      "ÐºÐ¾Ðº": 5445,
      "Ð°Ð½Ð½Ð¾": 5446,
      "Ð±ÑĥÑĢÐ¾": 5447,
      "Ð±ÑĥÑĪ": 5448,
      "ÑĩÐ¸ÐºÐ¸": 5449,
      "Ð³ÑĢÐ°Ð±Ð¸": 5450,
      "Ð·Ð°ÑģÐºÑĢÐµ": 5451,
      "Ð³ÑĥÑĤ": 5452,
      "Ð²Ð¾ÑģÑħÐ¾": 5453,
      "Ð²Ð¾ÑģÐ¿Ð¾Ð»": 5454,
      "Ð²ÑĭÐ¿Ð¸Ð²Ð°": 5455,
      "ÑĦÐ¸ÐºÑģÐ¸": 5456,
      "Ð¶ÐµÑģÑĤÐ¸ÐºÑĥ": 5457,
      "ÐºÐ¾Ð¼ÐµÐ½": 5458,
      "Ð±Ð»Ð°Ð³Ð¾Ð´ÐµÑĤÐµ": 5459,
      "Ð²ÑĭÑģÐ¾ÐºÐ¾Ð¼": 5460,
      "Ġuse": 5461,
      "Ġeven": 5462,
      "Ð»ÑĭÑħÐ°": 5463,
      "Ð°Ð¼Ñĳ": 5464,
      "Ð²ÑģÑĤÐ²ÐµÐ½": 5465,
      "Ġsovere": 5466,
      "Ð±Ð¾ÑĢÐ¼Ð¾": 5467,
      "Ð·Ð°Ð¼ÐµÐ½Ð¸": 5468,
      "Ð·Ð°Ð±ÑĢÐµ": 5469,
      "ÐµÐ²Ð½Ð°": 5470,
      "Ġanother": 5471,
      "Ð·Ð°Ð±Ð¾Ð»": 5472,
      "Ð²Ð¾ÑģÑĤÐ¾ÑĢ": 5473,
      "Ġgrave": 5474,
      "Ð·Ð°ÑĤÑĢÑĥÐ´Ð½Ð¸": 5475,
      "Ð²Ð·ÑĭÑģÐºÐ¸Ð²Ð°": 5476,
      "Ð²ÑĬÐµ": 5477,
      "Ð±Ð°ÐºÑĤÐµÑĢÐ¸Ð¾": 5478,
      "Ġadv": 5479,
      "Ð³Ð²Ð¾Ð·Ð´Ð¸": 5480,
      "Ð¿Ð°Ð¼ÑıÑĤ": 5481,
      "Provost": 5482,
      "Ġfellow": 5483,
      "Upon": 5484,
      "HORTENSIO": 5485,
      "FRIAR": 5486,
      ",'": 5487,
      "PTIS": 5488,
      "eal": 5489,
      "Ð²Ð½Ð¸Ð²Ð°": 5490,
      "Ð²Ð±Ð¸Ð²Ð°": 5491,
      "ÑģÐ½Ð¸": 5492,
      "Ð·Ð°ÑĩÑĳ": 5493,
      "Ð²ÑĪÐ¸Ð²Ð°": 5494,
      "Ð²ÑĭÐ½Ñı": 5495,
      "Ð½Ð¾Ð²ÑĭÑħ": 5496,
      "Ð½Ð¾Ð²Ð¾Ð¹": 5497,
      "Ð½Ð¾Ð²ÑĭÐ¼Ð¸": 5498,
      "Ð½Ð¾Ð²Ð¾Ð¼": 5499,
      "Ð²Ð¾ÑģÑĤÐ¸": 5500,
      "ÑģÑĤÐ½Ð°Ñı": 5501,
      "ÑģÑĤÐ½Ð¾Ðµ": 5502,
      "Ð´Ð¾ÑħÐ¾Ð´": 5503,
      "ÐºÐ¾Ð²ÑĭÐ¼": 5504,
      "Ð»Ð¸ÑģÑĤÐ¸": 5505,
      "Ð²Ð¸ÑĤ": 5506,
      "Ð±Ð°Ñı": 5507,
      "Ð±Ð°ÐºÐ»Ð°": 5508,
      "Ð´ÐµÐ±Ð¾": 5509,
      "Ð²Ð·Ð±Ð¸Ð²Ð°": 5510,
      "ÐºÑĥÐ»ÑıÑĢ": 5511,
      "ÑĩÐ¸ÐºÐ°Ð¼Ð¸": 5512,
      "Ġcur": 5513,
      "Ð»ÑĳÑĤ": 5514,
      "Ð°ÐºÑĤÐµÑĢ": 5515,
      "Ġhas": 5516,
      "Ð·Ð°ÐºÐ¾Ð¼": 5517,
      "ÐĲÑĦ": 5518,
      "Ð±Ð»Ð°Ð³Ð¾Ð´Ð°": 5519,
      "Ġem": 5520,
      "Ð°Ð»ÑĮÐ¿Ð¸": 5521,
      "Ð·ÐµÐ»ÑĮ": 5522,
      "ÑĩÐµÑĢÐ¿Ð°": 5523,
      "ury": 5524,
      "ÐĵÐµ": 5525,
      "Ð·Ð°ÑĢÐ°Ð·Ð¸": 5526,
      "Ð·Ð°ÑĢÐ°Ð²Ð½Ð¸Ð²Ð°": 5527,
      "Ð½Ð°Ð¼ÐµÑĢ": 5528,
      "Ð±ÑİÐ»": 5529,
      "Ð·Ð°ÑĢÐµÐºÐ¾Ð¼ÐµÐ½": 5530,
      "Ð½ÑİÑİ": 5531,
      "Ð°ÑĦÑĦÐµÐº": 5532,
      "ÑıÑīÐ¸Ðµ": 5533,
      "Ð°ÑģÑģÐ¸Ð³": 5534,
      "Ð·Ð°Ð³Ð°Ð´ÑĭÐ²Ð°": 5535,
      "Ð·Ð°ÑģÑĤÐ¸Ð³Ð°": 5536,
      "pect": 5537,
      "Ð²ÑĭÐ´ÐµÑĢÐ³Ð¸Ð²Ð°": 5538,
      "Ð±Ð°ÑĢÐ¸ÑĤÐ¾": 5539,
      "Ð´ÑĢÐµÑģÑģÐ¸": 5540,
      "Ð°Ð³Ð³Ð»Ñİ": 5541,
      "Ð²Ð¾Ð¾Ð±ÑĢÐ°Ð¶Ð°": 5542,
      "Ð²Ð°ÐºÑĥÑĥÐ¼": 5543,
      "BAPTIS": 5544,
      "Ð·Ð°ÑĤÐµÑĢÑı": 5545,
      "ÑĢÐ°Ð±ÐºÐ¸Ð²Ð°": 5546,
      "Ġbanish": 5547,
      "Ġfortune": 5548,
      "Ð°Ð³Ð³Ð»ÑİÑĤÐ¸": 5549,
      "BAPTISTA": 5550,
      "CUS": 5551,
      "COM": 5552,
      "TOL": 5553,
      "YCUS": 5554,
      "pl": 5555,
      "pen": 5556,
      "Ð°Ð·Ð°ÑĢ": 5557,
      "Ð¾Ð²Ð°": 5558,
      "Ð²Ð´ÐµÐ»ÑĭÐ²Ð°": 5559,
      "Ð²Ð±ÑĢÐ°ÑģÑĭÐ²Ð°": 5560,
      "Ð½ÐµÐ¼Ñĥ": 5561,
      "Ð»Ñģ": 5562,
      "Ð»ÐµÑĢÐ¸": 5563,
      "Ð²ÑĭÐ´ÐµÐ»ÑĭÐ²Ð°": 5564,
      "Ð²ÑĭÐ´ÑĥÐ¼ÑĭÐ²Ð°": 5565,
      "Ð²Ð¾Ð²Ð»Ðµ": 5566,
      "ÑģÑĤÐ½ÑĭÑħ": 5567,
      "ÑģÑĤÐ½ÑĥÑİ": 5568,
      "ÑģÑĤÐ½ÑĭÐ¼Ð¸": 5569,
      "ÑģÑĤÐ½ÑĭÐµ": 5570,
      "ÑģÑĤÐ½Ð¾Ð¼": 5571,
      "ÑģÑĤÐ½Ð¾Ñİ": 5572,
      "ÑģÑĤÐ½Ð¾Ð³Ð¾": 5573,
      "ÑģÑĤÐ½Ð¾Ð¼Ñĥ": 5574,
      "Ð´Ð¾Ð´ÐµÐ»ÑĭÐ²Ð°": 5575,
      "Ð´Ð¾Ð½Ð°ÑĪÐ¸Ð²Ð°": 5576,
      "ÑĤÐ¾Ðº": 5577,
      "Ð´Ð¸Ð¼": 5578,
      "Ð±Ð°Ð»Ð¾": 5579,
      "Ð´ÐµÐ»": 5580,
      "ouch": 5581,
      "Ġmerc": 5582,
      "Ġmatter": 5583,
      "Ġwant": 5584,
      "Ð¼Ð¾Ð»Ð¾": 5585,
      "Ð²ÐµÐ¶": 5586,
      "Ð²Ð·Ð»Ð°Ð¼ÑĭÐ²Ð°": 5587,
      "Ð±ÑĥÐ±Ð»Ð¸": 5588,
      "Ð²ÑģÐºÐ°ÑĢ": 5589,
      "ÑĩÐ¸ÑĤÐµ": 5590,
      "ÑĩÐ¸ÐºÐ°Ð¼": 5591,
      "ÑĩÐ¸ÐºÐ°Ñħ": 5592,
      "Ð²ÐµÑĢÑĤÐµ": 5593,
      "Ð¶Ð¸Ð¼": 5594,
      "Ð²ÑĭÐ²Ð°ÑĢÐ¸Ð²Ð°": 5595,
      "Ð·Ð°ÑģÐºÐ°": 5596,
      "Ð³ÑĥÐ±Ð¸": 5597,
      "Ð°ÑĢÑĤÐ°": 5598,
      "Ð·Ð°ÐºÑĢÐ°ÑĪÐ¸Ð²Ð°": 5599,
      "Ð°ÐºÐºÐ¾ÑĢ": 5600,
      "Ð°ÐºÐºÐ¾Ð¼Ð¾": 5601,
      "ÑįÐºÐ¾": 5602,
      "Ð°Ð»Ð¼Ð°": 5603,
      "Ð²ÑĭÑħÐ²Ð°ÑĤÑĭÐ²Ð°": 5604,
      "Ġreven": 5605,
      "Ġass": 5606,
      "Ð²ÐºÐ»Ð°Ð´ÑĭÐ²Ð°": 5607,
      "Ð²ÐºÑĢÑĥÑĩÐ¸Ð²Ð°": 5608,
      "Ð²Ð¾ÑĢÐºÑĥ": 5609,
      "Ð²Ð¾ÑĢÑģÐ¸": 5610,
      "Ð³Ð¾Ð»Ð¾ÑģÐ¸": 5611,
      "Ð²ÑĭÐºÐ°Ð¿ÑĭÐ²Ð°": 5612,
      "Ð·Ð°Ð¿Ð°Ð¸Ð²Ð°": 5613,
      "Ð·Ð»Ð¾ÑĢÐ°": 5614,
      "Ð·Ð°ÑĤÐ°Ð¿Ð»Ð¸Ð²Ð°": 5615,
      "Ð²ÑĭÐºÐ¾Ð»Ð°ÑĩÐ¸Ð²Ð°": 5616,
      "Ġsend": 5617,
      "Ð±ÐµÐ·Ð¾Ð¿Ð°Ñģ": 5618,
      "Ð·Ð°Ð¿ÐµÐ»ÐµÐ½": 5619,
      "Ð·Ð°Ð¿ÐµÑĩÐ°ÑĤÑĭÐ²Ð°": 5620,
      "Ð·Ð°Ð²Ð¸Ñħ": 5621,
      "ÑĤÐ°Ð½ÑĨÐ¾Ð²ÑĭÐ²Ð°": 5622,
      "Ð·Ð°ÑĩÐ¸Ð½Ð°": 5623,
      "Ġprison": 5624,
      "Ð²Ð²ÐµÑĢÑĤÑĭÐ²Ð°": 5625,
      "Ð·Ð°ÑģÐ¾Ð²ÑĭÐ²Ð°": 5626,
      "ÐķÐ²": 5627,
      "Ð·Ð°Ð¿ÑĢÐ°ÑĪÐ¸Ð²Ð°": 5628,
      "Ð²ÑĭÐ¿Ð¸Ð»Ð¸Ð²Ð°": 5629,
      "Ð´ÐµÐ»ÑĮÑĦÐ¸": 5630,
      "Ð²Ð¿Ð¸ÑħÐ¸Ð²Ð°": 5631,
      "Ð²ÑĭÑģÐµÐ¸Ð²Ð°": 5632,
      "fect": 5633,
      "ÑıÑīÐ¸Ñħ": 5634,
      "ÑıÑīÐ¸Ð¼Ð¸": 5635,
      "Ð·Ð°ÐºÐ¸Ð´ÑĭÐ²Ð°": 5636,
      "Ð·Ð°ÑĩÐµÑĢÐ¿ÑĭÐ²Ð°": 5637,
      "Ð·Ð°ÑģÑĥÑĪÐ¸Ð²Ð°": 5638,
      "Ð·Ð°Ð³Ð°Ð¶Ð¸Ð²Ð°": 5639,
      "Ð²ÑĭÑĩÐµÑĢÐºÐ¸Ð²Ð°": 5640,
      "Ð²ÑĭÑĩÐµÑĢÐ¿ÑĭÐ²Ð°": 5641,
      "Ð²ÐºÐ¾Ð»Ð°ÑĩÐ¸Ð²Ð°": 5642,
      "AUTOL": 5643,
      "Ð²ÑĭÐ²ÐµÑĪÐ¸Ð²Ð°": 5644,
      "Ġrather": 5645,
      "Ð±ÑĥÐ»ÑĮÐºÐ°": 5646,
      "Ð²ÑĭÐ¸ÑģÐºÐ¸Ð²Ð°": 5647,
      "Ð°ÑģÑĦÐ°Ð»ÑĮÑĤÐ¸ÑĢÐ¾Ð²Ð°": 5648,
      "Ð²ÑĭÑĤÑĢÑıÑħÐ¸Ð²Ð°": 5649,
      "Ð·Ð°Ð·ÑĥÐ±ÑĢÐ¸": 5650,
      "Ð²ÑĭÑĤÑĢÐµÐ·Ð²Ð¸": 5651,
      "Ð±Ð°Ð»Ð»Ð¾ÑĤÐ¸ÑĢÐ¾Ð²Ð°": 5652,
      "Ð²Ð·Ð³ÑĢÐ¾Ð¼Ð¾Ð¶Ð´Ð°": 5653,
      "Ð²ÑĭÐ»Ð°Ð²Ð»Ð¸Ð²Ð°": 5654,
      "Ð°ÑģÑģÐ¸Ð¼Ð¸Ð»Ñı": 5655,
      "Ð²ÑģÐ°Ð¶Ð¸Ð²Ð°": 5656,
      "Ð²ÑĭÑĪÑĥÑĩÐ¸Ð²Ð°": 5657,
      "Ð´Ð¾Ð¶Ð°ÑĢÐ¸Ð²Ð°": 5658,
      "Ġcountry": 5659,
      "Ġdoubt": 5660,
      "Ð°Ð½ÐµÐºÐ´Ð¾": 5661,
      "Ð´Ð¾ÐºÐ»ÐµÐ¸Ð²Ð°": 5662,
      "Ð±ÑİÐ»Ð»ÐµÑĤ": 5663,
      "COMINIUS": 5664,
      "Ð²ÑģÐºÐ°ÑĢÐ¼Ð»Ð¸Ð²Ð°": 5665,
      "AUTOLYCUS": 5666,
      ".'": 5667,
      "Are": 5668,
      "Even": 5669,
      "More": 5670,
      "Ð°Ð³ÐµÐ½": 5671,
      "Ð²Ð´Ð²Ð¸Ð³Ð°": 5672,
      "Ð½ÐºÐ¾Ð¹": 5673,
      "Ð±ÐµÑĤÐ°": 5674,
      "Ð·Ð°Ð¼Ð¸ÑĢÐ¾Ð²Ð°": 5675,
      "Ð·Ð°Ð´ÐµÐ»Ð°": 5676,
      "Ð¹ÑīÐ¸": 5677,
      "Ð½Ð¾Ð²ÑĭÐµ": 5678,
      "Ð¼Ð¸Ð½ÑĤÐ¾": 5679,
      "ÑĪÐ»Ð¸": 5680,
      "Ð½Ð¸Ð³Ð¸": 5681,
      "ÑĢÐ¸ÑĤÑĮ": 5682,
      "Ð²Ð¸Ð³Ð°": 5683,
      "Ð±Ð°Ð³ÑĢÐ¾": 5684,
      "ÑĢÐ¾Ð²Ð°ÑĤÑĮ": 5685,
      "Ġwish": 5686,
      "Ð·Ð°Ð¿Ð¸Ð²Ð°": 5687,
      "Ð²ÐµÑĢÑĤ": 5688,
      "Ġyears": 5689,
      "ÑģÑĤÐ¾Ð¼Ñĥ": 5690,
      "ÑħÐ¾ÑĤÐ°": 5691,
      "Ð²ÑĭÐ¿ÑĭÑĤÑĭÐ²Ð°": 5692,
      "Ð°ÐºÑĤÑĳÑĢ": 5693,
      "Ð±Ð»Ð°Ð³Ð¾Ð²Ð¾": 5694,
      "ÑĨÐ¸Ð¾Ð½Ð°Ð»Ð¸": 5695,
      "Ð°Ð¼Ð¿ÐµÑĢ": 5696,
      "Ġreason": 5697,
      "Ð³ÑĢÐµÑĪ": 5698,
      "Ġlies": 5699,
      "Ð´Ð¾Ð»Ð±Ð°": 5700,
      "Ġonly": 5701,
      "ARENCE": 5702,
      "ÐµÐ´Ð¸Ð½Ð¾Ð¼Ñĭ": 5703,
      "Ð²ÑĭÐºÐ¾Ð²ÑĭÑĢÐ¸Ð²Ð°": 5704,
      "ÐĶÑĥ": 5705,
      "Third": 5706,
      "Ð·Ð°Ð¿Ð¸ÑħÐ¸Ð²Ð°": 5707,
      "Ġvirt": 5708,
      "Ð´Ð¾ÐºÐ°Ð·ÑĭÐ²Ð°": 5709,
      "Ð·Ð°Ð´ÑĢÐ°Ð¸Ð²Ð°": 5710,
      "Ð·Ð°ÐºÑĢÐµÐ¿Ð¸": 5711,
      "Ð·Ð°ÐºÐ»ÐµÐ¿ÑĭÐ²Ð°": 5712,
      "Ð²Ð´Ð°Ð»Ð±Ð»Ð¸Ð²Ð°": 5713,
      "Ð³Ð¾Ð»ÑĥÐ±": 5714,
      "Ð¶ÑĥÑĢÑĩÐ°": 5715,
      "Ð²ÑĭÐ¸Ð³ÑĢÑĭÐ²Ð°": 5716,
      "Ð·Ð°Ð³Ð»Ð°ÑĤÑĭÐ²Ð°": 5717,
      "Ð´Ð¾ÑĢÐ¸ÑģÐ¾Ð²ÑĭÐ²Ð°": 5718,
      "Ð²Ð¿Ð°Ð¸Ð²Ð°": 5719,
      "Ð³ÐµÐ¼Ð°ÑĤÐ¾": 5720,
      "Ð·Ð°Ð²Ð¾ÐµÐ²Ð°": 5721,
      "Ġtruth": 5722,
      "Ð²Ð¾Ð·Ð½Ð°Ð³ÑĢÐ°Ð¶Ð´Ð°": 5723,
      "Ð²Ð¾Ð¿ÑĢÐ¾ÑĪÐ°": 5724,
      "Ð±ÐµÐ·Ð¼Ð¾Ð»": 5725,
      "Ð·Ð°ÑĪÑĤÑĢÐ¸ÑħÐ¾Ð²ÑĭÐ²Ð°": 5726,
      "Ð²ÑĭÑģÐ²ÐµÑĢÐ»Ð¸Ð²Ð°": 5727,
      "Ð·Ð°ÑĦÑĢÐ°ÑħÑĤÐ¾Ð²ÑĭÐ²Ð°": 5728,
      "Ð²ÑĭÑĤÑĢÐ°Ð²Ð»Ð¸Ð²Ð°": 5729,
      "Would": 5730,
      "ior": 5731,
      "ms": 5732,
      "of": 5733,
      "rance": 5734,
      "ĠBut": 5735,
      "Ð°Ð¿Ð°ÑĤÐ¸": 5736,
      "Ð²Ð¼ÐµÑĢ": 5737,
      "Ð²Ð²ÑĳÑĢÑĤÑĭÐ²Ð°": 5738,
      "Ð½ÐºÐ¾Ñİ": 5739,
      "Ð½ÐµÑĤÑģÑı": 5740,
      "ÑĢÐµÐ¼Ð¾": 5741,
      "ÑĢÐµÐ½Ð¸": 5742,
      "Ð·Ð°Ð²Ñĥ": 5743,
      "Ð·Ð°Ð²Ð°Ð»Ð¸": 5744,
      "Ð·Ð°Ð´ÑĳÑĢÐ³Ð°": 5745,
      "Ð²ÑĭÐ´ÑĳÑĢÐ³Ð¸Ð²Ð°": 5746,
      "Ð²ÑĭÑħÐ°Ð¶Ð¸Ð²Ð°": 5747,
      "ÑĩÐµÐ½Ð¸": 5748,
      "ÑĢÐ¾Ñİ": 5749,
      "Ð²Ð¾ÑģÑĤÑĮÑİ": 5750,
      "Ð²Ð¾Ð³Ð½Ñĥ": 5751,
      "Ð´Ð¾ÑģÑĤÑĥ": 5752,
      "Ð´Ð¾Ð·Ð½Ð°": 5753,
      "ÐºÐ¾Ð²Ð¾Ð¹": 5754,
      "ÑĪÑĤÐ°": 5755,
      "ÐºÐ°ÑĤÐ¾": 5756,
      "Ð½Ð¸Ñħ": 5757,
      "ÐµÑĢÑĭ": 5758,
      "ÐµÑģÐ°": 5759,
      "ÑĤÐ¸Ð²Ð¸": 5760,
      "ÑĢÐ¸ÑĤ": 5761,
      "ÑĢÑĥÐ¶Ð¸": 5762,
      "Ð±Ð°ÑħÐ½Ñĥ": 5763,
      "Ð´ÐµÐ·Ð¸": 5764,
      "Ð»ÑıÑĤ": 5765,
      "Ð»ÑıÑĤÐ¾": 5766,
      "Ð²Ð·Ð¼Ñĥ": 5767,
      "Ð²Ð·Ð±Ð»ÐµÑģ": 5768,
      "ÑĩÐ¸ÑĤ": 5769,
      "ÑĩÐ°Ð¹": 5770,
      "Ġdan": 5771,
      "ÑīÐ¸Ð¼ÑģÑı": 5772,
      "Ð±ÐµÑģÐºÐ¾Ð½": 5773,
      "Ġpers": 5774,
      "Ð²ÑĭÑģÑĩÐ¸ÑĤÑĭÐ²Ð°": 5775,
      "Ð²ÑĭÑģÐ¼Ð°ÑĤÑĢÐ¸Ð²Ð°": 5776,
      "Ð²ÑĭÑģÐ²Ð°ÑĤÑĭÐ²Ð°": 5777,
      "any": 5778,
      "Ð½ÑıÑĤ": 5779,
      "Ð´ÐµÑĢÐ·": 5780,
      "Ð³Ð¾ÑĢÐ»Ð¾": 5781,
      "Ð²Ð¿Ð¸Ð²Ð°": 5782,
      "Ð²ÑĭÐºÑĢÐ°Ð¸Ð²Ð°": 5783,
      "Ð·Ð°ÐºÐ°Ð·ÑĭÐ²Ð°": 5784,
      "Ð·Ð°Ð¼Ð°Ð½Ð¸Ð²Ð°": 5785,
      "Ð²ÑĭÐºÐ°ÑĩÐ¸Ð²Ð°": 5786,
      "Ð·Ð°Ð¿Ð°ÐºÐ¾": 5787,
      "Ð¾Ð±ÑĢÐ°Ð·Ð¾Ð²Ð°": 5788,
      "Ð²ÑĭÐºÐ¾Ð²ÑĭÐ²Ð°": 5789,
      "ÑĪÐµÐ½Ñĭ": 5790,
      "Ð¿Ð¾ÑĢÑħÐ½Ñĥ": 5791,
      "Ð²ÑĭÑĢÐ°Ð±Ð¾ÑĤÐ°": 5792,
      "Ð·Ð°Ð¿ÑĥÑĤÐ°": 5793,
      "Ð·Ð°Ð´ÑĥÐ¼Ð°": 5794,
      "Ð²ÑĭÐ¿Ð°Ð»ÑĭÐ²Ð°": 5795,
      "Ð²ÑĭÑĤÐ°ÑģÐºÐ¸Ð²Ð°": 5796,
      "Ð·Ð°Ð³ÑĢÑĥÐ½ÑĤÐ¾Ð²ÑĭÐ²Ð°": 5797,
      "Ð²ÑģÑĤÑĢÐµÐ²Ð¾": 5798,
      "Ð¾ÑĤÑģÑĤÑĥÐ¿": 5799,
      "Ð²ÑģÐ¿ÑĥÐ³Ð¸Ð²Ð°": 5800,
      "Ð·Ð°ÑģÑĤÐ¸ÑĢÑĭÐ²Ð°": 5801,
      "Ð²ÑĭÑĪÐ²ÑĭÑĢÐ¸Ð²Ð°": 5802,
      "Ð²ÑĤÐ°ÑģÐºÐ¸Ð²Ð°": 5803,
      "ÑģÑĤÑĢÑĥÐº": 5804,
      "Ð²ÑĭÑĥÐ¶Ð¸Ð²Ð°": 5805,
      "Ð·Ð°Ð²ÑĤÑĢÐ°": 5806,
      "Ð²ÑĭÑĤÐµÑģÑĭÐ²Ð°": 5807,
      "Ð²ÑĭÑĩÑĳÑĢÐºÐ¸Ð²Ð°": 5808,
      "Ð·Ð°Ð±ÐµÐ»Ð¸Ð²Ð°": 5809,
      "Ð³Ð¾ÑĢÑıÑĩÐµ": 5810,
      "Ð²ÑģÐºÐ°Ð¿ÑĭÐ²Ð°": 5811,
      "Ġbreath": 5812,
      "Ð²Ð²Ð¾ÑĢÐ°ÑĩÐ¸Ð²Ð°": 5813,
      "Ð²ÑĭÑģÐºÐ¾Ð»ÑĮ": 5814,
      "Ð²ÑĭÐ½ÑĥÐ¶Ð´Ð°": 5815,
      "Ð´Ð¾Ð¼ÑĭÑģÐ»Ð¸Ð²Ð°": 5816,
      "Ġarms": 5817,
      "Ð·Ð°ÐºÐ»ÑĳÐ¿ÑĭÐ²Ð°": 5818,
      "ÐºÐ¸Ð»Ð¾Ð³ÑĢÐ°Ð¼Ð¼Ð¾": 5819,
      "Ð²ÑĤÐ¾Ð»ÐºÐ¾Ð²ÑĭÐ²Ð°": 5820,
      "Ð·Ð°ÑĪÐ¸ÑĦÑĢÐ¾Ð²ÑĭÐ²Ð°": 5821,
      "Ð²ÑĭÑĨÐµÐ¶Ð¸Ð²Ð°": 5822,
      "Ġdream": 5823,
      "CLARENCE": 5824,
      "Ð·Ð°Ð´ÑĥÑĢÐ¼Ð°Ð½Ð¸Ð²Ð°": 5825,
      "pherd": 5826,
      "BEN": 5827,
      "MAR": 5828,
      "NOR": 5829,
      "dd": 5830,
      "der": 5831,
      "Ð²Ð±Ð¸ÑĢÐ°": 5832,
      "ÑģÐ½Ðµ": 5833,
      "ÑģÐºÐµ": 5834,
      "Ð·Ð°ÑħÐ°": 5835,
      "Ð·Ð°Ð²ÐµÐ´": 5836,
      "Ð·Ð°Ð´ÑĢÐµÐ¼": 5837,
      "ÑĭÑĤÐ°": 5838,
      "Ð²Ð¾ÑģÑĤÑĢÐ¾": 5839,
      "Ð³Ð¾Ð´Ð¸": 5840,
      "Ð´Ð¾Ð¼Ðµ": 5841,
      "Ð´Ð¾Ð±ÐµÐ³Ð°": 5842,
      "Ð²Ð¸ÑģÐµ": 5843,
      "Ð´Ð¸ÑģÑĤ": 5844,
      "Ð±Ð°ÑĤÑĥ": 5845,
      "Ð±Ð¾Ð¶": 5846,
      "Ġsent": 5847,
      "Ð¼ÑĥÑĤÐ°": 5848,
      "ÑĢÐµÐ»Ð¸": 5849,
      "Ð»ÐµÑı": 5850,
      "Ð¿Ð¾Ð²": 5851,
      "Ð°Ð½Ð³Ð¸Ð´ÑĢÐ¸": 5852,
      "ener": 5853,
      "Ð³ÑĢÐ°Ð½Ð°": 5854,
      "Ġgi": 5855,
      "ÑģÐ°Ð´Ð¾": 5856,
      "Ð°Ð½ÑĤÐ¸Ð¼Ð¸": 5857,
      "Ð´ÑĢÐ°ÐºÐ¾": 5858,
      "Ð°ÑģÐ±ÐµÑģÑĤÐ¾": 5859,
      "Ð·Ð°Ð¿Ð¾Ñı": 5860,
      "Ġstra": 5861,
      "ÑĢÐ¾Ð²ÐºÐ°": 5862,
      "Ð·Ð°ÐºÑĥÑĤÐ°": 5863,
      "Ġshalt": 5864,
      "Ð·Ð°Ð±Ð»Ð¾": 5865,
      "Ð·Ð°Ð¼ÐµÑĪÐ°": 5866,
      "Ð´ÑĢÐµÐ²Ð¾": 5867,
      "ÑĤÑıÑĤ": 5868,
      "Ð·Ð°ÑĢÐ°ÑīÐ¸Ð²Ð°": 5869,
      "Ð·Ð°Ð»ÐµÐ´ÐµÐ½Ðµ": 5870,
      "Ð²Ð¾ÑģÑĮÐ¼Ð¸Ð´ÐµÑģÑıÑĤÐ¸": 5871,
      "Ð²Ð¾Ð»ÑĮÑĤÐ¸": 5872,
      "Ð±ÐµÑģÑģÐ»Ð°": 5873,
      "Ð·ÑĭÐ²": 5874,
      "Ð·Ð°Ð½Ð°ÑĢÑı": 5875,
      "Ð·Ð°ÐºÑĢÐµÐ¿": 5876,
      "Ð·Ð¸ÑĢÐ¾Ð²Ð°Ð½Ð½ÑĭÐ¹": 5877,
      "Ð´ÐµÑģÐ°Ð½ÑĤÐ¸": 5878,
      "Ð²ÑĭÐ¶Ð¸Ð´Ð°": 5879,
      "Ð±Ð°Ð»ÑĮÐ½Ðµ": 5880,
      "Ð²Ð´Ð¾ÑħÐ½Ð¾Ð²": 5881,
      "Ð·Ð°ÑıÐ²Ð¸": 5882,
      "Ġdisc": 5883,
      "Ð²ÑĭÑģÑĤÐ°Ð¸Ð²Ð°": 5884,
      "Ð´ÐµÐ½Ð°ÑĨÐ¸Ð¾Ð½Ð°Ð»Ð¸": 5885,
      "Ð²ÑĭÐºÐ¾ÑĢÑĩÑĳ": 5886,
      "Ð·Ð°ÐºÐ¾Ð½ÑģÐµÑĢ": 5887,
      "Ð³Ð¾ÑĦÑĢÐ¸ÑĢÐ¾Ð²Ð°": 5888,
      "Ð·Ð°Ð³ÑĢÐ¸Ð¼Ð¸": 5889,
      "Ð²Ð¾Ð´ÑĢÑĥÐ¶Ð°": 5890,
      "Ð³ÐµÐºÑģÐ°": 5891,
      "VOLIO": 5892,
      "Ð·Ð°ÐºÑĢÐ¸ÑģÑĤÐ°Ð»Ð»Ð¸": 5893,
      "Clown": 5894,
      "Ġbusiness": 5895,
      "BENVOLIO": 5896,
      "Al": 5897,
      "At": 5898,
      "PRO": 5899,
      "SPER": 5900,
      "by": 5901,
      "Ð·ÐµÐ½Ð¸": 5902,
      "Ð´Ð¶Ð¾": 5903,
      "ÑĥÐºÐ°": 5904,
      "Ð³Ð²Ð°ÑĢ": 5905,
      "Ð²Ð°Ð¶Ð°": 5906,
      "Ð²ÑĭÐ³Ð½Ñĥ": 5907,
      "Ð½Ð¾Ð²Ð¾Ñİ": 5908,
      "Ð²Ð¾ÑģÑĤÑĢÐµ": 5909,
      "Ð³Ð¾Ð²": 5910,
      "Ð´Ð¾Ð´ÑĥÐ¼Ð°": 5911,
      "Ð¶ÐµÑĤ": 5912,
      "ÐºÐ¾Ð²ÑĭÑħ": 5913,
      "ÐºÐ¾Ð²ÑĭÐµ": 5914,
      "ÐºÐ¾Ð²ÑĭÐ¼Ð¸": 5915,
      "ÐºÐ¾Ð²Ð¾Ð¼": 5916,
      "Ð½Ð¸Ð²ÑĪÐ¸Ð¹": 5917,
      "hed": 5918,
      "Ð²Ð¸Ð°": 5919,
      "Ð²Ð¸ÑģÐºÐ¾": 5920,
      "ÑĢÑĥÐµÑĤ": 5921,
      "Ð´ÐµÐµ": 5922,
      "Ð´ÐµÐ³": 5923,
      "Ġsen": 5924,
      "Ð°Ð½Ðµ": 5925,
      "ÑģÐ¾Ð±": 5926,
      "Ð·Ð¾Ð²": 5927,
      "Ð¶Ð¸ÑĤ": 5928,
      "Ð²Ð¾Ð·Ð¼Ð¾": 5929,
      "Ð²Ð¾Ð·Ð²Ðµ": 5930,
      "ÑĪÐ¸Ð½": 5931,
      "Ġprom": 5932,
      "Ð±ÑĢÐ°ÑĤÐ¸": 5933,
      "ÐµÑĤÐµÐ»ÑĮ": 5934,
      "Ð·Ð°ÐºÐ»Ñİ": 5935,
      "Ð¼ÐµÑĤÑĢÐ°": 5936,
      "Ð´ÑĢÐ°Ð¿Ð°": 5937,
      "Ð³Ð¾ÑĢÐ±Ð¸": 5938,
      "Ð²ÑĭÐºÐ»ÑĳÐ²ÑĭÐ²Ð°": 5939,
      "Ð²ÑĭÐºÐ»ÐµÐ²ÑĭÐ²Ð°": 5940,
      "Ð·Ð°ÐºÐ°Ð²Ñĭ": 5941,
      "Ð²ÑĭÑĤÐ²Ð¾ÑĢÑı": 5942,
      "Ð²ÑĭÑĤÑĳÑģÑĭÐ²Ð°": 5943,
      "Ð·Ð°Ð¿Ð°ÑĩÐºÐ°": 5944,
      "Ð³ÑĢÐ¸Ð¼Ð¸ÑĢÐ¾Ð²Ð°": 5945,
      "Ð·Ð°ÑĤÐ°ÑģÐºÐ¸Ð²Ð°": 5946,
      "Ð²Ð¾Ð»ÑĪÐµ": 5947,
      "Ð´Ð»Ð¸Ð½": 5948,
      "Ð·Ð°ÑģÐµÐ´Ð°": 5949,
      "ÑĳÐ¼ÑģÑı": 5950,
      "Ð²ÑĭÐ¿Ð°ÑĩÐºÐ°": 5951,
      "Ð²ÑĭÑĤÐ°Ð¿ÑĤÑĭÐ²Ð°": 5952,
      "ÑģÑĤÐ²ÐµÐ½Ð½ÑĭÐ¹": 5953,
      "Ð·Ð°ÑĩÐµÑĢÐºÐ¸Ð²Ð°": 5954,
      "Ð²ÑĭÑĩÐµÑĢÑĩÐ¸Ð²Ð°": 5955,
      "Ð²ÐºÐ¾Ð»Ð¾": 5956,
      "Ġholy": 5957,
      "Ð¿ÑĢÐ¾Ð¸Ð·Ð²Ð¾Ð´": 5958,
      "Ð·Ð°ÑģÑĤÐ¸Ð»Ð°": 5959,
      "Ð´ÐµÐºÐ¾Ð»ÑĮ": 5960,
      "Ġenough": 5961,
      "ÑīÐ¸ÐµÑģÑı": 5962,
      "Ð²Ð¸ÑĩÐ°Ð¼": 5963,
      "Ð°ÐºÐ°Ð´ÐµÐ¼Ð¸": 5964,
      "Ð´ÑĢÐµÑģÑģÐ¸ÑĢÐ¾Ð²Ð°": 5965,
      "erving": 5966,
      "Ð²Ð¿ÐµÑĩÐ°ÑĤÑĭÐ²Ð°": 5967,
      "Ġcommand": 5968,
      "UMIO": 5969,
      "GRUMIO": 5970,
      "Ð²ÑĭÐ´ÑĢÐ°Ð¸Ð²Ð°": 5971,
      "Ð²Ð¸ÑĩÐµÐ¹": 5972,
      "Ð²Ð´ÑĥÐ²Ð°": 5973,
      "Ð°Ð³Ð»Ð¾Ð¼ÐµÑĢÐ¸": 5974,
      "Ð°ÑĢÐµÑģÑĤÐ¾Ð²ÑĭÐ²Ð°": 5975,
      "PROSPER": 5976,
      "PROSPERO": 5977,
      "ia": 5978,
      "ken": 5979,
      "Ð°Ð½Ð¸Ð¼Ð°": 5980,
      "Ð½ÑĨÐµ": 5981,
      "ÑģÐ½Ð°Ñı": 5982,
      "Ð·ÑĳÑĢ": 5983,
      "Ð´Ð¶Ð°Ð½": 5984,
      "ÑĥÐ±Ð¸Ð¹": 5985,
      "Ð·Ð°ÑĩÐµÑģ": 5986,
      "Ð½Ð¾Ð²Ð¾Ðµ": 5987,
      "Ð½Ð¾Ð²ÑĥÑİ": 5988,
      "Ð½Ð¾Ð²Ð¾Ð³Ð¾": 5989,
      "Ð½Ð¾Ð²Ð¾Ð¼Ñĥ": 5990,
      "Ð²Ð¾ÑĢÐµ": 5991,
      "Ð´Ð¾ÐºÑĤÐ¾": 5992,
      "Ð»Ð°ÑĨ": 5993,
      "ÑĨÐµÑģ": 5994,
      "Ð²Ð¸ÑĩÐ¸": 5995,
      "Ð´Ð¸Ð²": 5996,
      "ÑĢÑĥÐµÐ¼": 5997,
      "ÑĢÑĥÐµÑĤÐµ": 5998,
      "ÑĢÑĥÐµÑĪÑĮ": 5999,
      "Ð±Ð°Ð´": 6000,
      "Ð±Ð°ÐºÐ°": 6001,
      "Ð±Ð°ÑĨÐ¸": 6002,
      "Ġsea": 6003,
      "ÑĤÐµÐ¸": 6004,
      "Ġwind": 6005,
      "Ð»ÑıÑģÐ°": 6006,
      "Ð³Ð¸Ð³Ð¸": 6007,
      "itt": 6008,
      "Ġcra": 6009,
      "Ġlay": 6010,
      "Ð³ÑĢÐ°Ð´Ð¸ÑĢÐ¾Ð²Ð°": 6011,
      "ars": 6012,
      "Ġpity": 6013,
      "ÑģÑĤÐ¾ÑĢÐ¸": 6014,
      "ÑĪÐµÐ´": 6015,
      "ator": 6016,
      "Ġbea": 6017,
      "Ġhang": 6018,
      "ÑĩÐµÐ¹": 6019,
      "Ð³Ð¾ÑĢÑĩÐ¸": 6020,
      "ÐĴÐµÑĢ": 6021,
      "Ġstran": 6022,
      "Ġsold": 6023,
      "Ð±Ð¾ÑĢÑĤ": 6024,
      "Ð²ÐºÐ»Ð°": 6025,
      "Ð´Ð¾ÑģÐ¼Ð°ÑĤÑĢÐ¸Ð²Ð°": 6026,
      "Ð·Ð°Ð¼ÐºÐ½Ñĥ": 6027,
      "Ð·Ð°Ð¼ÐµÑģÑĤÐ¸": 6028,
      "Ð·Ð°Ð¼ÐµÑĪÐ¸Ð²Ð°": 6029,
      "ÐĶÐ¾": 6030,
      "Ð·Ð°Ð¼Ð¾ÑĤÐ°": 6031,
      "Ġspir": 6032,
      "Ġfare": 6033,
      "Ð²ÐºÐ°Ð¿ÑĭÐ²Ð°": 6034,
      "Ġproud": 6035,
      "ĠMurderer": 6036,
      "Ð²ÑĭÑĩÐ¸ÑĤÑĭÐ²Ð°": 6037,
      "Ð·Ð°Ð´ÐµÑĢÐ³Ð°": 6038,
      "Ġswear": 6039,
      "Ð´ÐµÐ²ÑıÐ½Ð¾": 6040,
      "Ð´Ð¸Ð¾Ð¿": 6041,
      "Ð²ÑĭÐ»ÐµÑĩÐ¸Ð²Ð°": 6042,
      "Ð²Ð¼ÐµÑĪÐ°": 6043,
      "Ð·Ð°Ð²ÑıÐ·Ð°": 6044,
      "Ð¶ÐµÐ¼ÑĩÑĥ": 6045,
      "Ð²ÑĭÐ¿ÑĢÑıÐ³Ð°": 6046,
      "ÑīÐ¸ÑħÑģÑı": 6047,
      "ÑīÐ¸Ð¼Ð¸ÑģÑı": 6048,
      "Ð³ÐµÑĢÐ¾Ð¹": 6049,
      "Ð²Ð¸ÑĩÐ°Ñħ": 6050,
      "Ð²Ð¸ÑĩÐ°Ð¼Ð¸": 6051,
      "ÐµÑģÑĤÐµÑģÑĤÐ²Ð¾": 6052,
      "Ð²ÑģÑĤÑĥÐ¿Ð¸": 6053,
      "Ġcontent": 6054,
      "Ð²ÑĭÑģÑĤÑĢÐ¸Ð³Ð°": 6055,
      "Ð²Ð·ÑĢÑĭÑħÐ»Ñı": 6056,
      "MERCU": 6057,
      "Ð²Ð¾ÑģÐºÐ»Ð¸ÑĨÐ°": 6058,
      "MERCUTIO": 6059,
      "ike": 6060,
      "Ð°Ð³ÑĢÐ°": 6061,
      "Ð°Ð»Ð¾Ð³Ð¸": 6062,
      "Ð³Ð»Ñĭ": 6063,
      "Ð²Ð°ÑĤÐ°": 6064,
      "Ð²Ð°ÑĢÑı": 6065,
      "Ð²ÑĭÐ±Ð¸": 6066,
      "ÑģÑĤÑĥÑİ": 6067,
      "ÑĢÐ°ÑĤÐ¸Ð²": 6068,
      "Ð´Ð¾Ð½Ð¸": 6069,
      "Ð´Ð¾ÑĦÐ¸": 6070,
      "Ð´Ð¾Ð²Ð¾Ðµ": 6071,
      "Ð´Ð¾ÑģÑĤÑĢÐ¸": 6072,
      "Ð´Ð¾ÑĩÐ¸ÑĤÑĭÐ²Ð°": 6073,
      "Ð´Ð¾Ð³Ð»Ð°Ð¶Ð¸Ð²Ð°": 6074,
      "ÐºÐ¾Ð²Ð¾Ðµ": 6075,
      "Ð¼Ð¸Ð½Ð¸ÑĢÐ¾Ð²Ð°": 6076,
      "Ð´Ð¸ÑĤÑĮ": 6077,
      "Ð´Ð¸ÐºÐ°ÑĢ": 6078,
      "Ð½ÑĥÐ²ÑĪÐ¸Ð¹": 6079,
      "Ð·Ð°Ð¿Ð»ÐµÑĤ": 6080,
      "Ð±ÑĥÐ·Ð¸": 6081,
      "Ð²ÑģÐµÐ¼Ð¸": 6082,
      "Ð¶Ð¸Ð»": 6083,
      "Ð¶Ð¸Ð»Ð¾": 6084,
      "Ġdare": 6085,
      "Ð¶Ð°ÑĤ": 6086,
      "Ð³ÑĢÐ°Ð¼Ð¾": 6087,
      "ÑīÐ¸ÐºÐ°": 6088,
      "ÑīÐ¸ÐºÐ¾Ð²": 6089,
      "Ð·Ð°ÑģÐ²ÐµÑĤ": 6090,
      "Ð¼ÐµÐ»Ð¸Ð¾": 6091,
      "Ð²ÑĭÐ¿Ð»ÐµÐ²ÑĭÐ²Ð°": 6092,
      "eter": 6093,
      "Ð·Ð°ÐºÐ¾Ð»Ð°ÑĩÐ¸Ð²Ð°": 6094,
      "Ð³ÑĢÑĥÐ±Ð¸": 6095,
      "Ð²Ð¿ÑĢÐµÑģÑģÐ¾Ð²ÑĭÐ²Ð°": 6096,
      "Ð°Ð»ÐºÐ°": 6097,
      "Ð°Ð»ÐºÐ¸": 6098,
      "ÑĢÐµÐ½ÑĮ": 6099,
      "Ð±ÑĭÑģÑĤ": 6100,
      "Ð·Ð°Ð¸Ð³ÑĢÐ°": 6101,
      "Ð±Ð¸Ð¾Ð³ÑĢÐ°ÑĦÐ¸": 6102,
      "Ġlives": 6103,
      "Ġdep": 6104,
      "Ð²Ð¾ÐµÐ²Ð¾Ð´": 6105,
      "Ð²ÑĭÐºÐ°ÑĪÐ¸Ð²Ð°": 6106,
      "Ð·Ð°ÐºÑĥÑĢÐ¸Ð²Ð°": 6107,
      "Ð´Ð¾ÑģÑĭÐ¿Ð°": 6108,
      "Ð³Ð½ÑĥÑģÐ°": 6109,
      "Ð²ÐµÐ´ÑĳÑĢ": 6110,
      "Ð²ÑĭÐ¼Ð°ÑĢÑĭÐ²Ð°": 6111,
      "Ġsec": 6112,
      "Ð·Ð°ÑĢÐ°Ð±Ð¾ÑĤÐ°": 6113,
      "Ð·Ð²ÑĥÑĩÐ°": 6114,
      "Ġvillain": 6115,
      "Ð·Ð°ÑĩÐ¸ÑīÐ°": 6116,
      "Ð²ÑĭÑĤÐ°Ð¿Ð»Ð¸Ð²Ð°": 6117,
      "Ð·Ð°ÑīÐ¸ÑĤÐ¸": 6118,
      "Ð²ÑĭÐ¿ÑĥÑĤÐ°": 6119,
      "Ð²Ð²ÐµÑĢÑģÑĤÑĭÐ²Ð°": 6120,
      "Ð´Ð¾ÑĢÐ°Ð±Ð¾ÑĤÐ°": 6121,
      "Ð²ÑĭÑĩÐ¸ÑģÐ»Ð¸": 6122,
      "Ð²ÑĭÐºÑĥÑĢÐ¸Ð²Ð°": 6123,
      "Ð²Ð·ÑĬÑı": 6124,
      "Ð·Ð°Ð¼ÑĭÐ·Ð³Ð°": 6125,
      "gainst": 6126,
      "Ð°Ð·Ð¾ÑĤ": 6127,
      "Ð²Ð¿ÑĥÑĤÐ°": 6128,
      "Ð±ÐµÑĤÐ¾Ð½Ð¾": 6129,
      "Ð²ÑĭÐ²ÐµÐ´ÑĭÐ²Ð°": 6130,
      "Ð·Ð°ÑĢÐ¸ÑģÐ¾Ð²ÑĭÐ²Ð°": 6131,
      "Ð±ÑĢÐ¾Ð½ÑħÐ¾": 6132,
      "Ð²ÑĭÑĤÑĢÑıÑģÐ°": 6133,
      "Ð·Ð°ÑĩÑĳÑĢÐºÐ¸Ð²Ð°": 6134,
      "ĠKate": 6135,
      "Ð·Ð°Ð±ÑĢÑĭÐ·Ð³Ð°": 6136,
      "Ð²ÑĭÑĪÐ¸Ð±Ð°": 6137,
      "Ð·ÐµÐ»ÐµÐ½Ðµ": 6138,
      "LUCENTIO": 6139,
      "Ð·Ð°Ð½ÑĥÐ¼Ðµ": 6140,
      "Ġremem": 6141,
      "Ð¶ÐµÑĢÑĤÐ²Ð¾": 6142,
      "Ð²Ð¾ÑģÑħÐ²Ð°Ð»Ñı": 6143,
      "Ð°ÑĢÑħÐµÐ¾": 6144,
      "Ð³Ð¾Ð¼ÐµÐ¾": 6145,
      "Ġnature": 6146,
      "Ð²ÑĭÐºÐ¾ÑĢÑĩÐµÐ²ÑĭÐ²Ð°": 6147,
      "Ġwelcome": 6148,
      "Ð²Ð¾Ð»ÑĪÐµÐ±": 6149,
      "POM": 6150,
      "Tw": 6151,
      "com": 6152,
      "unt": 6153,
      "Ð½ÑĤÐµÑĢ": 6154,
      "ÑģÐ½ÑĭÐ¼": 6155,
      "ÑģÐ½Ð¾Ð¹": 6156,
      "ÑĥÑĢ": 6157,
      "ÑĥÑħÐ¾": 6158,
      "Ð·Ð°Ð´": 6159,
      "Ð²Ð°Ð¼": 6160,
      "Ð²ÑĭÐ´ÐµÐ»Ð¸": 6161,
      "Ð²ÑĭÑĤÐ°Ð½ÑĨÐ¾Ð²ÑĭÐ²Ð°": 6162,
      "ÑĩÑĮÐ¸": 6163,
      "ÑģÑĤÐ°Ñı": 6164,
      "Ð´Ð¾ÑĩÐ¸ÑĤÐ°": 6165,
      "Ð´Ð¾Ð±ÐµÐ»Ð¸Ð²Ð°": 6166,
      "Ð¶Ð½Ð¸": 6167,
      "ÐºÐ¾Ð²Ð¾Ñİ": 6168,
      "ÐºÐ¾Ð²ÑĥÑİ": 6169,
      "ÐºÐ¾Ð²Ð¾Ð³Ð¾": 6170,
      "ÐºÐ¾Ð²Ð¾Ð¼Ñĥ": 6171,
      "Ð½Ð¸Ð»Ð°": 6172,
      "ÐµÑĢÐ·Ð°": 6173,
      "Ġtend": 6174,
      "ÑĤÐ¾Ð²ÑĭÐ¹": 6175,
      "Ð±Ð°ÑİÐºÐ°": 6176,
      "Ð±Ð¾Ñģ": 6177,
      "Ð±Ð¾Ð´ÑĢ": 6178,
      "ham": 6179,
      "Ð²ÐµÐ´Ð¾Ð¼": 6180,
      "ÑĩÐ¸ÑĪÑĮ": 6181,
      "Ġfree": 6182,
      "ÑģÐ¸Ð¹": 6183,
      "Ð²ÐµÑĢÐ±Ð°Ð»Ð¸": 6184,
      "Ð²Ð¾Ð·Ð³Ð¾ÑĢÐ°": 6185,
      "ÑīÐ¸ÐºÐ¸": 6186,
      "ÑīÐ¸ÐºÑĥ": 6187,
      "ÑīÐ¸ÐºÐµ": 6188,
      "ÑīÐ¸ÐºÐ¾Ð¼": 6189,
      "ÑīÐ¸ÐºÐ°Ð¼": 6190,
      "ÑīÐ¸ÐºÐ°Ð¼Ð¸": 6191,
      "ÑīÐ¸ÐºÐ°Ñħ": 6192,
      "ÑĢÑĭÑģÐ½Ñĥ": 6193,
      "Ġgre": 6194,
      "Ġget": 6195,
      "Ð²ÑĭÐ¿Ð»ÑĳÐ²ÑĭÐ²Ð°": 6196,
      "Ġint": 6197,
      "Ð²ÑıÑĤ": 6198,
      "Ð¿ÑĢÐ¾Ð¼Ñĭ": 6199,
      "ÑĳÑĢÐ·Ð°": 6200,
      "Ð²Ð¾Ð´Ð¾Ð¿Ð¾": 6201,
      "Ġwithin": 6202,
      "Ð¶ÑĥÑĤ": 6203,
      "Ġkiss": 6204,
      "Ð³ÑĢÐµÐ±ÐµÐ½": 6205,
      "ÐĵÐµÑĢ": 6206,
      "Ð½ÐµÐ½ÑĮÐºÐ¸": 6207,
      "ester": 6208,
      "ĠCome": 6209,
      "Ð·Ð°ÑĥÐ¶Ð¸Ð²Ð°": 6210,
      "Ð²ÑĭÐ¿Ð°ÑĢ": 6211,
      "Ð¶ÑĳÐ»": 6212,
      "Ġgods": 6213,
      "Ð´Ð²Ð°Ð´ÑĨÐ°ÑĤÐ¸Ð¿ÑıÑĤÐ¸": 6214,
      "ÑıÑīÐ¸Ð¹": 6215,
      "Ġsaw": 6216,
      "Ġmadam": 6217,
      "Ð·Ð°ÑģÑĤÐ¾Ð»": 6218,
      "Ð²ÐµÐ»Ð¸ÐºÐ¾Ð´ÑĥÑĪ": 6219,
      "Ð²ÑĭÑģÐ»ÑĥÐ¶Ð¸Ð²Ð°": 6220,
      "Ð±ÑĥÐ½ÐºÐµ": 6221,
      "LAND": 6222,
      "Ð²Ð²Ð¾Ð»Ð°ÐºÐ¸Ð²Ð°": 6223,
      "Ð²ÑĤÑĢÐ°Ð²Ð»Ð¸Ð²Ð°": 6224,
      "Ð·Ð°Ð¿Ð°Ð´Ð½Ð¾": 6225,
      "ÐµÑħÐ¸Ð´": 6226,
      "Ð³ÐµÑĢÐ¼Ð°Ð½Ð¾": 6227,
      "Ð²Ð²ÑĳÑĢÑģÑĤÑĭÐ²Ð°": 6228,
      "Ġhappy": 6229,
      "Ġsovereign": 6230,
      "POMP": 6231,
      "LINA": 6232,
      "PAU": 6233,
      "apt": 6234,
      "Ð²Ð»Ñĳ": 6235,
      "ÑģÐ½ÑĭÑħ": 6236,
      "ÑģÐ½ÑĥÑİ": 6237,
      "ÑģÐ½ÑĭÐ¼Ð¸": 6238,
      "ÑģÐ½ÑĭÐµ": 6239,
      "ÑģÐ½Ð¾Ð¼": 6240,
      "ÑģÐ½Ð¾Ñİ": 6241,
      "ÑģÐ½Ð¾Ð³Ð¾": 6242,
      "ÑģÐ½Ð¾Ðµ": 6243,
      "ÑģÐ½Ð¾Ð¼Ñĥ": 6244,
      "ÐºÑģ": 6245,
      "Ð·Ð°Ð½Ð¾ÑģÐ¸": 6246,
      "Ð²Ð°Ð·Ð¾": 6247,
      "Ð²ÑĭÐ³Ð°Ð´ÑĭÐ²Ð°": 6248,
      "ÑĮÑĤÐµ": 6249,
      "ÑģÑĤÐºÐ¸": 6250,
      "ÐµÐ¼Ðµ": 6251,
      "Ð³Ð¾Ð´Ð¾": 6252,
      "Ð´Ð¾Ð½Ð¸Ð¼Ð°": 6253,
      "Ð´Ð¾Ð²ÑıÐ·ÑĭÐ²Ð°": 6254,
      "ÑĪÐµÐ¼ÑģÑı": 6255,
      "Ð½Ð¸ÑĪÑĮ": 6256,
      "Ð»Ð¾Ð³": 6257,
      "Ð±Ð°ÑģÐ¸": 6258,
      "Ġserv": 6259,
      "Ġsister": 6260,
      "Ġsomet": 6261,
      "Ð´Ð°Ð·": 6262,
      "Ð±ÐµÑģÑĤÐ°": 6263,
      "Ð¿Ð¾Ñĩ": 6264,
      "Ð¿Ð¾ÑģÐ¾Ð±": 6265,
      "hal": 6266,
      "Ð·Ð°Ð¿ÐµÑĢ": 6267,
      "Ð²ÑģÐµÑģÐ¾": 6268,
      "Ġfoul": 6269,
      "Ð²Ð¾Ð·Ð½Ð¾ÑģÐ¸": 6270,
      "Ġcity": 6271,
      "Ð·Ð°ÑģÐ°Ñħ": 6272,
      "Ð°ÑĢÑħÐ°Ð½": 6273,
      "Ð·Ð°ÑĤÑĢÑı": 6274,
      "Ð²Ð¾ÑģÐµÐ¼": 6275,
      "Ð²Ð¾ÑģÑģÐµ": 6276,
      "Ð½ÑıÑħ": 6277,
      "Ð½ÑıÐ¼Ð¸": 6278,
      "Ð·Ð°ÐºÐ¾Ð¿Ð°": 6279,
      "Ð°Ð½ÑĤÐ¸Ð¾": 6280,
      "Ð³ÑĢÐ¾Ð¼Ð°": 6281,
      "Ð·Ð°ÐºÐ°ÑĢÐ¼Ð»Ð¸Ð²Ð°": 6282,
      "Ð²Ð¾Ð´Ð²Ð¾ÑĢÑı": 6283,
      "Ð·Ð°Ð¼Ð°Ð»Ð¸Ð²Ð°": 6284,
      "ÐĳÐµ": 6285,
      "Ð¿ÑĢÐ¸ÐµÐ¼": 6286,
      "vers": 6287,
      "Ð²ÑĳÐ·": 6288,
      "Ð²ÑĭÐ¼Ð°ÑĢÐ°": 6289,
      "Ð³ÐµÐ¾Ð³ÑĢÐ°ÑĦÐ¸": 6290,
      "Ð·Ð°Ð¿ÑĥÐ·Ñĭ": 6291,
      "Ð·Ð°Ð¿ÑĢÐ¾Ð¿Ð°": 6292,
      "Ð²ÑĭÐ¼Ð¾ÑĤÐ°": 6293,
      "Ð·Ð°ÑĩÐ¸ÑĤÐ°": 6294,
      "Ð·Ð°Ð´Ð°Ð²Ð°": 6295,
      "Ð·Ð°Ð²Ð¾ÑĢÐ°Ð¶Ð¸Ð²Ð°": 6296,
      "Ð²ÑĩÐ°": 6297,
      "Ð²ÑĭÐºÑĥÑģÑĭÐ²Ð°": 6298,
      "Ð·Ð°Ð»Ð¸Ð·ÑĭÐ²Ð°": 6299,
      "Ð²ÑĭÐ²ÐµÐ¸Ð²Ð°": 6300,
      "Ð²ÑĤÐµÐ¼Ñı": 6301,
      "Were": 6302,
      "Ð´Ð¾ÑģÑĤÐ¸ÑĢÑĭÐ²Ð°": 6303,
      "Ð´Ð¾Ð»Ð¸Ð·ÑĭÐ²Ð°": 6304,
      "Ð²ÑĭÐ¿ÐµÐ²Ð°": 6305,
      "Ð±ÑĢÐ°ÐºÐ¾Ð½ÑĮÐµÑĢ": 6306,
      "Ð°Ð²ÑģÑĤÑĢÐ°Ð»Ð¸": 6307,
      "Ð²Ð¾ÑģÐ¿Ð¾Ð¼Ð¸Ð½Ð°": 6308,
      "Ð²ÑĭÑīÐ¸Ð¿ÑĭÐ²Ð°": 6309,
      "ÐµÐ²ÑĢÐ¾Ð¿ÐµÐ¸": 6310,
      "Ð·Ð°Ð¼Ð°ÑģÐºÐ¸ÑĢÐ¾Ð²ÑĭÐ²Ð°": 6311,
      "Ð²Ð¿Ð»Ð°Ð²Ð»Ñı": 6312,
      "Ð½Ð¾Ð¼ÐµÑĤÑĢÐ¸": 6313,
      "Ð²ÑĭÑģÐ¼Ð¾ÑĢÐºÐ°": 6314,
      "Ð²ÑĭÐ·ÑĥÐ±ÑĢÐ¸Ð²Ð°": 6315,
      "Ġbeseech": 6316,
      "Ð´Ð¸ÐºÑĤÐ°ÑĤÐ¾ÑĢ": 6317,
      "Ð°Ð´Ð²Ð¾ÐºÐ°ÑĤ": 6318,
      "Ð±ÑİÐ´Ð¶ÐµÑĤ": 6319,
      "Ð´Ð¾ÐºÑĢÐ°ÑĪÐ¸Ð²Ð°": 6320,
      "PAULINA": 6321,
      "YORK": 6322,
      "ient": 6323,
      "use": 6324,
      "Ð²Ð¶Ð°": 6325,
      "Ð²ÐµÐ½Ð¸": 6326,
      "Ð²Ð²ÐµÐ·": 6327,
      "ÐµÐ²Ð°Ð½": 6328,
      "ÑĢÐ»Ñĭ": 6329,
      "ÑĤÑĢ": 6330,
      "Ð·Ð°Ð¼ÐµÐ½": 6331,
      "Ð·Ð°Ð²Ð»Ðµ": 6332,
      "Ð·Ð°Ð²ÐµÐ·": 6333,
      "Ð·Ð°Ð´ÑĳÑĢÐ½Ñĥ": 6334,
      "Ð²ÑĭÐ½Ð¾ÑģÐ¸": 6335,
      "Ð²ÑĭÐ´Ð²Ð¸Ð½Ñĥ": 6336,
      "Ð²ÑĭÐºÐ¸Ð½Ñĥ": 6337,
      "Ð½Ð¾ÑĪ": 6338,
      "Ð´Ð¾Ð²Ð¾Ð´Ð¸": 6339,
      "Ð´Ð¾Ð²ÐµÐ·": 6340,
      "ÐºÐ°ÑĩÐµ": 6341,
      "Ð»Ð¾Ð³Ð°": 6342,
      "Ð»ÑĮÑģÐ¸": 6343,
      "Ð»ÑĮÐ·Ð¾Ð²Ð°": 6344,
      "Ð²Ð¸ÑĤÐ¸Ð¹": 6345,
      "Ð´Ð¸Ð»Ð¸": 6346,
      "Ð´Ð¸Ð¼ÐµÑĤÐ¸": 6347,
      "Ð±Ð°ÑģÐ¾": 6348,
      "Ð¼Ð¾ÑĤÑĢÐµ": 6349,
      "Ð²Ð·Ð²Ðµ": 6350,
      "ery": 6351,
      "Ġden": 6352,
      "Ġyield": 6353,
      "Ġthree": 6354,
      "Ġoath": 6355,
      "Ð°ÑĢÑĤ": 6356,
      "Ð·Ð°ÑĤÐºÐ½Ñĥ": 6357,
      "Ð½ÑıÐ¼": 6358,
      "Ð´Ð²ÑĥÑħÐ¾": 6359,
      "Ð·Ð°Ð³Ð½Ñĥ": 6360,
      "Ð¿ÑĢÐ¾Ð²Ð¾": 6361,
      "Ð±Ð»Ð°Ð³Ð¾Ð´ÐµÐ½": 6362,
      "Ð´ÑĭÑĢÑı": 6363,
      "Ð³ÑĢÐ¾Ð±Ð°": 6364,
      "Ð·Ð°Ð¿Ð¾Ð´Ð°Ð·": 6365,
      "Ġyours": 6366,
      "Ð´ÐµÐ½ÑĤ": 6367,
      "Ð±Ð°ÑĢÑĢÐ°": 6368,
      "Ð²Ð»Ð°ÑģÑĤÐ¸": 6369,
      "Ð´Ð¸ÑģÐ¿ÐµÑĢ": 6370,
      "Ð½ÐµÐ½Ð½ÑĭÐ¼": 6371,
      "Ð½ÐµÐ½Ð½ÑĭÑħ": 6372,
      "Ð½ÐµÐ½Ð½ÑĥÑİ": 6373,
      "Ð½ÐµÐ½Ð½ÑĭÐ¼Ð¸": 6374,
      "Ð½ÐµÐ½Ð½Ð°Ñı": 6375,
      "Ð½ÐµÐ½Ð½ÑĭÐµ": 6376,
      "Ð·Ð°Ð¿Ð°ÑħÐ½Ñĥ": 6377,
      "Ð½ÑĳÑĤ": 6378,
      "Ð½ÑĳÐ¼": 6379,
      "Ð·Ð°Ð¼ÐµÐ´Ð»Ð¸": 6380,
      "ÐĶÐ¸": 6381,
      "Ð°Ð¿Ð¿Ð»Ð¸": 6382,
      "Ð·Ð°Ð¿ÑĢÐ¾ÐºÐ¸Ð½Ñĥ": 6383,
      "Ð·Ð°ÑģÐµÐºÐ°": 6384,
      "Ð²ÑĭÑĤÐ°ÑĩÐ¸Ð²Ð°": 6385,
      "Ð²Ð²ÐµÑĢÑı": 6386,
      "Ð³ÑĢÑıÐ·Ðµ": 6387,
      "Ð´Ð¾ÑĢÐ°ÑīÐ¸Ð²Ð°": 6388,
      "Ð·Ð°Ð´Ð°Ð±ÑĢÐ¸Ð²Ð°": 6389,
      "Ð²ÑĭÑĢÑĥÐ³Ð°": 6390,
      "Ð²ÑĭÑĢÑĥÐ»Ð¸Ð²Ð°": 6391,
      "onder": 6392,
      "Ð²Ð°ÑĢÐ¸Ð°": 6393,
      "Ð·Ð°ÑħÐ¾ÑĢÐ°Ð½Ð¸Ð²Ð°": 6394,
      "Ð´ÐµÑģÐ¿Ð¾": 6395,
      "Ð´ÐµÐºÐ°Ð»ÑĮ": 6396,
      "Ð²ÑĤÐ¸ÑģÐ½Ñĥ": 6397,
      "Ð·Ð°ÑģÑĤÐµÐ³Ð½Ñĥ": 6398,
      "Ð²ÑĭÐºÐ»Ð¸ÐºÐ°": 6399,
      "ague": 6400,
      "Ð·Ð°Ð±ÑĢÐ°ÐºÐ¾Ð²ÑĭÐ²Ð°": 6401,
      "Ð·Ð°ÑĤÑıÐ½Ñĥ": 6402,
      "Ð³ÑĢÐµÐ±Ð½Ðµ": 6403,
      "Ð²ÑĤÑıÐ½Ñĥ": 6404,
      "Ġbreak": 6405,
      "Ġmeans": 6406,
      "Ð´Ð¸Ð°Ð»ÐµÐºÑĤÐ¸": 6407,
      "Ð·Ð°ÑģÑĤÐµÐºÐ»Ñı": 6408,
      "Ġsubject": 6409,
      "gether": 6410,
      "Ð´Ð¾ÑģÐµÐ²Ð°": 6411,
      "ÑģÑĥÐ»ÑĮÑĦÐ¸": 6412,
      "GREMIO": 6413,
      "Ð·Ð°Ð±Ð¾Ð»ÑĤÐ°": 6414,
      "Ð²ÑĭÐºÐ¾ÑĢÑĩÑĳÐ²ÑĭÐ²Ð°": 6415,
      "Ð³Ð¸Ð³Ð¸ÐµÐ½Ð¸": 6416,
      "POMPEY": 6417,
      "Ð·Ð°Ð¿Ð¾Ð´Ð°Ð·ÑĢÐ¸Ð²Ð°": 6418,
      "NIA": 6419,
      "OLI": 6420,
      "POLI": 6421,
      "XEN": 6422,
      "balt": 6423,
      "ybalt": 6424,
      "ĠNor": 6425,
      "Ð²Ð½Ð¸ÐºÐ°": 6426,
      "ÑĤÐ»Ð¸": 6427,
      "Ð²Ð°ÑĤÐ¸": 6428,
      "Ð¿Ð»Ð°Ð½": 6429,
      "Ð¹ÑģÐºÐ¸Ð¹": 6430,
      "Ð²ÑĭÐ³Ð»Ñı": 6431,
      "ÑĮÐµÐ²": 6432,
      "ÑĢÐ¾Ðº": 6433,
      "ÑģÑĤÐºÑĥ": 6434,
      "ÑģÑĤÐºÐ¾Ð¹": 6435,
      "ÑģÑĤÐºÐ¾Ñİ": 6436,
      "Ð´Ð¾ÑĪ": 6437,
      "Ð´Ð¾Ð·Ð¸": 6438,
      "ÐºÐ°Ð½Ð°": 6439,
      "Ð»Ð¾Ð¼Ñĥ": 6440,
      "Ð²Ð¸Ð±ÑĢÐ¸": 6441,
      "Ð´Ð¸ÐµÑĤ": 6442,
      "Ġaw": 6443,
      "Ð³Ð°Ð»Ð»Ð¸": 6444,
      "Ð±Ð¾Ð½Ð°": 6445,
      "Ġmer": 6446,
      "Ð¼Ð°ÑĤÐ¾Ð»Ð¾Ð³Ð¸": 6447,
      "Ġwhile": 6448,
      "Ġborn": 6449,
      "Ð±Ð¸Ð½Ð¾": 6450,
      "Ð´ÑĥÐ±ÑĢÐ¾": 6451,
      "Ð¶Ð¸ÑĤÐµ": 6452,
      "Ð¶Ð°Ð»Ð¸": 6453,
      "Ġthings": 6454,
      "Ġhorse": 6455,
      "Ð±ÐµÑģÑĨÐµÐ½": 6456,
      "Ð±ÐµÑģÐ¿Ð»Ð°": 6457,
      "Ð±ÐµÐ·ÑĢÑĥ": 6458,
      "Ð³ÑĥÑģÐ°": 6459,
      "anc": 6460,
      "Ð°ÐºÑģÐ¾": 6461,
      "Ð°ÐºÑģÐ¸Ð¾": 6462,
      "Ð¼ÐµÑĤÑĢÐ¾Ð²": 6463,
      "Ð·Ð°Ð³Ð½Ð¾": 6464,
      "ÐĲÐ½ÑĤÐ¾": 6465,
      "Ð°Ð²ÑĤÐ¾Ñģ": 6466,
      "Ð°Ð»ÑĮÑĤÑĢÑĥ": 6467,
      "Ð°Ð»Ð³Ð¾ÑĢÐ¸": 6468,
      "Ð´Ð¸Ð°Ð·Ð¾": 6469,
      "Ð³ÑĢÐ¸Ð±": 6470,
      "Ð·Ð°ÑĤÐ°ÑĢÐ¸Ð²Ð°": 6471,
      "usic": 6472,
      "Ð·Ð°Ð²ÐµÑĢÐ½Ñĥ": 6473,
      "Ð½ÑĳÑĤÐµ": 6474,
      "Ð½ÑĳÑĪÑĮ": 6475,
      "Ð³Ð»Ð¸ÐºÐ¾": 6476,
      "Ð±ÑĢÑĭÐºÐ°": 6477,
      "ÑĤÐ°Ð½Ð½ÑĭÐ¹": 6478,
      "ANT": 6479,
      "Ð°Ð»Ð¸Ð¼ÐµÐ½": 6480,
      "Ð¶ÑĳÐ³": 6481,
      "ÑģÑĤÐ²ÐµÐ½Ð½Ð¾": 6482,
      "Ð±ÐµÐ·ÑĭÐ·": 6483,
      "ÑģÑĤÑıÐ¼": 6484,
      "ÑģÑĤÑıÑħ": 6485,
      "ÑģÑĤÑıÐ¼Ð¸": 6486,
      "Ð´Ð¾Ð³Ð¾Ð²Ð¾ÑĢ": 6487,
      "Ð²Ð¾ÑĤÐºÐ½Ñĥ": 6488,
      "Ð²Ð¸ÑĢÑĥÑģÐ¾": 6489,
      "Ð°ÑĤÐ¾Ð¼Ð¸": 6490,
      "Ð·Ð°ÑģÑĤÐµÐ½Ð¾": 6491,
      "Ð·Ð°ÑīÐµÐ»ÐºÐ½Ñĥ": 6492,
      "Ð±ÑĢÑıÑĨÐ°": 6493,
      "Ð²Ð¾Ð·ÑĢÐ°ÑģÑĤÐ°": 6494,
      "Ð´Ð¾ÐºÐ¾Ð¿Ð°": 6495,
      "Ġbloody": 6496,
      "Ð°ÐºÑĥÑģÑĤÐ¸": 6497,
      "Ġlooks": 6498,
      "eft": 6499,
      "Ð·Ð°ÑħÐ»Ð¾Ð¿Ð½Ñĥ": 6500,
      "Ð³ÑĢÑıÐ·Ð½Ñĥ": 6501,
      "Ð·Ð°ÑīÑĳÐ»ÐºÐ½Ñĥ": 6502,
      "Ð²ÑĭÑģÑĥÐ½Ñĥ": 6503,
      "Ð´ÐµÐ¿Ð¾Ð·Ð¸": 6504,
      "UMNIA": 6505,
      "Ð²ÑĭÐºÑĢÐ°Ð´ÑĭÐ²Ð°": 6506,
      "like": 6507,
      "Ð³Ð¸Ð¿Ð½Ð¾ÑĤÐ¸Ð·Ð¸ÑĢÐ¾Ð²Ð°": 6508,
      "Ð·Ð°Ð¸Ð¼ÑģÑĤÐ²Ñĥ": 6509,
      "ÑĢÐ°Ð±ÐºÐ°": 6510,
      "Ð´Ð¾Ð¼Ð°Ð·ÑĭÐ²Ð°": 6511,
      "Ð°Ð½ÑĤÑĢÐµÐ¿ÑĢÐµÐ½ÐµÑĢ": 6512,
      "Ð°Ð½ÑĤÑĢÐµÐ¿ÑĢÐµÐ½ÑĳÑĢ": 6513,
      "ches": 6514,
      "VOLUMNIA": 6515,
      "ÐĴÐ°Ð»ÐµÑĢ": 6516,
      "Ð·Ð°ÐºÐ¾Ð»Ð´Ð¾": 6517,
      "Ð·Ð°ÑĢÐ¸ÑĦÐ¼Ð¾": 6518,
      "Ð¼ÐµÑĤÐµÐ¾ÑĢÐ¾": 6519,
      "Ð²ÑĭÑģÑĤÑĢÑĥÐ³Ð¸Ð²Ð°": 6520,
      "Ð´ÐµÐ±Ð¾ÑĪÐ¸": 6521,
      "POLIXEN": 6522,
      "POLIXENES": 6523,
      "..": 6524,
      "GON": 6525,
      "Her": 6526,
      "rong": 6527,
      "up": 6528,
      "ues": 6529,
      "Ð½ÐºÐ°Ñħ": 6530,
      "Ð²ÑĭÐ´Ð²Ð¸": 6531,
      "Ð²ÑĭÐ²Ð¾Ð´Ð¸": 6532,
      "Ð²Ð¾Ð¿Ð¸": 6533,
      "Ð²Ð¾ÐºÐ°Ð»Ð¸": 6534,
      "Ð³Ð¾ÑĤÐ¸": 6535,
      "ÐºÐ¾Ð¿": 6536,
      "Ġtem": 6537,
      "ÑĨÐµÑĢ": 6538,
      "ÑĢÐ¸ÑĤÐµ": 6539,
      "Ð½Ð°ÑĤÐ¾ÑĢ": 6540,
      "Ð´Ð¸Ð»": 6541,
      "Ð´Ð¸ÑģÑĤÑĢÐ¸": 6542,
      "Ð´ÐµÐ¿ÑĢÐµÑģ": 6543,
      "Ð±Ð¾ÑģÑĤÐ¾": 6544,
      "ÑĤÐµÐºÑĥ": 6545,
      "Ð´Ð°Ð»": 6546,
      "Ġwin": 6547,
      "Ġwound": 6548,
      "Ð³Ð¸Ð±ÑĢÐ¸": 6549,
      "ÑģÐ¾Ñİ": 6550,
      "Ð±ÑĥÐ»Ð¾": 6551,
      "Ð·Ð¸Ð³Ð¾": 6552,
      "Ð´ÑĥÐ³Ð¾": 6553,
      "Ġfire": 6554,
      "ÑĩÐ°Ð½Ð¸": 6555,
      "enger": 6556,
      "Ð±ÐµÑģÐ¿Ð°": 6557,
      "Ð·Ð°ÑģÐµÑĢÐµ": 6558,
      "Ð°ÑĢÐºÐ°Ð½": 6559,
      "Ð±ÑĢÐ°ÑĤÐ°": 6560,
      "Ð¼ÐµÑĢÐ°": 6561,
      "Ð´Ð²ÑĥÑħÑģ": 6562,
      "Ð´ÑĢÐ°Ð³Ð¾": 6563,
      "Ð´ÑĢÐ°Ð¿Ð¸": 6564,
      "ÐºÐ¾Ð¼Ð¿ÑĢÐµÑģ": 6565,
      "Ð³Ð¾ÑĢÑĮÐºÐ¾": 6566,
      "Ð·Ð°ÐºÐ°ÑĩÐ°": 6567,
      "Ġyourself": 6568,
      "Ð²ÑĭÑħÐ²Ð°Ð»Ñı": 6569,
      "Ð·ÐµÐ»Ñĳ": 6570,
      "Ð¶ÐµÐ½Ðµ": 6571,
      "Ð²Ð¾ÑĢÐ¾ÑĤ": 6572,
      "Ð´Ð¸ÑģÑģÐµÑĢ": 6573,
      "Ð²Ð¾ÑĢÑĩÐ°": 6574,
      "Ð½ÐµÐ½Ñĭ": 6575,
      "Ð²ÑģÐºÐ¸Ð½Ñĥ": 6576,
      "Ð±ÑĥÑĢÑĩÐ°": 6577,
      "Ð²ÑĭÐ¼Ð°Ð»Ð¸Ð²Ð°": 6578,
      "Ð²ÑĭÐ¼Ð°ÑīÐ¸Ð²Ð°": 6579,
      "Ð³Ð»Ð¾Ð±Ñĥ": 6580,
      "Ġsupp": 6581,
      "Ð³Ð»ÑĥÐ¿Ðµ": 6582,
      "Ġspo": 6583,
      "Ġfaith": 6584,
      "INGS": 6585,
      "Ð°Ð¼Ð¸ÐºÐ¾": 6586,
      "Ð·Ð°Ð´Ð°ÑĢÐ¸Ð²Ð°": 6587,
      "Ð·Ð°ÐºÑĢÑĥÐ³": 6588,
      "Ð½ÑİÑħÐ°": 6589,
      "Ð°ÑĦÑĢÐ¸": 6590,
      "Ð·Ð°Ð´ÐµÑĢÐ½Ñĥ": 6591,
      "ĠServing": 6592,
      "Ð·Ð°ÐºÐ¾Ð½Ð¾Ð´Ð°ÑĤÐµÐ»ÑĮ": 6593,
      "Ð²ÐºÑĥÑĪÐ°": 6594,
      "Ð´ÑĢÑĥÐ¶Ðµ": 6595,
      "Ð°Ð³Ð¸ÑĤÐ°": 6596,
      "Ð·Ð°ÑģÐ¸Ð¶Ð¸Ð²Ð°": 6597,
      "Ð²Ð¿ÐµÑĩÐ°ÑĤÐ°": 6598,
      "Ð²ÑĭÑĤÑıÐ½Ñĥ": 6599,
      "Ð³Ð°Ð»ÑĮÐ²Ð°Ð½Ð¸": 6600,
      "Ð°ÐºÐºÑĥÐ¼ÑĥÐ»Ñı": 6601,
      "Ġmaj": 6602,
      "Ð°Ð²ÑĤÐ¾ÑĢÐ¸ÑĤÐµÑĤ": 6603,
      "STINGS": 6604,
      "Ġtraitor": 6605,
      "Ð°Ð´ÑĬÑİ": 6606,
      "Ð°ÐºÑĤÑĥÐ°Ð»Ð¸": 6607,
      "centio": 6608,
      "ĠServingman": 6609,
      "RENCE": 6610,
      "Say": 6611,
      "bs": 6612,
      "broke": 6613,
      "Ð²Ð²Ð¾Ð´Ð¸": 6614,
      "Ð²Ð²Ð°Ð»Ð¸Ð²Ð°": 6615,
      "Ð½ÑģÐºÐ°Ñı": 6616,
      "ÑĥÐ³Ð¾": 6617,
      "Ð·Ð°Ð²ÑĢÐ°": 6618,
      "Ð·Ð°Ð»Ð¾Ð³Ð¾": 6619,
      "Ð²Ð°Ð»Ñİ": 6620,
      "ÑĩÑĤÐ°": 6621,
      "Ð²Ð¾ÑģÐºÐ¾": 6622,
      "Ð²Ð¾Ð±ÑĢÐ°": 6623,
      "Ð²Ð¾Ð¸Ð½": 6624,
      "ÑģÑĤÐºÐµ": 6625,
      "Ð´Ð¾ÑĪÐ¸Ð²Ð°": 6626,
      "Ð´Ð¾Ð³ÑĢÑĥ": 6627,
      "Ð´Ð¾Ð²Ð¸Ð½ÑĩÐ¸Ð²Ð°": 6628,
      "Ð´Ð¾ÐµÐ´Ð°": 6629,
      "Ð´Ð¾Ð³ÑĥÐ»Ð¸Ð²Ð°": 6630,
      "ÐºÐ¾Ð²ÐµÐ´": 6631,
      "Ð½Ð¸Ð²ÑĪÐµÐ¼": 6632,
      "Ð½Ð¸Ð²ÑĪÐ°Ñı": 6633,
      "Ð½Ð¸Ð²ÑĪÐ¸Ð¼Ð¸": 6634,
      "Ð½Ð¸Ð²ÑĪÐ¸Ñħ": 6635,
      "Ð½Ð¸Ð²ÑĪÐµÐµ": 6636,
      "Ð½Ð¸Ð²ÑĪÐµÐ¹": 6637,
      "Ð½Ð¸Ð²ÑĪÐµÐ³Ð¾": 6638,
      "Ð½Ð¸Ð²ÑĪÑĥÑİ": 6639,
      "Ð½Ð¸Ð²ÑĪÐ¸Ðµ": 6640,
      "Ð½Ð¸Ð²ÑĪÐ¸Ð¼": 6641,
      "Ð½Ð¸Ð²ÑĪÐµÑİ": 6642,
      "Ð½Ð¸Ð²ÑĪÐµÐ¼Ñĥ": 6643,
      "Ð»Ð¾Ðµ": 6644,
      "Ð»Ð¸ÑĦÐ¾": 6645,
      "Ð´Ð¸ÑĪÑĮ": 6646,
      "Ð±Ð°ÑĢÐµ": 6647,
      "Ð±Ð°Ð»Ñĥ": 6648,
      "ÑĳÐ½Ð¾": 6649,
      "Ð´ÐµÑĦ": 6650,
      "Ð»ÐµÐ¿": 6651,
      "Ð±ÐµÐ³Ñĥ": 6652,
      "Ð¿Ð¾Ð¼": 6653,
      "Ð¿Ð¾Ð»ÑıÑĢ": 6654,
      "rem": 6655,
      "Ð¼Ð¾Ð»Ðµ": 6656,
      "ÑģÐ¾ÐµÐ´Ð¸Ð½": 6657,
      "Ð·Ð°Ð¿Ð»Ðµ": 6658,
      "Ð±ÑĥÑĤÐ¾": 6659,
      "Ð²Ð¾Ð·Ð²Ð¾Ð´Ð¸": 6660,
      "Ð¿Ð°ÑĤÑĮ": 6661,
      "Ġdru": 6662,
      "Ġlam": 6663,
      "Ð·Ð°ÑģÑĭÐ¿": 6664,
      "Ð²ÑĭÑģÐ¿": 6665,
      "Ð²ÑĭÐ¿ÐµÐ½": 6666,
      "Ð¶ÐµÐ»Ð¾": 6667,
      "ÑĤÑĥÑĢÐ¸": 6668,
      "Ð±Ð»Ð°Ð½": 6669,
      "Ð³ÑĢÐ¾Ð·Ð¾": 6670,
      "Ð³ÑĢÑĥÑģÑĤ": 6671,
      "ÑĢÐµÐ½Ð½ÑĭÐ¼": 6672,
      "ÑĢÐµÐ½Ð½ÑĭÐµ": 6673,
      "Ð·Ð°Ð³Ð¾ÑĢÐµ": 6674,
      "Ð²Ð¾Ð»Ð¾ÑĩÑĳ": 6675,
      "Ð½ÑĮÐ¸": 6676,
      "Ð´Ð¾Ð¿Ð»Ð°": 6677,
      "Ð·Ð»Ð¾ÑıÐ·Ñĭ": 6678,
      "essenger": 6679,
      "Ð°Ð±ÑģÑĥÑĢ": 6680,
      "ÑĩÑĥÑģÑĮ": 6681,
      "Ð³Ð»Ð¾Ð´Ð°": 6682,
      "Ð³ÑĢÐ°ÑĦÐ¸ÑĤÐ¸": 6683,
      "Ð³Ð¸Ð¿ÑģÐ¾Ð²Ð°": 6684,
      "ÑīÐµÐ½Ð½ÑĭÐ¹": 6685,
      "Ð³ÑĢÐ°Ð¼Ð¼Ð°ÑĤÐ¸": 6686,
      "Ð²Ð¿Ð¸ÑĤÐ°": 6687,
      "ĠLAU": 6688,
      "Ð±Ð°ÑĢÐ°Ð±Ð°": 6689,
      "Ġmark": 6690,
      "Ð²ÑĭÐ²ÐµÑĢÐ½Ñĥ": 6691,
      "Ð·Ð°ÑģÐ»ÑĥÑĪÐ°": 6692,
      "ÑĤÐµÑħÐ½Ð¾Ð»Ð¾Ð³Ð¸": 6693,
      "Ð²ÑģÑĤÑĢÑıÑħÐ½Ñĥ": 6694,
      "Ð²ÑģÑĥÐ½Ñĥ": 6695,
      "Ð²ÑĭÐ¿Ð»ÐµÑģÐ½Ñĥ": 6696,
      "Ð³Ð°Ð»ÑĮÐ²Ð°Ð½Ð¾": 6697,
      "Ġcommon": 6698,
      "Ð·Ð°Ð¼ÑĥÑģÐ¾ÑĢÐ¸Ð²Ð°": 6699,
      "Ð²ÑĭÑĢÐµÐ·ÑĭÐ²Ð°": 6700,
      "Ð·Ð°Ð¸Ð¼ÑģÑĤÐ²Ð¾Ð²Ð°": 6701,
      "HASTINGS": 6702,
      "Ð´Ð¾ÑĤÑıÐ½Ñĥ": 6703,
      "Ġchildren": 6704,
      "Ð²ÑĭÐ¼ÑĥÑĩÐ¸Ð²Ð°": 6705,
      "ertain": 6706,
      "Ð²ÑĭÑħÐ¾Ð»Ð°ÑīÐ¸Ð²Ð°": 6707,
      "Ġmistress": 6708,
      "Ð°ÑģÑģÐ¸Ð³Ð½Ð¾Ð²Ð°": 6709,
      "ĠLAURENCE": 6710,
      "BY": 6711,
      "BER": 6712,
      "Ð°Ð¾ÑĢ": 6713,
      "Ð½ÑģÐºÐ¸Ðµ": 6714,
      "ÑģÑģÐ¸ÑĢÐ¾Ð²Ð°": 6715,
      "Ð»ÐºÑĥ": 6716,
      "ÐºÐµÐ½": 6717,
      "Ð·Ð°Ð´ÐµÑĢÐ¶Ð°": 6718,
      "Ð²ÑĭÐ´Ðµ": 6719,
      "Ð²ÑĭÐ»Ñı": 6720,
      "Ð²ÑĭÑģÑĤÑĢÐ°": 6721,
      "Ð²ÑĭÐ½Ð¾Ñģ": 6722,
      "Ð²ÑĭÑĢÐ¾Ð²Ð½Ñı": 6723,
      "Ð½Ð¾Ð²ÐµÐ½": 6724,
      "ÑĩÐºÐ¾Ð²": 6725,
      "ÑĢÐ¾Ð¼Ð°": 6726,
      "Ð¼Ð¸Ð½Ñĥ": 6727,
      "ÐºÐ°Ð»": 6728,
      "Ð´ÐµÐ±": 6729,
      "Ð´ÐµÐ·Ð°Ð²Ñĥ": 6730,
      "Ð³Ð°Ð³Ð°": 6731,
      "Ð±Ð¾Ð²": 6732,
      "Ð±ÐµÐ»Ñı": 6733,
      "Ð³Ð¸Ð¹": 6734,
      "Ð³Ð¸Ð³Ð°": 6735,
      "Ð²ÐµÐ·Ñĥ": 6736,
      "ÑģÐ¸Ñı": 6737,
      "Ġcond": 6738,
      "Ð²ÑĭÐ²Ð°Ð»Ð¸": 6739,
      "ÑĪÐ¸Ð¼ÑģÑı": 6740,
      "Ð±ÐµÐ·ÑĢÐ°": 6741,
      "Ð±ÑĢÐ°Ð½Ð´": 6742,
      "Ð·Ð°ÐºÑĢÐ°Ñģ": 6743,
      "Ġbeat": 6744,
      "Ð»ÑĳÐ·": 6745,
      "ÑĤÐµÐ»ÑĮÑģÑĤÐ²Ñĥ": 6746,
      "Ð¿ÐµÐµ": 6747,
      "Ð·Ð°ÐºÐ°ÑĪÐ»Ñı": 6748,
      "Ð²Ð¾Ð´Ð½Ð¾": 6749,
      "Ð¶ÑĥÑĢÐ¸": 6750,
      "ÑĢÐµÐ½Ð½ÑĭÑħ": 6751,
      "ÑĢÐµÐ½Ð½ÑĥÑİ": 6752,
      "ÑĢÐµÐ½Ð½ÑĭÐ¼Ð¸": 6753,
      "ÑĢÐµÐ½Ð½Ð°Ñı": 6754,
      "Ð·Ð°ÑĪÐ²ÑĭÑĢÐ¸Ð²Ð°": 6755,
      "Ġrequ": 6756,
      "Ð¿ÐµÑĢÐµÑĢÐ°": 6757,
      "Ġdef": 6758,
      "Ð·Ð°ÐºÑĥÑģÑĭÐ²Ð°": 6759,
      "Ð·Ð°Ð²ÐµÑĢÑĪÐ¸": 6760,
      "ÑĪÐµÐ½Ð°": 6761,
      "Ð³Ð»ÑĥÑĪÐ¸": 6762,
      "Ð°Ð¿ÑĤÐµ": 6763,
      "Ð±Ð¾Ð³Ð¾ÑĤ": 6764,
      "Ġval": 6765,
      "Ð°Ð¼Ð¸Ð»Ð¾": 6766,
      "Ð·Ð°ÑīÐ¸Ð¿ÑĭÐ²Ð°": 6767,
      "Ð³ÑĢÑıÐ·ÐµÐ»Ðµ": 6768,
      "Ð±ÐµÑģÑģÐ¼Ñĭ": 6769,
      "Ð´Ð¾Ð±ÑĢÐ¾ÑģÐ¾": 6770,
      "ÑģÐ¾ÑĢÐ±": 6771,
      "Ð±ÑĢÑİÐ·": 6772,
      "Ġuncle": 6773,
      "Ð´Ð¾Ð³Ð¾Ð½Ñı": 6774,
      "Ð²ÑĭÐ²ÐµÑĢÑı": 6775,
      "Ð±Ð¸Ð½ÑĤÑĥ": 6776,
      "Ð²ÑĭÐ²Ð¾Ð·Ð¸": 6777,
      "Ð´Ð¾Ð¿Ð¾Ð»Ñĥ": 6778,
      "Ð²ÑģÐ¿Ð°ÑħÐ¸Ð²Ð°": 6779,
      "Ð°Ð´ÑĢÐµÑģÑĥ": 6780,
      "Ð·Ð°Ð³Ð¾ÑĤÐ¾Ð²Ð¸": 6781,
      "Therefore": 6782,
      "Ð·Ð°Ð»ÑıÐ¿Ð°": 6783,
      "Ð´Ð¾ÑĩÐµÑĢÑĩÐ¸Ð²Ð°": 6784,
      "form": 6785,
      "Ð±ÑĢÐµÐ·Ð³Ð»Ð¸": 6786,
      "Ð·Ð°Ð³ÑĢÐµÐ±Ð°": 6787,
      "Ð²ÑĭÑĨÐ°ÑĢÐ°Ð¿Ð°": 6788,
      "Ð°Ð½ÑĤÐ°Ð³Ð¾Ð½Ð¸": 6789,
      "Ð´ÐµÐ·Ð°ÐºÑĤÐ¸": 6790,
      "Ð²ÑģÐºÐ»Ð¾ÐºÐ¾ÑĩÐ¸Ð²Ð°": 6791,
      "Ð°Ð²ÑģÑĤÑĢÐ°Ð»Ð¸Ð¹": 6792,
      "Ġmajesty": 6793,
      "CLI": 6794,
      "FF": 6795,
      "Look": 6796,
      "Was": 6797,
      "Ð°Ð¿ÐµÑĢ": 6798,
      "Ð°Ð³Ð¾Ð½Ð¸": 6799,
      "Ð²ÑĤÑĥ": 6800,
      "Ð²ÑĤÐµÑĢ": 6801,
      "Ð²Ð´ÐµÑĢÐ³Ð¸Ð²Ð°": 6802,
      "Ð½ÐºÐ°Ð¼": 6803,
      "Ð½ÐºÐ°Ð¼Ð¸": 6804,
      "Ð»ÐºÐµ": 6805,
      "Ð´Ð²Ð¾ÑĢÐ¸": 6806,
      "Ð³Ð½ÐµÑĤ": 6807,
      "ÑħÐ»ÐµÑĤ": 6808,
      "Ð¶ÐºÐ°": 6809,
      "Ð¶Ð½Ðµ": 6810,
      "Ð¼Ð¸ÑĢ": 6811,
      "ÑĪÐ²ÐµÐ¹": 6812,
      "Ð±Ð°Ð·Ð¸ÑĢÑĥ": 6813,
      "ÑĳÐ½Ñĭ": 6814,
      "Ġaff": 6815,
      "Ð´ÐµÐ±Ð¸": 6816,
      "Ð±Ð¾ÑĢÐµ": 6817,
      "Ġsin": 6818,
      "ÑĢÐµÐ±ÐµÑĤ": 6819,
      "Ġmet": 6820,
      "Ð´Ð°Ð»Ñĥ": 6821,
      "Ð²Ð·Ð²Ð¸Ð²Ð°": 6822,
      "Ð·Ð°Ð¿Ð»Ñĥ": 6823,
      "ÐºÑĥÐ½Ð´": 6824,
      "Ð´ÑĥÐ±Ð»Ñĳ": 6825,
      "Ð²ÐµÑĢÐ±Ñĥ": 6826,
      "Ð²Ð¾Ð·Ð²ÐµÐ´": 6827,
      "Ġlate": 6828,
      "Ġleft": 6829,
      "Ð³ÑĢÐ°ÑĦÐ°": 6830,
      "Ð¿Ð¸Ð»Ð¾": 6831,
      "Ġtold": 6832,
      "Ð·Ð°ÑģÐºÑĥ": 6833,
      "ÑĪÐµÐ²Ð°": 6834,
      "Ð¼ÐµÑģÑı": 6835,
      "Ð»ÑĳÐ½Ð°": 6836,
      "Ð°Ð½ÑĤÐ¸ÑģÐµ": 6837,
      "ÑĩÐµÐµ": 6838,
      "Ð´ÑĭÑĢ": 6839,
      "Ð³Ð»Ð°Ð²": 6840,
      "Ð»Ð¾Ð³Ð¸Ñı": 6841,
      "ÑģÐµÐµ": 6842,
      "Ð¼ÑĭÐ¹": 6843,
      "Ð°Ð»ÑĮÐ½ÑĭÐ¹": 6844,
      "Ð·Ð°Ð¸Ð»Ð¸Ð²Ð°": 6845,
      "Ġsoon": 6846,
      "Ð´Ð¾Ð»Ð»Ð°": 6847,
      "ÑĢÐµÑģÑģÐ¾Ð²Ð°": 6848,
      "Ð²ÑĭÐºÐ°ÑĪÐ»Ñı": 6849,
      "Ð³ÑĢÐ¸Ð¼Ð¸ÑĢÑĥ": 6850,
      "Ð·Ð°ÑĤÐ¾ÑĢÐ¾": 6851,
      "Ġseen": 6852,
      "Ð±Ð°Ð½Ð´ÐµÑĢÐ¾": 6853,
      "Ð±Ð°Ð½ÐºÑĢÐ¾": 6854,
      "Ð²ÑĭÐ¿Ð°ÑĢÐ¸": 6855,
      "Ð´Ð²Ð°Ð´ÑĨÐ°": 6856,
      "Ð·Ð°ÐºÐ¸Ñģ": 6857,
      "Ð°Ð¿Ð¾ÑģÑĤÐ¾": 6858,
      "Ð´Ð¾ÑģÑĤÐ°Ð²Ð°": 6859,
      "Ð´Ð¾Ð¸Ð³ÑĢÐ°": 6860,
      "Ġsave": 6861,
      "Ð²ÑĭÑģÑĤÑĥÐºÐ¸Ð²Ð°": 6862,
      "Ð°ÑĢÐµÑģÑĤÐ¾Ð²Ð°": 6863,
      "Ð³Ð¾Ð»ÑĥÐ±Ðµ": 6864,
      "Ð¶ÑĥÑĢÐ½Ð°Ð»Ð¸": 6865,
      "Ð´ÐµÐ¼Ð¾Ð½ÑģÑĤÑĢÐ¸ÑĢÑĥ": 6866,
      "Ð²ÐµÑĢÑħÐ¾Ð²ÐµÐ½": 6867,
      "Ð°ÑĢÐµÐ½Ð´Ñĥ": 6868,
      "Ġdays": 6869,
      "Ð³ÑĢÑĥÐ¿Ð¿Ð¸ÑĢÑĥ": 6870,
      "ÑĩÐµÑĤÑĭ": 6871,
      "Ð·Ð°Ð¿ÐµÑĩÐ°ÑĤÐ»Ðµ": 6872,
      "Ð´ÐµÐ½Ð¾Ð½": 6873,
      "UMBER": 6874,
      "THUMBER": 6875,
      "Ð°ÐºÑĤÐ¸Ð²Ð¸Ð·Ð¸ÑĢÑĥ": 6876,
      "Ð°Ð´Ð°Ð¿ÑĤÐ¸ÑĢÑĥ": 6877,
      "Ð´Ð¾Ð¶ÐµÐ²ÑĭÐ²Ð°": 6878,
      "Ð´Ð¸ÑģÐºÑĢÐµÐ´Ð¸ÑĤÐ¸ÑĢÑĥ": 6879,
      "Ð³Ð¾ÑģÐ¿Ð¸ÑĤÐ°Ð»Ð¸Ð·Ð¸ÑĢÑĥ": 6880,
      "Ð²ÑĭÑģÐºÑĢÐµÐ±Ð°": 6881,
      "Ð°Ð»Ð»ÐµÐ³Ð¾ÑĢÐ¸": 6882,
      "Ġwoe": 6883,
      "Ð²ÑĭÑĤÐ¾ÑĢÐ³Ð¾": 6884,
      "Ð·Ð°ÑģÐ¼ÐµÑı": 6885,
      "Ð´ÑĢÐµÐ±ÐµÐ·Ð¶Ð°": 6886,
      "ĠEngland": 6887,
      "Ð¶ÑĥÐ¶Ð¶Ð°": 6888,
      "NORTHUMBER": 6889,
      "Ġtender": 6890,
      "Ð´Ð¾Ð³ÑĢÑĥÐ¶Ð°": 6891,
      "CLIFF": 6892,
      "NORTHUMBERLAND": 6893,
      "ID": 6894,
      "Take": 6895,
      "bed": 6896,
      "ever": 6897,
      "ring": 6898,
      "ten": 6899,
      "Ð²ÑĢ": 6900,
      "Ð½ÑģÐºÐ¸Ñħ": 6901,
      "ÐºÑģÐ°": 6902,
      "Ð³ÐµÑģ": 6903,
      "Ð¿ÐµÑĤÐ°": 6904,
      "Ð²ÑĭÐµÐ¼": 6905,
      "Ð²ÑĭÐ¶Ð°": 6906,
      "Ð²ÑĭÑģÑĤÐµ": 6907,
      "Ð²Ð¾ÑĢÐ¾Ð²Ð°": 6908,
      "Ð´Ð¾Ð³Ð°": 6909,
      "ÑĤÐ¸Ðµ": 6910,
      "Ð²Ð¸Ð·Ñĥ": 6911,
      "Ð±Ð°ÑģÐº": 6912,
      "ÑĳÑĤÑĭÐ²Ð°": 6913,
      "Ð±Ð¾Ð´ÑĢÑı": 6914,
      "Ġsight": 6915,
      "Ġmon": 6916,
      "Ð´Ð°ÑĤÐ¸ÑĢÐ¾Ð²Ð°": 6917,
      "Ð°Ð½Ð½Ð¸Ð³Ð¸": 6918,
      "Ð²Ð·Ð±ÑĢÐ°ÑģÑĭÐ²Ð°": 6919,
      "Ð²Ð·Ð²Ð¾Ð»Ð½Ð¾Ð²Ð°": 6920,
      "Ð±Ð¸ÑĢÐ¾": 6921,
      "Ð±ÑĥÐ´Ñĥ": 6922,
      "ÑĩÐ¸Ð»Ð¸": 6923,
      "Ð¿Ð°ÑģÐ°": 6924,
      "Ð±ÐµÑģÐ¿ÐµÑĢ": 6925,
      "Ð±ÐµÑģÑģÑĤÑĢÐ°": 6926,
      "ÐµÐ½Ð¸Ð¹": 6927,
      "Ð·Ð°ÑģÐ²Ð¸Ð´": 6928,
      "Ð·Ð°ÑģÐ¿Ð¸ÑĢ": 6929,
      "Ð·Ð°ÑĤÑĢÐ°Ð¼": 6930,
      "Ġgener": 6931,
      "ÑĦÐ¸Ð»Ð°": 6932,
      "Ð¿ÑĢÐ¾ÑĨÐµÐ½": 6933,
      "ÑĤÐµÑĢÐ¼Ð°": 6934,
      "Ð³ÑĢÐ¾Ð±Ð¸": 6935,
      "Ð·Ð°Ð¿Ð¾Ð³Ð°": 6936,
      "Ð·Ð¸ÑĢÐ¾Ð²Ð°ÑĤÑĮ": 6937,
      "Ð½Ð¸ÐµÐ¹": 6938,
      "ides": 6939,
      "idow": 6940,
      "ÐĳÐµÑĢ": 6941,
      "Ð³Ð¾Ð»Ð¾Ð²": 6942,
      "Ð±Ð¾ÑĢÐ¾Ð½Ð¾Ð²Ð°": 6943,
      "Ġdoes": 6944,
      "Ð·Ð°ÑĤÐ°ÑģÐºÐ°": 6945,
      "ÑĪÐµÐ½Ð½ÑĭÐ¼": 6946,
      "ÑĪÐµÐ½Ð½ÑĭÑħ": 6947,
      "ÑĪÐµÐ½Ð½ÑĥÑİ": 6948,
      "ÑĪÐµÐ½Ð½ÑĭÐ¼Ð¸": 6949,
      "ÑĪÐµÐ½Ð½Ð°Ñı": 6950,
      "ÑĪÐµÐ½Ð½ÑĭÐµ": 6951,
      "Ð±Ð»Ð¾ÐºÐ°": 6952,
      "Ð±Ð»Ð¾Ð½Ð´Ð¸": 6953,
      "Ð¼Ð¾ÑĢÑĦÐ¾": 6954,
      "ÑģÑĤÐ²ÐµÐ½Ð½ÑĭÑħ": 6955,
      "Ð·Ð°Ð²Ð°Ð¶Ð½Ð¸ÑĩÐ°": 6956,
      "ÑģÑĤÐ²ÐµÐ½Ð½Ð¾Ñİ": 6957,
      "ÑģÑĤÐ²ÐµÐ½Ð½Ð¾Ð¼": 6958,
      "Ð¿Ð»Ð°Ð²Ð°": 6959,
      "Ð²ÑĢÐµÐ´Ð¸": 6960,
      "Ð·Ð°ÐºÐ»ÐµÐ²ÑĭÐ²Ð°": 6961,
      "Ð±Ð»ÐµÐ½Ñĭ": 6962,
      "Ð±ÑĢÑĭÐ·Ð½Ñĥ": 6963,
      "Ð±ÐµÑĢÐµÐ³Ð¾": 6964,
      "ÐĹÐ°": 6965,
      "Ð·Ð°Ð³ÑĥÐ»Ñı": 6966,
      "Ð³ÐµÑĢÐ¾Ð½ÑĤÐ¾": 6967,
      "Ð²ÑĭÐ»ÑĥÑīÐ¸Ð²Ð°": 6968,
      "Though": 6969,
      "Ð·Ð°ÑĪÑĤÐ¾Ð¿ÑĭÐ²Ð°": 6970,
      "ÑĮÐºÐ¾Ðµ": 6971,
      "Ð²ÑĭÑĢÐ°Ð²Ð½Ñı": 6972,
      "Ð°Ð²Ð³Ñĥ": 6973,
      "Ð°ÑģÑģÐ¸Ð¼Ð¸Ð»Ð¸ÑĢÐ¾Ð²Ð°": 6974,
      "Ð°Ð¿Ð¿ÐµÑĤÐ¸": 6975,
      "Ð°Ð»ÑİÐ¼Ð¾": 6976,
      "Ð²Ð¾Ð·Ð´Ð²Ð¸Ð³Ð½Ñĥ": 6977,
      "Ð²ÑĭÑīÑĥÐ¿ÑĭÐ²Ð°": 6978,
      "Ð²ÑĭÑģÐ²Ð¸ÑģÑĤÑĭÐ²Ð°": 6979,
      "ÑĥÐºÐ»Ð°Ð´ÑĩÐ¸": 6980,
      "Ġreturn": 6981,
      "Ð´Ð¾Ð¶ÑĳÐ²ÑĭÐ²Ð°": 6982,
      "Ġmercy": 6983,
      "Ð·Ð°Ð³ÑĢÐ¸Ð¼Ð¸ÑĢÐ¾Ð²ÑĭÐ²Ð°": 6984,
      "Ġfarewell": 6985,
      "ac": 6986,
      "dom": 6987,
      "mp": 6988,
      "ĠAN": 6989,
      "Ð°Ð»Ñı": 6990,
      "Ð°Ð´Ñĭ": 6991,
      "Ð°ÑĤÐ¾Ð¼": 6992,
      "Ð°Ð±ÑĢÐ°Ð·Ð¸": 6993,
      "Ð²ÑĢÐ¸": 6994,
      "Ð½ÑģÐºÐ¸Ð¼": 6995,
      "Ð½ÑģÐºÑĥÑİ": 6996,
      "Ð½ÑģÐºÐ¸Ð¼Ð¸": 6997,
      "Ð´Ð»Ð°": 6998,
      "Ð±ÑĢÐµÑĤ": 6999,
      "Ð·Ð°ÑĦÐ¸ÐºÑģÐ¸": 7000,
      "Ð²ÑĭÐ¶Ð¸Ð²Ð°": 7001,
      "Ð´Ð¾Ð´Ðµ": 7002,
      "Ð´Ð¾ÑĤÑĳÑĢ": 7003,
      "Ð´Ð¾Ð³ÑĥÐ»Ñı": 7004,
      "Ð´Ð¾ÐµÐ·Ð¶Ð°": 7005,
      "Ð»Ð¸Ð²ÑĪÐ¸Ð¹": 7006,
      "hes": 7007,
      "ÑĤÐ¾ÐºÑģÐ¸": 7008,
      "Ġsit": 7009,
      "Ġsad": 7010,
      "Ð´Ð°Ð²": 7011,
      "rel": 7012,
      "Ð°Ð½Ð³Ðµ": 7013,
      "Ð²Ð·Ð»Ðµ": 7014,
      "Ð·Ð°Ð¿Ð»Ð¾Ð¼": 7015,
      "Ð±ÑĥÐ´Ð¸": 7016,
      "Ð±ÑĥÐ½ÑĤÐ¾": 7017,
      "Ð½ÐµÐ½Ð¾": 7018,
      "Ð¶Ð°Ð¹": 7019,
      "Ð³ÑĢÐ°Ð½Ð°ÑĤÐ¾": 7020,
      "Ð°ÑĢÑĪÐ¸": 7021,
      "Ð·Ð°ÑĤÑĳÑĢ": 7022,
      "Ð·Ð°ÐºÑĢÑı": 7023,
      "Ð·Ð°ÐºÐ»ÑĳÐ²ÑĭÐ²Ð°": 7024,
      "Ð´ÑĢÐ¾Ð¶": 7025,
      "Ð²Ð¾Ð´Ð¾Ð¾": 7026,
      "Ð²Ð¿ÑĳÑĢ": 7027,
      "Ð·Ð°ÑĪÐ»Ð°": 7028,
      "Ð²ÑĭÑĤÑĢÐµ": 7029,
      "Ð·Ð°Ð¸ÑģÐºÐ¸Ð²Ð°": 7030,
      "Ġdeep": 7031,
      "Ð³Ð¾Ð»Ð¾Ð²Ð¾": 7032,
      "ÑĤÐ¸ÑĢÑĥÐ±Ð»Ðµ": 7033,
      "Ð´Ð¾ÑģÑĩÐ¸ÑĤÐ°": 7034,
      "Ð·Ð°Ð¼ÐµÐ»ÑĮ": 7035,
      "Ð³ÐµÐ¾ÑħÐ¸Ð¼Ð¸": 7036,
      "ters": 7037,
      "ÐºÑĤÐ¾ÑĢÐ¸": 7038,
      "Ð°ÑĢÐ°Ðº": 7039,
      "Ð·Ð°Ð±Ð°Ð²": 7040,
      "ÑģÑĤÐ²ÐµÐ½Ð½ÑĭÐ¼": 7041,
      "ÑģÑĤÐ²ÐµÐ½Ð½ÑĥÑİ": 7042,
      "ÑģÑĤÐ²ÐµÐ½Ð½ÑĭÐ¼Ð¸": 7043,
      "ÑģÑĤÐ²ÐµÐ½Ð½Ð°Ñı": 7044,
      "ÑģÑĤÐ²ÐµÐ½Ð½ÑĭÐµ": 7045,
      "Ġgold": 7046,
      "ÑģÑĤÐ²ÐµÐ½Ð½Ð¾Ð¹": 7047,
      "ÑģÑĤÐ²ÐµÐ½Ð½Ð¾Ð³Ð¾": 7048,
      "ÑģÑĤÐ²ÐµÐ½Ð½Ð¾Ðµ": 7049,
      "ÑģÑĤÐ²ÐµÐ½Ð½Ð¾Ð¼Ñĥ": 7050,
      "Ð´Ð²Ð°Ð´ÑĨÐ°ÑĤÐ¸ÑĩÐµÑĤÑĭ": 7051,
      "Ð³Ð¾ÑģÐ¿Ð¾": 7052,
      "Ð°Ð¿Ð¾ÐºÑĢÐ¸": 7053,
      "Ð·Ð°Ð¼Ð¸ÑĢÐ°": 7054,
      "unes": 7055,
      "Ð²ÑĤÑĳÑĢ": 7056,
      "Ð·Ð°Ð¸Ð½ÑĤÑĢÐ¸": 7057,
      "Ġmarry": 7058,
      "Ġheavy": 7059,
      "Ð³ÐµÐ¼Ð¾ÑĢ": 7060,
      "Ġfoot": 7061,
      "Ð°ÑĨÐµÑĤÐ¾": 7062,
      "Ð±Ð»Ð¾ÐºÐ¸ÑĢÑĥ": 7063,
      "Ġwarrant": 7064,
      "Ð±Ð¾ÑıÐ·": 7065,
      "ÑĮÐºÐ¾Ð¼Ñĥ": 7066,
      "Ð°ÐºÑĤÐ¸Ð²Ð¸Ð·Ð¸ÑĢÐ¾Ð²Ð°": 7067,
      "Ð´ÐµÑĦÐ¾ÑĢÐ¼Ð¸ÑĢÑĥ": 7068,
      "ĠJul": 7069,
      "Ð´ÐµÑĤÐµÑĢÐ¼Ð¸Ð½Ð¸": 7070,
      "Ð²Ð¸ÑģÐ¼Ñĥ": 7071,
      "Ð´Ð¸ÑģÐºÑĢÐµÐ´Ð¸ÑĤÐ¸ÑĢÐ¾Ð²Ð°": 7072,
      "Ð³ÐµÐ½ÐµÑĢÐ¸ÑĢÐ¾Ð²Ð°": 7073,
      "Ð´ÐµÐ·Ð¾ÑĢÐ¸ÐµÐ½ÑĤÐ¸ÑĢÑĥ": 7074,
      "Ġpurpose": 7075,
      "Ð·Ð°ÐºÐ¾Ð»ÑĮÑĨÐ¾Ð²ÑĭÐ²Ð°": 7076,
      "Ð°ÑĢÐ¸ÑģÑĤÐ¾ÐºÑĢÐ°ÑĤÐ¸": 7077,
      "Ġthrough": 7078,
      "Ð²Ð·Ð¼Ð°ÑħÐ¸Ð²Ð°": 7079,
      "Ð°Ð½ÑĤÐ¸ÑģÐµÐ¼Ð¸": 7080,
      "Ð·Ð»Ð¾ÑĢÐ°Ð´": 7081,
      "Ġdanger": 7082,
      "Ð°ÑĦÑĢÐ¸ÐºÐ°Ð½": 7083,
      "ĠANNE": 7084,
      "Ah": 7085,
      "Did": 7086,
      "Give": 7087,
      "PR": 7088,
      "aim": 7089,
      "ict": 7090,
      "mer": 7091,
      "so": 7092,
      "und": 7093,
      "vent": 7094,
      "Ġill": 7095,
      "Ð²Ð´ÑĳÑĢÐ³Ð¸Ð²Ð°": 7096,
      "ÑĤÐºÐ¸": 7097,
      "ÑĤÐºÐµ": 7098,
      "Ð´Ð¸Ð²Ð°": 7099,
      "Ð³Ð½Ð¾Ð¹": 7100,
      "Ð·Ð°Ðµ": 7101,
      "Ð·Ð°ÐµÐ¼": 7102,
      "Ð·Ð°Ð²ÑĭÐ²Ð°": 7103,
      "Ð·Ð°Ð´ÑĭÑħÐ°": 7104,
      "Ð²Ð°Ð³Ð¾": 7105,
      "Ð¿Ð»ÐµÐ¼": 7106,
      "Ð²ÑĭÐ²Ð¾Ð»Ð¾": 7107,
      "Ð½Ð¾Ð²Ð¾Ð´": 7108,
      "ÑģÑĤÐµÑĢÐµ": 7109,
      "Ð¶Ð´Ñĥ": 7110,
      "ÑĪÐ¾Ð½": 7111,
      "Ð»ÑĮÐ·ÑĭÐ²Ð°": 7112,
      "ÑĳÐ¶Ð¸": 7113,
      "Ð´ÐµÑĪÑĳ": 7114,
      "Ð±ÑĥÑı": 7115,
      "Ð´ÑĥÐº": 7116,
      "ÑĩÐ°Ð»Ð¸": 7117,
      "Ð¶Ð¸Ð²Ñĥ": 7118,
      "Ð¿Ð°Ñħ": 7119,
      "Ð¿Ð°Ð¼Ð¸": 7120,
      "Ġcho": 7121,
      "Ġcold": 7122,
      "Ġnurse": 7123,
      "Ð¿Ð¸ÑģÐ°": 7124,
      "Ġtogether": 7125,
      "ÑĪÐµÐ¹ÑģÑı": 7126,
      "Ġgrow": 7127,
      "Ð»ÑĳÑĢ": 7128,
      "ÑĤÑĥÑĢÐ°": 7129,
      "Ð²Ð¾Ð´Ð¾ÑĢÐ¾": 7130,
      "Ð²Ð¾Ð´Ð¾Ð½Ð°": 7131,
      "Ð²Ð¿ÑĢÐ°Ð²Ð»Ñı": 7132,
      "ours": 7133,
      "Ð»Ð¾Ð³Ð¸Ð¸": 7134,
      "Ð»Ð¾Ð³Ð¸Ñİ": 7135,
      "Ð»Ð¾Ð³Ð¸ÐµÐ¹": 7136,
      "Ð»Ð¾Ð³Ð¸ÐµÑİ": 7137,
      "Ð·Ð°ÑģÑĤÐµÐ½": 7138,
      "Ð°Ð»ÑĮÐ½ÑĭÐ¼": 7139,
      "Ð°Ð»ÑĮÐ½ÑĭÑħ": 7140,
      "Ð°Ð»ÑĮÐ½ÑĥÑİ": 7141,
      "Ð°Ð»ÑĮÐ½ÑĭÐ¼Ð¸": 7142,
      "Ð°Ð»ÑĮÐ½Ð°Ñı": 7143,
      "Ð°Ð»ÑĮÐ½ÑĭÐµ": 7144,
      "Ð°Ð»ÑĮÑĤÐµÑĢÐ½Ð°": 7145,
      "Ð²ÑĭÑĤÐ²ÐµÑĢ": 7146,
      "Ð±ÑĭÑģÑĤÑĢÐµ": 7147,
      "Ð±ÑĢÐ¸Ð»Ð»Ð¸": 7148,
      "ÑĢÐ¾Ð²ÐºÐ¸": 7149,
      "Ð²ÑĭÐºÐ°Ð½Ñİ": 7150,
      "Ð·Ð°Ð¿Ð°ÑĤÐµÐ½": 7151,
      "ifford": 7152,
      "Ġsure": 7153,
      "earn": 7154,
      "Ð°ÑĤÐ»Ð°": 7155,
      "Ð·Ð°Ð¿ÑĢÐ°Ð²ÑīÐ¸": 7156,
      "Ð¶ÐµÐ»ÑĤÐµ": 7157,
      "Ð´Ð¾Ð¼Ð¾Ð³Ð°": 7158,
      "Ð²ÑĭÐ´Ð°Ð²Ð°": 7159,
      "Ð³Ð°Ð½Ð³": 7160,
      "ÑĪÐµÑİÑģÑı": 7161,
      "Ð°Ð½Ð¾Ð½Ð¸Ð¼": 7162,
      "Ð²ÑģÑĤÑĢÐµÐ¿ÑĭÐ²Ð°": 7163,
      "Ð²ÐµÑģÐµÐ»Ð¸": 7164,
      "Ð²ÐµÑģÐµÐ»Ñĳ": 7165,
      "ÑĪÐ°ÑıÑģÑı": 7166,
      "Ð³Ð¸Ð¿Ð¾ÑģÑĤÐ°": 7167,
      "ÑĪÑĥÑİÑģÑı": 7168,
      "ÑĪÐµÐµÑģÑı": 7169,
      "ÑĪÐµÐ³Ð¾ÑģÑı": 7170,
      "ÑĪÐµÐ¼ÑĥÑģÑı": 7171,
      "Ð³Ð°Ð»Ð¾Ð³ÐµÐ½": 7172,
      "Ð¶Ð°Ð»Ð¾Ð²Ð°": 7173,
      "Ð·Ð°Ð³ÑĢÐ°Ð¶Ð´Ð°": 7174,
      "Ð´Ð¾Ð¿ÐµÐºÐ°": 7175,
      "CAPULET": 7176,
      "ignior": 7177,
      "Ð¶ÑĥÑĢÐ½Ð°": 7178,
      "ÑĪÐ¸ÐµÑģÑı": 7179,
      "ÑĪÐ¸ÑħÑģÑı": 7180,
      "INCE": 7181,
      "ÑĪÐ¸Ð¼Ð¸ÑģÑı": 7182,
      "Ð³ÑĢÑĥÐ¿Ð¿Ð¾": 7183,
      "Ð³ÑĢÑĥÐ¿Ð¿Ð¸ÑĢÐ¾Ð²Ð°": 7184,
      "Ġdeser": 7185,
      "Ð±Ð»ÑĥÐ¶Ð´Ð°": 7186,
      "ments": 7187,
      "Ð³Ð¸Ð´ÑĢÐ¸ÑĢÐ¾Ð²Ð°": 7188,
      "Ð·Ð°ÑģÑĤÑĢÐ°ÑħÐ¾Ð²Ð°": 7189,
      "Ð²Ð¸ÑĤÐ°Ð¼Ð¸Ð½Ð¾": 7190,
      "Ð±ÑĢÐ¾ÑĪÑİÑĢÐ¾Ð²Ð°": 7191,
      "Ð°ÐºÑĢÐ¾Ð±Ð°": 7192,
      "Ð´ÐµÐ¼Ð¸Ð»Ð¸ÑĤÐ°ÑĢÐ¸": 7193,
      "Ð´ÐµÑĦÐ¾ÑĢÐ¼Ð¸ÑĢÐ¾Ð²Ð°": 7194,
      "ÐĴÐ»Ð°Ð´Ð¸": 7195,
      "Ð°Ð¼ÐµÑĢÐ¸ÐºÐ°Ð½Ð¸": 7196,
      "Ð²ÑģÐºÑĢÐ¸ÐºÐ¸Ð²Ð°": 7197,
      "Ð´Ð¸Ð°Ð³Ð½Ð¾ÑģÑĤÐ¸ÑĢÐ¾Ð²Ð°": 7198,
      "Ð´ÐµÐ¼Ð°ÑģÐºÐ¸ÑĢÐ¾Ð²Ð°": 7199,
      "Ð²ÑĭÐ¿Ð¾Ð»Ð¾ÑģÐºÐ°": 7200,
      "Ð²ÑģÑħÐ»Ð¸Ð¿ÑĭÐ²Ð°": 7201,
      "ÑģÐ¿ÐµÐºÑĤÑĢÐ¾": 7202,
      "ÐĲÑĦÐ°Ð½Ð°": 7203,
      "Ð³Ð²Ð°ÑĢÐ´ÐµÐ¹": 7204,
      "Ð°Ð¼Ð¸ÐºÐ¾ÑĪÐ¾Ð½": 7205,
      "Ð²ÑĭÑģÐ¿ÑĢÐ°ÑĪÐ¸Ð²Ð°": 7206,
      "Ð·Ð°Ð¿Ð»ÑĥÑĤÐ°": 7207,
      "Ð·Ð°ÑģÐ²Ð¸Ð´ÐµÑĤÐµÐ»ÑĮ": 7208,
      "Ð·Ð°ÑĪÐ»Ð°ÐºÐ¾Ð²ÑĭÐ²Ð°": 7209,
      "PRINCE": 7210,
      "az": 7211,
      "aid": 7212,
      "ca": 7213,
      "oint": 7214,
      "Ð¼Ð½Ðµ": 7215,
      "Ð»ÐºÐ°Ð¼Ð¸": 7216,
      "ÑĥÑģÑĤÐ°": 7217,
      "Ð·Ð°Ð»Ð°Ð¼ÑĭÐ²Ð°": 7218,
      "Ð²ÑĭÐ³ÑĢÑĭÐ·Ð°": 7219,
      "ÑĮÑģÑı": 7220,
      "ÑīÐµÐ½Ð½Ð¾Ð³Ð¾": 7221,
      "ÑĢÐ°Ð¹": 7222,
      "Ð´Ð¾ÑģÑĤÑĢÐ¾": 7223,
      "Ð´Ð¾Ð·Ð¸ÑĢÐ¾Ð²Ð°": 7224,
      "Ð´Ð¾Ð»Ð°Ð¼ÑĭÐ²Ð°": 7225,
      "Ð´Ð¾Ð³ÑĢÑĭÐ·Ð°": 7226,
      "Ð»Ð¾Ðº": 7227,
      "Ð»Ð¾Ð¼Ðµ": 7228,
      "Ġtimes": 7229,
      "ÑĤÐ¸ÑĢ": 7230,
      "ÑĤÐ¸Ð¼": 7231,
      "ÑĥÑİÑĤÑģÑı": 7232,
      "Ð²Ð¸Ð»Ñı": 7233,
      "Ð²Ð¸ÑĤÑĮ": 7234,
      "Ð±Ð¾Ð¶Ðµ": 7235,
      "Ð³Ð¸Ð½Ðµ": 7236,
      "Ð²ÐµÑīÐµ": 7237,
      "Ð²ÐµÐµÑĢÐ¾": 7238,
      "Ð±Ð¸Ð»Ð°": 7239,
      "Ð±Ð¸ÑĤÑĮ": 7240,
      "oriol": 7241,
      "Ð·Ð¾Ñİ": 7242,
      "ÑĩÐ°ÑģÑĤÐ¸": 7243,
      "Ð³ÑĢÐ°Ð²Ñİ": 7244,
      "ÑģÑĤÐ¸ÑĢÑĥ": 7245,
      "Ð»ÑĥÐº": 7246,
      "Ð±ÐµÑģÑĩÐ¸Ð½": 7247,
      "ingbroke": 7248,
      "Ð²ÑĭÐ¿ÑĢÐ°Ð²Ð¸": 7249,
      "Ð¼ÐµÑĤÑĢÑĥ": 7250,
      "Ð¼ÐµÑĤÑĢÐµ": 7251,
      "Ð¼ÐµÑĤÑĢÑĭ": 7252,
      "Ð¼ÐµÑĤÑĢÐ°Ñħ": 7253,
      "Ð¼ÐµÑĤÑĢÐ¾Ð¼": 7254,
      "Ð¼ÐµÑĤÑĢÐ°Ð¼": 7255,
      "Ð¼ÐµÑĤÑĢÐ°Ð¼Ð¸": 7256,
      "ceed": 7257,
      "Ð°Ð²ÑĤÐ¾ÐºÐ¾": 7258,
      "Ð·Ð°ÐºÐ°Ð»ÑĭÐ²Ð°": 7259,
      "Ġwithout": 7260,
      "enty": 7261,
      "Ð±ÐµÑĢÑĥ": 7262,
      "Ð½Ð¸ÐµÑİ": 7263,
      "Ð³ÑĢÐµÐ²Ð°": 7264,
      "Ð²ÑĢÐ°ÑĩÐµÐ²Ð°": 7265,
      "Ġask": 7266,
      "Ð²ÐºÐ»Ñİ": 7267,
      "Ð²ÐºÐ»ÑİÑĩÐ¸": 7268,
      "Ð´Ð¸ÑģÐ¿ÑĢÐ¾": 7269,
      "Ð´Ð¸ÑģÐ¿Ñĥ": 7270,
      "Ð´Ð¸ÑģÐ¿ÐµÑĤ": 7271,
      "ross": 7272,
      "ÑĢÐ¾Ð²ÐºÑĥ": 7273,
      "ÑĢÐ¾Ð²ÐºÐµ": 7274,
      "ÑĢÐ¾Ð²ÐºÐ¾Ð¹": 7275,
      "ÑĢÐ¾Ð²ÐºÐ¾Ñİ": 7276,
      "ÑĤÐ¸ÑĢÑĥÐ±Ð»Ñĳ": 7277,
      "Ð±Ð°Ð»Ð±ÐµÑģ": 7278,
      "ÑĤÐ¸Ð²Ð½ÑĭÐ¼": 7279,
      "ÑĤÐ¸Ð²Ð½ÑĭÑħ": 7280,
      "ÑĤÐ¸Ð²Ð½ÑĥÑİ": 7281,
      "ÑĤÐ¸Ð²Ð½ÑĭÐ¼Ð¸": 7282,
      "ÑĤÐ¸Ð²Ð½Ð°Ñı": 7283,
      "ÑĤÐ¸Ð²Ð½ÑĭÐµ": 7284,
      "ÑĤÐ¸Ð²Ð½Ð¾Ð¼": 7285,
      "ÑĤÐ¸Ð²Ð½Ð¾Ð¹": 7286,
      "ÑĤÐ¸Ð²Ð½Ð¾Ñİ": 7287,
      "ÑĤÐ¸Ð²Ð½Ð¾Ð³Ð¾": 7288,
      "ÑĤÐ¸Ð²Ð½Ð¾Ðµ": 7289,
      "ÑĤÐ¸Ð²Ð½Ð¾Ð¼Ñĥ": 7290,
      "Ð´Ð¾Ð¿ÑĢÑĭÐ³Ð°": 7291,
      "Ð·Ð»Ð¾ÑģÐ»Ð¾": 7292,
      "ush": 7293,
      "Ġlost": 7294,
      "Ð³Ð»ÑĥÐ±Ð¾": 7295,
      "Ð·Ð°Ð¿ÐµÐ²Ð°": 7296,
      "Ð·Ð°Ð±Ð¾Ð»ÐµÐ²Ð°": 7297,
      "Ð±Ð°Ð½Ð´Ð°": 7298,
      "Ð´Ð¾ÐºÐ°ÑĢÐ¼Ð»Ð¸Ð²Ð°": 7299,
      "Ð²ÑĭÐ¿Ð¸ÑħÐ¸Ð²Ð°": 7300,
      "arewell": 7301,
      "olingbroke": 7302,
      "Ð²ÑĭÑģÐµÐ²Ð°": 7303,
      "Ð°Ð²Ð¸Ð°Ð¼Ð¾": 7304,
      "Ð±ÑĢÑİÑħÐ°": 7305,
      "Ð²ÑĭÑģÐºÐ°Ð»ÑĮÐ·ÑĭÐ²Ð°": 7306,
      "Ġpluck": 7307,
      "Ð·Ð°ÑħÐ²Ð°Ð»Ð¸Ð²Ð°": 7308,
      "Ð´ÐµÑĢÐµÐ²Ñı": 7309,
      "Ð°ÑĤÐ°ÐºÑĥ": 7310,
      "Ð²ÑĭÐ¿Ð¾ÑĢÐ¾": 7311,
      "Ð´Ð¾ÑģÑĤÐ¾Ñı": 7312,
      "Ð´Ð²Ð¾Ð¸": 7313,
      "Ð·Ð°Ð½Ð¾Ð·Ð¸": 7314,
      "Ð²ÑĭÑĢÑıÐ¶Ð°": 7315,
      "Ð²Ð¾Ð·Ð½Ð°Ð³ÑĢÐ°": 7316,
      "Ð´ÑĥÐ±Ð»Ð¸ÑĢÐ¾Ð²Ð°": 7317,
      "Ð´Ð¾Ð·Ð²Ð¾Ð»Ñı": 7318,
      "Ġreport": 7319,
      "ÐµÐ²ÑĢÐ¾Ð¿ÐµÐ¹": 7320,
      "Ð°Ð·Ð¸Ð°ÑĤ": 7321,
      "Ġliege": 7322,
      "Ð²Ð¾ÑģÐ¿ÑĢÐµÑīÐ°": 7323,
      "Ð°Ð½Ð³Ð¸Ð¾": 7324,
      "Ð°ÑģÑģÐ¾ÑĨÐ¸Ð¸ÑĢÑĥ": 7325,
      "Ð°Ð½ÐºÐµÑĤÐ¸ÑĢÐ¾Ð²Ð°": 7326,
      "Ð²Ð°ÑĢÑĮÐ¸ÑĢÐ¾Ð²Ð°": 7327,
      "Ð±ÑĢÐ¸ÐºÐµÑĤÐ¸ÑĢÐ¾Ð²Ð°": 7328,
      "Ð²ÑĭÐºÐ»ÑıÐ½ÑĩÐ¸Ð²Ð°": 7329,
      "Ð°Ð»ÐºÐ¾Ð³Ð¾Ð»Ð¸": 7330,
      "Ð²ÑģÑħÑĢÐ°Ð¿ÑĭÐ²Ð°": 7331,
      "Ġbelieve": 7332,
      "Ġspirit": 7333,
      "ling": 7334,
      "sh": 7335,
      "xt": 7336,
      "Ð²Ð½ÑĭÐ¹": 7337,
      "Ð²ÐµÑĤÐµ": 7338,
      "ÑĤÐºÑĥ": 7339,
      "ÑĤÐµÑĤÐ¸": 7340,
      "Ð»ÐºÐ°Ð¼": 7341,
      "Ð»ÐºÐ°Ñħ": 7342,
      "Ð»ÐºÐ¾Ð¹": 7343,
      "Ð»ÐºÐ¾Ñİ": 7344,
      "Ð³Ð²Ð¸": 7345,
      "Ð·Ð°Ð´ÑĭÐ¼": 7346,
      "Ð·Ð°ÑĢÐ¾Ð²Ð½Ñı": 7347,
      "Ð²ÑĭÐ±Ð¾Ð»ÑĤÐ°": 7348,
      "Ð²ÑĭÐ³Ð»ÑıÐ´ÑĭÐ²Ð°": 7349,
      "ÑĩÐ½Ð¸Ðº": 7350,
      "ÑīÐµÐ½Ð½Ð¾Ñİ": 7351,
      "ÑīÐµÐ½Ð½Ð¾Ð¹": 7352,
      "ÑīÐµÐ½Ð½Ð¾Ð¼": 7353,
      "ÑīÐµÐ½Ð½Ð¾Ðµ": 7354,
      "ÑīÐµÐ½Ð½Ð¾Ð¼Ñĥ": 7355,
      "Ð´Ð¾ÑĪÐºÐ¾": 7356,
      "ÐºÐ¾Ð·": 7357,
      "Ð¼Ð¸ÑĤÑĢÐ¸": 7358,
      "Ð»Ð¾Ð³Ñĥ": 7359,
      "Ð»Ð¾Ð³Ðµ": 7360,
      "ÑĤÐ¸ÑĤÑĮ": 7361,
      "Ð½Ð°Ð¹": 7362,
      "Ð´Ð¸Ðµ": 7363,
      "Ġair": 7364,
      "Ġage": 7365,
      "outh": 7366,
      "ÑĦÑĢÐµ": 7367,
      "Ð´Ð°ÑĤÐ¸ÑĢÑĥ": 7368,
      "Ġwat": 7369,
      "Ð¼Ð¾ÑĢÐ°": 7370,
      "Ð²ÐµÐ»": 7371,
      "Ð°Ð½ÐµÐ¼Ð¾": 7372,
      "Ð²Ð·Ð±Ð¾Ð´ÑĢÐ¸": 7373,
      "Ð·Ð¸ÑĢÑĥÑİ": 7374,
      "Ð½ÐµÑĪÑĮÑģÑı": 7375,
      "Ð´ÑĥÑĢÐµ": 7376,
      "Ð²ÑģÐ¼Ð°ÑĤÑĢÐ¸Ð²Ð°": 7377,
      "ÑĩÐ¸Ð²ÑĪÐ¸Ð¹": 7378,
      "Ð²ÐµÑĢÐ±Ð¾Ð²Ð°": 7379,
      "Ð¶Ð¸ÑĤÑĮ": 7380,
      "Ð²Ð¾Ð·Ð»Ð¾": 7381,
      "Ð¶Ð°ÑĢÐ¸": 7382,
      "Ð»ÑĮÐ½Ð¾ÑģÑĤÑĮ": 7383,
      "Ġheir": 7384,
      "Ð·Ð°ÑĤÐ²Ð¾ÑĢÐ¸": 7385,
      "Ð²ÑĭÐ¿ÐµÑĢ": 7386,
      "Ð»ÑİÑģÑĮ": 7387,
      "Ð»ÐµÐ½ÑĮ": 7388,
      "ets": 7389,
      "Ð·Ð°ÐºÐ¾ÑĢÐ¾": 7390,
      "Ð²Ð¾Ð´Ð¾Ð¿ÑĢÐ¾": 7391,
      "Ð²Ð¿ÐµÑĢÐ¸": 7392,
      "Ð²ÑĭÐºÐ»ÑİÑĩÐ¸": 7393,
      "Ð²Ð¾Ð´Ð²Ð¾ÑĢÐ¸": 7394,
      "Ð·Ð°Ð¿Ð¾Ð·Ð´Ð°": 7395,
      "Ð²ÑĭÑħÑĥÑħÐ¾": 7396,
      "Ð·ÐµÐ¹": 7397,
      "Ð·Ð°Ð³Ð¾ÑĢÐ¾Ð´Ð¸": 7398,
      "Ð²ÑģÑĤÑĢÐµÑĤÐ¸": 7399,
      "Ð±ÑĢÐ¸ÑĤ": 7400,
      "ÑģÑĤÐ²Ð¾Ð²Ð°Ð²ÑĪÐ¸Ð¹": 7401,
      "Ð³Ð¾Ð»Ð¾Ð´Ð°": 7402,
      "ains": 7403,
      "Ð²Ð½ÐµÐ´ÑĢÐ¸": 7404,
      "Ġthyself": 7405,
      "ift": 7406,
      "Ð´ÑĢÐµÐµ": 7407,
      "Ġloss": 7408,
      "Ð·Ð°Ð¿ÑĥÐ´ÑĢÐ¸Ð²Ð°": 7409,
      "Ð°ÑįÑĢÐ¾Ñģ": 7410,
      "Ð´Ð¾ÐºÐ°ÑĪÐ¸Ð²Ð°": 7411,
      "Ð²ÑĭÐ³Ð¾Ð²Ð¾ÑĢÐ¸": 7412,
      "Ð²ÑĭÐ³Ð¾ÑĢÐ¾Ð´Ð¸": 7413,
      "Ð²ÑĭÐ¿Ð°Ð´Ð°": 7414,
      "ĠMont": 7415,
      "Ð±Ð°Ð»Ð°Ð³Ñĥ": 7416,
      "ÑīÐµÐ½Ð½ÑĭÐ¼": 7417,
      "ÑīÐµÐ½Ð½ÑĭÑħ": 7418,
      "ÑīÐµÐ½Ð½ÑĥÑİ": 7419,
      "ÑīÐµÐ½Ð½ÑĭÐ¼Ð¸": 7420,
      "ÑīÐµÐ½Ð½Ð°Ñı": 7421,
      "ÑīÐµÐ½Ð½ÑĭÐµ": 7422,
      "Ð²ÑĭÐ¿Ð¸ÑĢÐ°": 7423,
      "Ð·Ð°Ð²Ð¾Ð·Ð¸": 7424,
      "Ð´Ð¾Ð±ÑĢÐ¾Ð¶ÐµÐ»Ð°": 7425,
      "Ð±ÐµÑģÐ¿Ð¾ÐºÐ¾Ð¹": 7426,
      "Ð²ÑĭÑĩÐ¸ÑģÑĤÐ¸": 7427,
      "Ġsays": 7428,
      "ÑıÑīÐ¸Ð¼": 7429,
      "ĠBolingbroke": 7430,
      "Ð·Ð¸ÑĢÐ¾Ð²Ð°Ð½Ð½ÑĭÑħ": 7431,
      "Ð¼ÑıÐ½Ñĥ": 7432,
      "Ð´Ð¾Ð³Ð¾Ð²Ð¾ÑĢÐ¸": 7433,
      "Ð°Ð·Ð¾ÑĤÐ¸": 7434,
      "Ð²ÑĨÐµÐ¿Ð¸": 7435,
      "Ð·Ð°ÑģÑĤÑĥÐ¿": 7436,
      "Ð·Ð°ÑģÑĤÑĥÐ¿Ð¸": 7437,
      "Ð±Ð°ÑħÑĩÐµ": 7438,
      "Ð·Ð°ÑĨÐµÐ¿Ð¸": 7439,
      "Ð´Ð¸Ð¿Ð»Ð¾Ð¼Ð°ÑĤÐ¸": 7440,
      "Ð²ÐµÐ»Ð¾ÑģÐ¸": 7441,
      "Ð°Ð½Ð°Ð»Ð¸Ð·Ð¸ÑĢÑĥ": 7442,
      "Ð²Ð²Ð¾Ð·Ð¸": 7443,
      "Whose": 7444,
      "Ð²ÑģÐºÐ»Ð¾ÑĩÐ¸Ð²Ð°": 7445,
      "Ð±Ð°ÑĢÑĢÐ¸ÐºÐ°Ð´Ð¸ÑĢÑĥ": 7446,
      "Ð·Ð°ÑĪÐµÐ²ÐµÐ»Ð¸": 7447,
      "Ð°Ð´Ð°Ð¿ÑĤÐ¸ÑĢÐ¾Ð²Ð°": 7448,
      "Ð²Ð·Ð³ÑĢÐ¾Ð¼Ð¾Ð·Ð´Ð¸": 7449,
      "Ð´Ð¸ÑģÐºÑĥÑĤÐ¸ÑĢÑĥ": 7450,
      "Ð±Ð°ÑĪÐ¼Ð°": 7451,
      "Ð´Ð¸ÑģÐ»Ð¾ÐºÐ°": 7452,
      "Ð·Ð°Ð¸Ð½ÑĤÐµÑĢÐµÑģÐ¾Ð²Ð°": 7453,
      "Ð°Ð¿ÐµÐ»Ð»Ð¸": 7454,
      "Ð¿Ð¾Ð»Ð¸ÑĤÐ¸": 7455,
      "Ð´Ð¾Ð¿Ð°Ð»ÑĭÐ²Ð°": 7456,
      "Ð´Ð¾ÑģÐ¸Ð¶Ð¸Ð²Ð°": 7457,
      "Ð´ÐµÐ·Ð¾ÑĢÐ¸ÐµÐ½ÑĤÐ¸ÑĢÐ¾Ð²Ð°": 7458,
      "Ð±ÑĥÑĦÐµÑĤ": 7459,
      "One": 7460,
      "Ð°ÑģÑĤÐ¼Ð°ÑĤÐ¸": 7461,
      "Ð²Ð·Ð²Ð¸Ð·Ð³Ð¸Ð²Ð°": 7462,
      "Ð¸Ð·Ð¾Ð»Ñı": 7463,
      "Ð·Ð°ÑĢÐµÐ³Ð¸ÑģÑĤÑĢÐ¸ÑĢÐ¾Ð²Ð°": 7464,
      "Ð·Ð°ÐºÐ¾Ð½ÑģÐ¿Ð¸ÑĢÐ¸ÑĢÐ¾Ð²Ð°": 7465,
      "Ð´Ð²Ð¾ÑıÐºÐ¾": 7466,
      "Ġstrange": 7467,
      "Ð·Ð°ÑĤÑĢÑıÑģ": 7468,
      "ALO": 7469,
      "Had": 7470,
      "ial": 7471,
      "no": 7472,
      "ner": 7473,
      "Ð²Ð½ÑĥÑİ": 7474,
      "Ð²Ð½Ð¾Ñİ": 7475,
      "Ð²ÐºÐ°Ð¼": 7476,
      "Ð²ÐºÐ°Ð¼Ð¸": 7477,
      "Ð²ÐºÐ¸Ð´ÑĭÐ²Ð°": 7478,
      "Ð²Ð»ÑİÐ±Ð¸": 7479,
      "Ð²Ð³Ð»ÑıÐ´ÑĭÐ²Ð°": 7480,
      "ÐµÐ»Ðµ": 7481,
      "Ð½ÑĢÐ°": 7482,
      "Ð½ÐµÐ½Ð½Ð¾Ñİ": 7483,
      "Ð½ÐµÐ½Ð½Ð¾Ð¹": 7484,
      "Ð½ÐµÐ½Ð½Ð¾Ð³Ð¾": 7485,
      "Ð½ÐµÐ½Ð½Ð¾Ð¼": 7486,
      "Ð½ÐµÐ½Ð½Ð¾Ðµ": 7487,
      "Ð½ÐµÐ½Ð½Ð¾Ð¼Ñĥ": 7488,
      "ÑĤÐµÑģ": 7489,
      "ÑĥÐ´Ð°": 7490,
      "Ð·Ð°ÑģÐºÐ¸": 7491,
      "Ð·Ð°Ð²ÑĮÑİ": 7492,
      "Ð·Ð°Ð±Ð°ÑĢÑĢÐ¸ÐºÐ°Ð´Ð¸ÑĢÐ¾Ð²Ð°": 7493,
      "Ð¿ÑĩÐ¸Ð²Ð°": 7494,
      "Ð²ÑĭÑģÑĤÑĢÐ¾Ð¸": 7495,
      "ÑĩÐ¾Ð½": 7496,
      "Ð³Ð¾ÑģÑĤÐµ": 7497,
      "Ð´Ð¾Ð¾": 7498,
      "Ð´Ð¾Ð´ÐµÑĢ": 7499,
      "Ð¶ÐºÑĥ": 7500,
      "Ð»Ð¾Ð³Ð°Ð¼": 7501,
      "Ð»Ð¾Ð³Ð°Ð¼Ð¸": 7502,
      "Ð»Ð¾Ð³Ð°Ñħ": 7503,
      "Ð»Ð°Ðµ": 7504,
      "ÑĤÐ¾ÑģÑĤÑĮ": 7505,
      "Ð²Ð¸ÑĪ": 7506,
      "Ð²Ð¸ÐºÐ°": 7507,
      "Ð´Ð¸Ñĥ": 7508,
      "ÑĢÐ¾Ð²Ð°Ð¶Ð¸Ð²Ð°": 7509,
      "Ð¼Ð°Ð½Ð°": 7510,
      "Ð´Ð°Ð¼Ð¾": 7511,
      "Ð±ÐµÐºÐ°": 7512,
      "Ð¿Ð¾ÐµÐ·": 7513,
      "Ð³Ð¸ÑĤ": 7514,
      "Ð²ÐµÑĨ": 7515,
      "Ġbat": 7516,
      "ÑģÐ¾ÑĦ": 7517,
      "Ð²Ð·Ð´ÑĢÐ°": 7518,
      "Ð²Ð·Ð²ÐµÑģÐ¸": 7519,
      "Ð²Ð·Ð±ÐµÑģÐ¸": 7520,
      "ÑĩÐ¸Ð²": 7521,
      "ÑĩÐ¸Ð»": 7522,
      "Ð²Ð¾Ð·ÑĢÐ¾Ð´Ð¸": 7523,
      "Ð¿Ð°Ðº": 7524,
      "Ġcry": 7525,
      "Ġlearn": 7526,
      "ÑģÑĤÐ¸Ð³": 7527,
      "Ð·Ð°ÑģÐ²Ð¸": 7528,
      "Ð³ÑĥÐ¼Ð¸": 7529,
      "Ð°ÑĢÑĤÐµÑĢÐ¸": 7530,
      "Ð±ÑĢÐ°Ñģ": 7531,
      "Ð·Ð°ÑĤÑĢÐ¾": 7532,
      "Ð²ÑĭÐ¿ÑĢÐ¾Ð²Ð°Ð¶Ð¸Ð²Ð°": 7533,
      "Ð´ÐµÑĢÐ¼Ð°ÑĤÐ¾": 7534,
      "Ð±ÑĢÐ¾Ð¼Ð¸": 7535,
      "Ð´ÑĢÐ¾Ð±": 7536,
      "ced": 7537,
      "Ð·Ð°ÐºÐ¾ÑĢÐ°ÑĩÐ¸Ð²Ð°": 7538,
      "Ð·Ð°ÐºÐ¾Ð¿ÑĤÐ¸": 7539,
      "Ð±Ð»Ð°Ð³Ð¾ÑĢÐ¾Ð´": 7540,
      "Ð±Ð»Ð°Ð³Ð¾Ð´Ð°ÑĢÐ¸": 7541,
      "ÑĦÐ¾Ð½": 7542,
      "ÑĨÐ¸Ð¾Ð½Ð°": 7543,
      "Ð²ÑĭÐºÑĢÑĥÑĤÐ¸": 7544,
      "Ð·Ð°ÐºÐ°Ð·": 7545,
      "Ð¼ÑĭÑħ": 7546,
      "Ð°Ð»ÑĮÐ±Ñĥ": 7547,
      "Ð·Ð°Ð¼Ð°Ñı": 7548,
      "Ð·Ð°Ð¼Ð°ÑģÐ»Ð¸": 7549,
      "Ð·Ð°Ð³Ð¾Ð²Ð¾ÑĢÐ¸": 7550,
      "Ð±Ð°ÑĢÑģÑĥ": 7551,
      "Ð·Ð°Ð¸ÐºÐ°": 7552,
      "Ð³ÐµÐ½ÐµÑĤÐ¸": 7553,
      "ÑģÑĤÐ²Ð¾Ð²Ð°Ð»": 7554,
      "ÐĵÐ°Ð²": 7555,
      "Ð½ÐµÐ½Ð°": 7556,
      "Ð²Ð½ÑĥÑĪÐ¸": 7557,
      "Ð·Ð°ÑĤÐ°Ð¸": 7558,
      "Ð±ÑĥÑĢÐ»Ð°": 7559,
      "Ġsuff": 7560,
      "Ð¸Ð·Ð¼Ðµ": 7561,
      "Ð·Ð°Ð¿ÑĢÐ¾Ð³ÑĢÐ°Ð¼": 7562,
      "Ð·Ð°ÑĨÐ¸ÐºÐ»Ð¸": 7563,
      "Ð²ÑģÐ¿ÑĢÑĭÑģÐºÐ¸Ð²Ð°": 7564,
      "Ð·Ð°ÑĩÐ¸ÑģÐ»Ð¸": 7565,
      "Ð±Ð¾Ð»Ð²Ð°": 7566,
      "Ð¼ÐµÑĤÑĢÐ¸Ñı": 7567,
      "Ð·Ð°ÑĢÐµÐ³Ñĥ": 7568,
      "Ð»ÑĳÐ½Ð½ÑĭÐ¹": 7569,
      "Ð»ÑĳÐ½Ð½ÑĭÐ¼": 7570,
      "Ð»ÑĳÐ½Ð½ÑĭÑħ": 7571,
      "Ð»ÑĳÐ½Ð½ÑĥÑİ": 7572,
      "Ð»ÑĳÐ½Ð½ÑĭÐ¼Ð¸": 7573,
      "Ð»ÑĳÐ½Ð½Ð°Ñı": 7574,
      "Ð»ÑĳÐ½Ð½ÑĭÐµ": 7575,
      "Ð³ÑĢÑĭÐ·Ñĥ": 7576,
      "Ð·Ð°ÐºÑĢÑĥÐ³Ð»Ð¸": 7577,
      "Ð°ÑĦÑĢÐ¸ÐºÐ°": 7578,
      "Ð²ÑĭÐºÑĥÐ¿Ð¸": 7579,
      "Ð·Ð°Ð½Ð°Ð²ÐµÑģÐ¸": 7580,
      "Ð·Ð°Ð´ÑĢÐ°Ð¿Ð¸ÑĢÐ¾Ð²Ð°": 7581,
      "Ð´Ð¾ÐºÑĢÑĥÑĩÐ¸Ð²Ð°": 7582,
      "Ð²ÑĭÐ»ÐµÐ¿Ð»Ñı": 7583,
      "Ð·Ð°Ð³ÑĢÑĥÐ·Ð¸": 7584,
      "Ð·Ð¸ÑĢÐ¾Ð²Ð°Ð½Ð½ÑĭÐ¼": 7585,
      "Ð·Ð¸ÑĢÐ¾Ð²Ð°Ð½Ð½ÑĥÑİ": 7586,
      "Ð·Ð¸ÑĢÐ¾Ð²Ð°Ð½Ð½ÑĭÐ¼Ð¸": 7587,
      "Ð·Ð¸ÑĢÐ¾Ð²Ð°Ð½Ð½Ð°Ñı": 7588,
      "Ð·Ð¸ÑĢÐ¾Ð²Ð°Ð½Ð½ÑĭÐµ": 7589,
      "ÐµÐ´Ð¸Ð½Ð¾Ð±Ð¾ÑĢ": 7590,
      "Ð·Ð°Ð²ÑıÐ»Ð¸Ð²Ð°": 7591,
      "Ð°Ð²Ð°Ð½Ð³Ð°ÑĢ": 7592,
      "aking": 7593,
      "Ð»Ð¾Ð³Ð¾Ð¼": 7594,
      "Ð¿Ð°ÑĢÑħÐ¸Ð²Ð°": 7595,
      "Ð³Ð¾ÑĢÐ¸Ð·Ð¾Ð½": 7596,
      "Ð²ÑĭÐ·Ð´Ð¾ÑĢÐ°": 7597,
      "Ð²Ð¾Ð·Ð³Ð»Ð°ÑĪÐ°": 7598,
      "Ð²Ð¾Ð·Ð²ÑĢÐ°ÑĤÐ¸": 7599,
      "Ð´ÑĢÐµÐ½Ð¸": 7600,
      "Ġears": 7601,
      "Ð²Ð¾Ð½Ð·Ð¸": 7602,
      "Ð°Ð½Ð°Ð»Ð¸ÑĤÐ¸": 7603,
      "Ð·Ð°Ð¿Ð°ÑĢÐºÐ¾Ð²Ð°": 7604,
      "Ġhaste": 7605,
      "Ð²ÑģÑĥÑĩÐ¸Ð²Ð°": 7606,
      "Ð·Ð¸Ð¼Ð¾Ð²Ð°": 7607,
      "Ð·Ð°ÑĤÐ²ÐµÑĢÐ¶Ð¸Ð²Ð°": 7608,
      "Ð²ÑĭÐ³ÑĢÑĥÐ·Ð¸": 7609,
      "Ð³Ð¸Ð¿Ð½Ð¾ÑĤÐ¸Ð·Ð¸ÑĢÑĥ": 7610,
      "ĠClifford": 7611,
      "Ð·Ð°Ð³ÑĢÐ¸Ð¼Ð¸ÑĢÐ¾Ð²Ð°": 7612,
      "Ð²Ð¾Ð´ÑĢÑĥÐ·Ð¸": 7613,
      "Ð°ÑĦÐ¸ÑĪÐ¸": 7614,
      "ÐºÐµÑĢÑĥ": 7615,
      "Ð²ÑĭÐ¼ÑĭÑĪÐ»Ñı": 7616,
      "Ð´Ð¸ÑģÐ»Ð¾ÑĨÐ¸ÑĢÐ¾Ð²Ð°": 7617,
      "Ð²Ð¾ÑģÑģÐ¾Ð·Ð´Ð°Ð²Ð°": 7618,
      "Ð²Ð¼Ð°Ð·ÑĭÐ²Ð°": 7619,
      "Ð·Ð°Ð¼Ð°ÑģÐºÐ¸ÑĢÐ¾Ð²Ð°": 7620,
      "Ġentreat": 7621,
      "Ð·Ð°Ð¿ÑĢÐ¸ÑħÐ¾": 7622,
      "Ð´ÐµÐ±Ð°ÑĤÐ¸ÑĢÑĥ": 7623,
      "Ð°ÑģÑģÐ¾ÑĨÐ¸Ð¸ÑĢÐ¾Ð²Ð°": 7624,
      "Ð°Ð´ÑĬÐµÐº": 7625,
      "Ð´ÐµÐ¼Ð¾Ð±Ð¸Ð»Ð¸Ð·Ð¾Ð²Ð°": 7626,
      "Ð²Ð·Ð½ÑĥÐ·Ð´ÑĭÐ²Ð°": 7627,
      "Ġdevil": 7628,
      "Ð·Ð°ÑĪÑĤÑĥÐºÐ°ÑĤÑĥÑĢÐ¸Ð²Ð°": 7629,
      "Ð²ÑģÑĤÑĢÑĳÐ¿ÑĭÐ²Ð°": 7630,
      "Ġground": 7631,
      "Ð°Ð±ÑĢÐ¸ÐºÐ¾": 7632,
      "Ð·Ð°ÐºÐ°Ð¼ÑĥÑĦÐ»Ð¸ÑĢÐ¾Ð²Ð°": 7633,
      "Should": 7634,
      "Ð·Ð°ÑĢÐµÐºÐ¾Ð¼ÐµÐ½Ð´Ð¾Ð²Ð°": 7635,
      "Ð°Ð½ÐµÐºÐ´Ð¾ÑĤÐ¸": 7636,
      "Ġperson": 7637,
      "Ð´Ð¾Ð¼ÐµÑĪÐ¸Ð²Ð°": 7638,
      "Ð·Ð°ÐºÑĢÐ¸ÑģÑĤÐ°Ð»Ð»Ð¸Ð·Ð¾Ð²Ð°": 7639,
      "Ð²Ð¾ÑģÐµÐ¼Ð½Ð°Ð´": 7640,
      "Ð·Ð°ÐºÑĢÐ°ÑģÐ½Ðµ": 7641,
      "ĠJuliet": 7642,
      "Ð²ÑĭÐºÐ°Ð½ÑİÑĩÐ¸Ð²Ð°": 7643,
      "Like": 7644,
      "Wh": 7645,
      "ges": 7646,
      "night": 7647,
      "Ð°Ð²Ð°ÑĢÐ¸": 7648,
      "Ð²ÑģÑı": 7649,
      "Ð²ÑĢÑĭ": 7650,
      "Ð²ÐºÐ°Ñħ": 7651,
      "Ð²Ð´Ð²Ð¸Ð½Ñĥ": 7652,
      "Ð½ÑĢÐ°Ð²": 7653,
      "ÑģÐ¿Ð¸": 7654,
      "Ð»Ðº": 7655,
      "Ð»Ð»Ðµ": 7656,
      "Ð´ÐºÐ°": 7657,
      "Ð³ÑĢÐµÐ¼": 7658,
      "Ð²ÑĭÐ·Ð¾": 7659,
      "Ð²ÑĭÑģÑĤÑĢÐ¾": 7660,
      "ÑĮÑĳ": 7661,
      "Ð³Ð¾Ð»": 7662,
      "Ð³Ð¾Ñİ": 7663,
      "Ð´Ð¾ÑĨÐµ": 7664,
      "Ð´Ð¾ÑĢÐ¸ÑĢÐ¾Ð²Ð°": 7665,
      "ÐºÐ°Ð²ÑĪÐ¸Ð¹": 7666,
      "Ð»Ð¸Ð»": 7667,
      "Ð»Ð¸Ð»Ð¾": 7668,
      "Ð»Ð¸Ð»Ð¸": 7669,
      "ÑĢÐ¸Ð¸": 7670,
      "Ð²Ð¸ÑģÐ»Ð¾": 7671,
      "Ð´Ð¸Ð»Ð¾": 7672,
      "Ð´Ð¸Ð´Ð°ÐºÑĤÐ¸": 7673,
      "Ð±Ð°Ð¼Ð¸": 7674,
      "Ð±Ð°Ð±Ð¾": 7675,
      "Ð±Ð°Ð»Ð¾Ð²": 7676,
      "Ð±Ð°Ð»Ð¾Ð²Ð°": 7677,
      "ÑĦÑĢÐ¸": 7678,
      "Ġmur": 7679,
      "ined": 7680,
      "Ð²ÐµÐºÑģÐµ": 7681,
      "Ð²Ð·Ð²Ð¸Ð½ÑĤÐ¸": 7682,
      "Ð±ÑĥÑħÐ½Ñĥ": 7683,
      "Ġfly": 7684,
      "Ð²Ð¾Ð·Ð²ÑĭÑģÐ¸": 7685,
      "Ð²Ð¾Ð·Ð½ÐµÐ½Ð°Ð²Ð¸": 7686,
      "Ġtoward": 7687,
      "Ð±ÐµÑģÐ¿Ð»Ð¾": 7688,
      "Ġpast": 7689,
      "Ð°ÑĢÑħÐ¸Ð²Ð°": 7690,
      "oman": 7691,
      "Ð»ÑİÐ±": 7692,
      "ÑħÐ°Ð¼": 7693,
      "ÑħÐ°Ñħ": 7694,
      "ÑħÐ°Ð¼Ð¸": 7695,
      "Ð±ÑĢÐ¾Ð½ÐµÑĤ": 7696,
      "let": 7697,
      "Ð·Ð°ÐºÐ¾Ð»Ð¾ÑĤÐ¸": 7698,
      "Ð·Ð°ÐºÐ¾Ð»ÑĭÑħÐ°": 7699,
      "Ð°Ð½ÑĤÐ¸Ðº": 7700,
      "Ð°Ð²ÑĤÐ¾Ð¼Ð°ÑĤÐ¸Ð·Ð¸ÑĢÐ¾Ð²Ð°": 7701,
      "Ð´ÑĢÐ°Ð¿Ð¸ÑĢÐ¾Ð²Ð°": 7702,
      "Ð·Ð°ÐºÐ°ÑĤÐ¸": 7703,
      "Ð»Ð¾Ð³Ð¸ÑĩÐµÑģÐºÐ¸Ð¹": 7704,
      "ÐĴÑı": 7705,
      "Ð²Ð¾Ð»Ð¾Ð½ÑĤ": 7706,
      "Ð±Ð¸Ð¾Ð¸Ð½": 7707,
      "Ð²ÐºÑĢÐµ": 7708,
      "ÑģÑĤÐ²Ð¾Ð²Ð°Ð»Ð¸": 7709,
      "Ð³ÑĢÐ¸Ð¼Ð°Ñģ": 7710,
      "Ð·Ð°ÑĤÐ¾Ð²Ð°ÑĢÐ¸": 7711,
      "Ð²ÑģÐºÐ¸Ð¿ÑıÑĤÐ¸": 7712,
      "Ð²ÑĭÐºÐ¾Ð»Ð¾": 7713,
      "Ð³ÐµÑĢÐ¿": 7714,
      "Ð°Ð²Ð¸Ð°Ð´": 7715,
      "Ð³Ð»Ð¾ÑĤ": 7716,
      "Ġfast": 7717,
      "Ð±Ð¾Ð³Ð¾Ð¼Ð¾": 7718,
      "Ð·Ð°Ð²Ð¸ÑģÑĤ": 7719,
      "Ð°ÑįÑĢÐ¾ÑĦÐ¾ÑĤÐ¾": 7720,
      "Ġvis": 7721,
      "Ð°Ð»Ð¸ÑģÑĤÐ¸": 7722,
      "Ð·Ð°Ð¼ÑĥÑĤ": 7723,
      "Ð·Ð°Ð¼ÑĥÑĢÐ¾Ð²Ð°": 7724,
      "Ð±Ð¾Ð»ÑĤÐ½Ñĥ": 7725,
      "Ð·Ð°Ð±Ð°ÑĢÐ°Ñħ": 7726,
      "aud": 7727,
      "Ð³Ð¸Ð¿ÐµÑĢÑĤÑĢÐ¾ÑĦÐ¸": 7728,
      "ĠLu": 7729,
      "Ð°ÑĢÐ¸Ð°Ð½": 7730,
      "Ð²ÑĭÐ´Ð°Ð¸Ð²Ð°": 7731,
      "Ð²Ð·ÑĬÐµÑĢÐµÐ¿ÐµÐ½Ð¸": 7732,
      "Ð²ÑĭÐ»ÐµÐ¶Ð¸Ð²Ð°": 7733,
      "Ð°ÑģÑĤÑĢÐ¾ÑĦÐ¾ÑĤÐ¾": 7734,
      "Ð·Ð°Ð»Ð°ÑģÐºÐ°": 7735,
      "ÐĲÑĢÑĤ": 7736,
      "Ð³ÑĢÐ¾Ð¼Ð¾Ð·Ð´Ð¸": 7737,
      "Ð´ÐµÐ·Ð¾Ð´Ð¾ÑĢÐ¸ÑĢÐ¾Ð²Ð°": 7738,
      "Ð·Ð°Ð¿ÑĢÑıÑĤÐ°": 7739,
      "Ð·Ð°ÑĤÐ¸ÑģÐºÐ°": 7740,
      "Ð»Ð¾Ð³Ð¾Ð²": 7741,
      "Ð±ÐµÑĢÐµÐ·Ð¾": 7742,
      "Ð²ÑĤÐ°ÑīÐ¸": 7743,
      "Ġpoint": 7744,
      "Ġfriar": 7745,
      "Ð²ÑĭÐ»ÑĥÐ¿Ð¸": 7746,
      "Ð²ÑĭÐ·Ð²Ð°Ð½Ð¸Ð²Ð°": 7747,
      "Ð´ÐµÑĢÐµÐ²ÐµÐ½": 7748,
      "ÑĢÐ°ÑģÐ¿ÑĢÐµ": 7749,
      "Ð°ÑĤÐ°ÐºÐ¾Ð²Ð°": 7750,
      "ÑĤÐ¸ÑĢÐ¾Ð²Ð°Ð½Ð½ÑĭÐ¹": 7751,
      "Ġdisp": 7752,
      "Ð²Ð¾Ð»ÑĮÐ½Ð¾Ð½Ð°": 7753,
      "Ð²Ð¾ÑģÐ¿ÑĢÐ¾Ð¸Ð·Ð²ÐµÐ´": 7754,
      "Ð²ÑĭÐºÐ»Ð¸ÐºÐ¸Ð²Ð°": 7755,
      "Ð´ÐµÐ½Ð°ÑĨÐ¸": 7756,
      "Ð²ÑĢÐµÐ¼Ñı": 7757,
      "Ð´ÑĥÑĢÐ°ÑĩÐ¸": 7758,
      "Ð°Ð½Ð°Ð»Ð¸Ð·Ð¸ÑĢÐ¾Ð²Ð°": 7759,
      "Ġslain": 7760,
      "Ð°Ð±Ð¾Ð½ÐµÐ½": 7761,
      "Ð³ÑĢÐ°Ð½ÑĥÐ»Ð¾": 7762,
      "Ð²ÑģÐºÐ°ÐºÐ¸Ð²Ð°": 7763,
      "Ġbetw": 7764,
      "ÑĤÐµÐ»ÑĮÐ½Ð¸ÑĨÐ°Ð¼": 7765,
      "ÑĤÐµÐ»ÑĮÐ½Ð¸ÑĨÐ°Ñħ": 7766,
      "ÑĤÐµÐ»ÑĮÐ½Ð¸ÑĨÐ°Ð¼Ð¸": 7767,
      "Ð·Ð°ÑģÐµÐºÑĢÐµÑĤÐ¸": 7768,
      "Ð²Ð¸Ð´Ð¾Ð¸Ð·Ð¼ÐµÐ½": 7769,
      "Ð²Ð¸Ð´Ð¾Ð¸Ð·Ð¼ÐµÐ½Ð¸": 7770,
      "Ð°Ð½Ð³Ð»Ð¾Ñģ": 7771,
      "Ð·Ð°ÑĪÐ½ÑĥÑĢÐ¾Ð²Ð°": 7772,
      "Ð¶ÐµÑĢÐµÐ±": 7773,
      "ĠFrance": 7774,
      "Ð·Ð°ÑĤÐ¾ÑĢÐ¼Ð¾Ð·Ð¸": 7775,
      "Ð²ÑĭÑĤÐ°ÑĢÐ°ÑīÐ¸": 7776,
      "Ð´Ð¾ÑĤÐ°ÑīÐ¸": 7777,
      "Ð´ÐµÑĦÐµÐºÑĤÐ¾": 7778,
      "Ð²ÑĭÑģÐ²ÐµÑĤÐ¸": 7779,
      "Ð²ÑģÐ¿Ð¾Ð»Ð¾ÑĪÐ¸": 7780,
      "Ð´ÐµÐ¼Ð¾ÑĢÐ°Ð»Ð¸Ð·Ð¾Ð²Ð°": 7781,
      "ixt": 7782,
      "Ð´ÐµÐ·Ð¸Ð½ÑĦÐ¾ÑĢÐ¼Ð¸ÑĢÐ¾Ð²Ð°": 7783,
      "Ð¶ÐµÑģÑĤÐ¾ÐºÐ¾": 7784,
      "Ð°Ð±ÑģÐ¾ÑĢÐ±Ð¸ÑĢÐ¾Ð²Ð°": 7785,
      "Ð²ÑģÐ¿Ð»ÐµÑģÐºÐ¸Ð²Ð°": 7786,
      "Ð²Ð¾ÑĨÐ°ÑĢÐ¸": 7787,
      "Ð±ÑĥÑĢÑĥÐ½Ð´Ñĥ": 7788,
      "Ġjustice": 7789,
      "Ð·Ð°Ð¼Ð°ÑĢÐ¸Ð½Ð¾Ð²Ð°": 7790,
      "Ġstraight": 7791,
      "Ð·Ð°Ð±Ð»Ð¾ÐºÐ¸ÑĢÐ¾Ð²Ð°": 7792,
      "Ð·Ð°ÐºÐ¾Ð½ÑģÐµÑĢÐ²Ð¸ÑĢÐ¾Ð²Ð°": 7793,
      "Ð´ÐµÐ²ÑıÐ½Ð¾ÑģÑĤÐ¾": 7794,
      "Ġremember": 7795,
      "Ð´ÐµÑģÐ¿Ð¾ÑĤÐ¸": 7796,
      "Ð°Ð»Ð³Ð¾ÑĢÐ¸ÑĤÐ¼Ð¸": 7797,
      "Ð·Ð°ÐºÐ¾Ð»Ð´Ð¾Ð²ÑĭÐ²Ð°": 7798,
      "Ð·Ð°ÑĤÐ¾ÑĢÐ¾Ð¿Ð¸": 7799,
      "APULET": 7800,
      "FL": 7801,
      "FID": 7802,
      "IZ": 7803,
      "May": 7804,
      "Some": 7805,
      "Ġord": 7806,
      "Ð²Ð¶Ð¸Ð²Ð°": 7807,
      "Ð²Ð½Ð¾Ð¼": 7808,
      "Ð²Ð´ÐµÐ»Ð°": 7809,
      "Ð²Ð¼ÑĳÑĤÑĭÐ²Ð°": 7810,
      "Ð·Ð²Ðµ": 7811,
      "Ð·Ð´Ñı": 7812,
      "Ð³Ð²Ð°": 7813,
      "Ð·Ð°Ð´Ð²Ð¸Ð½Ñĥ": 7814,
      "Ð·Ð°Ð´ÑĭÐ¼Ð¸": 7815,
      "Ð·Ð°Ð±ÐµÑģÐ¿Ð¾ÐºÐ¾Ð¸": 7816,
      "Ð·Ð°ÑĨÐµÐ¼ÐµÐ½": 7817,
      "ÑĭÐ¹": 7818,
      "Ð¿ÑĢÐ°Ð²Ð¸": 7819,
      "Ð²ÑĭÑīÑĳ": 7820,
      "Ð²ÑĭÐ±ÑĢÐ¾ÑģÐ¸": 7821,
      "Ð²ÑĭÐ½ÑİÑħÐ¸Ð²Ð°": 7822,
      "Ð²Ð¾Ð´ÐµÐ²Ð¸": 7823,
      "Ð¶ÑĳÑĢ": 7824,
      "Ð»Ð¸Ð»Ð°": 7825,
      "Ð»ÑĮÑİ": 7826,
      "ÐµÑģÑĭÐ²Ð°": 7827,
      "ÑĤÐ¾ÑĢÐ°": 7828,
      "Ð³Ð°Ð¸": 7829,
      "Ð±Ð¾Ñİ": 7830,
      "Ð±Ð¾Ð¶Ð¸": 7831,
      "ÑĢÐ¾Ð²Ð°Ñı": 7832,
      "Ġsil": 7833,
      "Ð»ÐµÑĩÐµÐ±": 7834,
      "Ð¼Ð°Ñı": 7835,
      "ina": 7836,
      "Ð²ÐµÐµ": 7837,
      "Ġbold": 7838,
      "Ð²Ð·ÑĭÐ²Ð°": 7839,
      "Ð²Ð·Ð½Ð¾ÑģÐ¸": 7840,
      "Ð·Ð°Ð¿Ð°Ñı": 7841,
      "Ð±ÑĥÐ´Ð¾ÑĢÐ°": 7842,
      "Ð·Ð¸Ð¹": 7843,
      "Ð´ÑĥÐ±Ð¾": 7844,
      "Ð²ÐµÑĢÑĤÑĥ": 7845,
      "Ð¶Ð¸Ð²Ð¸": 7846,
      "Ð¶Ð¸Ð²Ð¾ÑĢÐ¾": 7847,
      "Ð¿Ð°ÑĤÑĢÐ¸": 7848,
      "Ġcurse": 7849,
      "Ġnear": 7850,
      "Ð±ÐµÑģÐ¾": 7851,
      "Ð°ÑĢÑħ": 7852,
      "ÑĪÐµÐ½Ð¾": 7853,
      "Ð²ÑĭÐ¿Ð°Ñı": 7854,
      "Ð²ÑĭÐ¿Ð»ÑĭÐ²Ð°": 7855,
      "Ð²ÑĭÐ¿ÑĢÑĭÐ³Ð¸Ð²Ð°": 7856,
      "Ð²ÑĤÐ¾ÑĢÐ¸": 7857,
      "Ð²ÑĤÐ¾Ð»ÐºÐ½Ñĥ": 7858,
      "Ð´ÑĢÐ¾Ð³Ð½Ñĥ": 7859,
      "Ð·Ð°ÐºÐ¾Ð½Ð½Ð¾": 7860,
      "Ð°Ð½ÑĤÐ¸ÐºÐ¾Ð¼": 7861,
      "Ð°Ð½ÑĤÐ¸ÑģÐ¾Ð²ÐµÑĤ": 7862,
      "ution": 7863,
      "Ð³ÑĢÐ¾Ð·Ð¸": 7864,
      "Ð³Ð»Ð°Ð²ÐµÐ½": 7865,
      "Ð²Ð¿Ð»ÑĭÐ²Ð°": 7866,
      "Ð²Ð¿ÑĢÑĭÐ³Ð¸Ð²Ð°": 7867,
      "Ð²ÑĭÐºÐ»Ñİ": 7868,
      "Ð·Ð°Ð¿Ð¾Ð´Ð¾Ð·": 7869,
      "Ð·Ð°Ð¿Ð¾Ð¼Ð½Ð¸": 7870,
      "Ð²ÑĭÑģÐ¾ÐºÐ¾Ñĥ": 7871,
      "Ġstrong": 7872,
      "ÑģÑĤÐ²ÑĥÑİÑīÐ¸Ð¹": 7873,
      "Ð½ÑĤÐ¾Ð¼": 7874,
      "Ð±Ð°ÑĢÐºÐ°": 7875,
      "These": 7876,
      "Ð½ÑĮÐµÐ¼": 7877,
      "Ð²ÑĭÐ¼ÑĳÑĤÑĭÐ²Ð°": 7878,
      "Ð²ÑĭÐºÐ°ÑĤÐ¸": 7879,
      "Ð·Ð°Ð¿Ð°Ð·Ð´ÑĭÐ²Ð°": 7880,
      "Ð´Ð¾ÑģÑĩÐ¸ÑĤÑĭÐ²Ð°": 7881,
      "Ð·Ð°Ð±ÐµÑĤÐ¾": 7882,
      "Ð·Ð°Ð²ÐµÑĢÐ±Ð¾Ð²Ð°": 7883,
      "Ð²ÐµÐ´ÑĮ": 7884,
      "Ð²ÑĭÐ¼Ð°Ð»ÑĳÐ²ÑĭÐ²Ð°": 7885,
      "Ð²ÑĭÐ¼Ð°Ð»ÐµÐ²ÑĭÐ²Ð°": 7886,
      "ÑĩÑĥÐ²ÑģÑĤ": 7887,
      "Ð»Ð°Ð½ÑĤÐ¸": 7888,
      "Ð°Ð¿Ð¿ÐµÑĢ": 7889,
      "Ð·Ð°Ð¿ÑĢÐ¾ÑĤÐ¾": 7890,
      "ĠCAPULET": 7891,
      "Ð²ÑģÐ¿Ð»ÑĭÐ²Ð°": 7892,
      "Ð²ÑĭÐ¼Ð¾Ð»": 7893,
      "ORIZ": 7894,
      "Ð´Ð¾ÐºÐ°ÑĤÐ¸": 7895,
      "Ð´Ð¾Ð¼Ð½Ð¾": 7896,
      "Ð²ÑĭÑĤÐ°ÑĤÑĥ": 7897,
      "Ð²Ð²ÐµÑĢÐ¸": 7898,
      "Ð·Ð°Ð±Ð°Ð»Ð¾Ð²Ð°": 7899,
      "Ð¿Ð»Ð°ÑģÑĤÐ¸": 7900,
      "Ð²ÑģÐ¿Ð¾Ð¼Ð½Ð¸": 7901,
      "Ð·Ð°ÐºÑĢÑĥÑĤÐ¸": 7902,
      "Ġworthy": 7903,
      "Ð·Ð°ÑĢÑĥÐ³Ð°": 7904,
      "Ð·Ð°ÑģÑĥÑĩÐ¸Ð²Ð°": 7905,
      "Ġquick": 7906,
      "Ð²ÑĭÑģÐºÐ°ÐºÐ¸Ð²Ð°": 7907,
      "AUFID": 7908,
      "Ð·Ð°ÑħÐ»ÐµÑģÑĤÐ½Ñĥ": 7909,
      "entleman": 7910,
      "Ġtrust": 7911,
      "Ð²ÑĭÐ¿ÑıÑĤÐ¸": 7912,
      "Ġalone": 7913,
      "Ð·Ð°Ð±Ð¸Ð½ÑĤÐ¾Ð²Ð°": 7914,
      "Ð°ÐºÑĥÑģÑĤÐ¾": 7915,
      "Ð²ÑĭÑĪÐ°Ð³Ð¸Ð²Ð°": 7916,
      "Ġdesire": 7917,
      "Ð·Ð°Ð¼ÐµÑĢÑı": 7918,
      "Ð²ÑĬÐµÐ´Ð°": 7919,
      "Ð²Ð¾Ð¿Ð»Ð¾ÑĤÐ¸": 7920,
      "Ð°Ð´ÑĢÐµÑģÐ¾Ð²Ð°": 7921,
      "Ð²ÑĩÐ¸ÑĤÑĭÐ²Ð°": 7922,
      "Ð±ÑĥÐ¹Ð²Ð¾": 7923,
      "Ð²Ð¾Ð·Ð¾Ð±Ð½Ð¾Ð²Ð¸": 7924,
      "Ð¶Ð¾Ð½Ð³Ð»Ð¸": 7925,
      "Ð²Ð·Ð»Ð¾ÑħÐ¼Ð°ÑĤÐ¸": 7926,
      "Ð·Ð°Ð»ÑıÐ¿ÑĭÐ²Ð°": 7927,
      "Ð²ÑģÐ¿ÑĭÑħÐ¸Ð²Ð°": 7928,
      "Ð²ÑĭÑīÐµÐ»ÐºÐ¸Ð²Ð°": 7929,
      "Ð°Ð¿ÐµÐ»ÑĮÑģÐ¸": 7930,
      "Ð³ÐµÑĢÐ¼ÐµÑĤÐ¸Ð·Ð¸ÑĢÐ¾Ð²Ð°": 7931,
      "Ð³Ð¸Ð´ÑĢÐ¾Ð»Ð¸Ð·Ð¾Ð²Ð°": 7932,
      "Ð±ÐµÑĢÑĳÐ·Ð¾": 7933,
      "Ð³ÐµÐ½ÐµÑĢÐ¸ÑĢÑĥ": 7934,
      "Ð³Ð¾ÑģÐ¿Ð¸ÑĤÐ°Ð»Ð¸Ð·Ð¸ÑĢÐ¾Ð²Ð°": 7935,
      "Ð²ÑĭÑģÑĤÐ¸Ð»Ð°": 7936,
      "Ð´Ð¾Ð¿ÑĢÐ¾ÑģÐ¸": 7937,
      "Ð°Ð½ÐºÐµÑĤÐ¸ÑĢÑĥ": 7938,
      "Ð²Ð¼ÐµÑĤÑĭÐ²Ð°": 7939,
      "Ð²ÑĭÐ¼ÐµÑĤÑĭÐ²Ð°": 7940,
      "Ð±Ð°ÑĢÐ°ÑħÑĤÐ°": 7941,
      "Ð²Ð¾ÐµÐ½Ð¸Ð·Ð¸ÑĢÐ¾Ð²Ð°": 7942,
      "Ð±Ð»Ð°Ð³Ð¾ÑĢÐ°Ð·Ñĥ": 7943,
      "Ð²ÑģÐ»ÑĥÑĪÐ¸Ð²Ð°": 7944,
      "Ð²ÑĭÐµÐ·Ð¶Ð¸Ð²Ð°": 7945,
      "Ð²ÑĭÐ½ÑĭÑĢÐ¸Ð²Ð°": 7946,
      "Ġinstru": 7947,
      "Ð°ÑĢÑĤÐ°ÑĩÐ¸": 7948,
      "Ð±Ð°Ð»ÑĮÐ½ÐµÐ¾": 7949,
      "Ġbeauty": 7950,
      "Ġservice": 7951,
      "Ð²ÑĭÐ¿ÐµÐ½Ð´ÑĢÐ¸Ð²Ð°": 7952,
      "Ð·Ð°ÑģÐºÐ¸ÑĢ": 7953,
      "Ð²Ð·Ð´ÑĢÐ°Ð³Ð¸Ð²Ð°": 7954,
      "Ð²ÑĭÐ·Ð´Ð¾ÑĢÐ°Ð²Ð»Ð¸Ð²Ð°": 7955,
      "Ð´Ð¾ÑĨÐµÐ¶Ð¸Ð²Ð°": 7956,
      "FLORIZ": 7957,
      "Ð²ÑĭÑīÑĳÐ»ÐºÐ¸Ð²Ð°": 7958,
      "AUFIDIUS": 7959,
      "FLORIZEL": 7960,
      "Can": 7961,
      "SE": 7962,
      "Tell": 7963,
      "VER": 7964,
      "gs": 7965,
      "ning": 7966,
      "ship": 7967,
      "with": 7968,
      "Ð°Ð¸": 7969,
      "Ð°ÑģÑĤÐµ": 7970,
      "Ð²Ð½Ð¾Ð³Ð¾": 7971,
      "Ð²Ð²ÐµÐ´": 7972,
      "Ð²Ð¼Ñı": 7973,
      "Ð²Ð´ÐµÑĢÐ½Ñĥ": 7974,
      "ÑĥÐ¿": 7975,
      "Ð·Ð°Ð¶Ð¸Ð²Ð°": 7976,
      "Ð²ÑĭÐ²ÐµÐ´": 7977,
      "Ð²ÑĭÐ¼ÐµÐ½Ñı": 7978,
      "Ð²ÑĭÐ»ÐµÑĤÐ°": 7979,
      "Ð²ÑĭÐ³Ð°Ð´Ð°": 7980,
      "Ð²ÑĭÐ»ÑĳÐ¶Ð¸Ð²Ð°": 7981,
      "ÑĩÐµÑĤÐ°": 7982,
      "ÑģÑĤÐµÐ½Ðµ": 7983,
      "Ð´Ð¾Ð·Ð°Ð¿ÑĢÐ°Ð²Ð¸": 7984,
      "Ð½Ð¸ÑĩÐµÑģÐºÐ¸Ð¹": 7985,
      "Ð»Ð¸Ðº": 7986,
      "Ġtouch": 7987,
      "Ð²Ð¸Ð±ÑĢÐ°": 7988,
      "Ð²Ð¸Ð´Ñı": 7989,
      "Ð²Ð¸Ð½Ð¾Ð²": 7990,
      "Ð²Ð¸Ð·Ð°Ð½": 7991,
      "Ð´Ð¸Ð»ÐµÑĤ": 7992,
      "Ð´Ð¸Ð²Ð¸Ð·Ð¸": 7993,
      "Ð±Ð°Ð³": 7994,
      "Ð±Ð°Ð³ÑĢÐ¸": 7995,
      "Ð³Ð°Ð»Ðµ": 7996,
      "Ð³Ð°Ð»Ñĥ": 7997,
      "Ð¼Ð¾Ð³Ð¾": 7998,
      "Ð²Ð·Ð±Ð¸": 7999,
      "Ð²Ð·Ð´ÐµÑĢÐ½Ñĥ": 8000,
      "Ð·Ð°Ð¿Ð»ÑĭÐ²Ð°": 8001,
      "Ð±ÑĥÐ·Ñĥ": 8002,
      "Ð·Ð¸Ð³": 8003,
      "Ð´ÑĥÐ½": 8004,
      "Ġfound": 8005,
      "ithe": 8006,
      "Ð¶Ð¸ÑĪÑĮ": 8007,
      "Ð²Ð¾Ð·Ð´ÐµÑĢÐ¶Ð°": 8008,
      "Ð²Ð¾Ð·Ð´ÐµÐ»Ð°": 8009,
      "ÑīÐ¸ÑĨ": 8010,
      "Ð²ÑĭÐ²Ð°Ð¶Ð¸Ð²Ð°": 8011,
      "Ð·Ð°ÑģÐ¼Ð°ÑĤÑĢÐ¸Ð²Ð°": 8012,
      "Ð»Ð¸Ð²Ð°Ñı": 8013,
      "ĠIs": 8014,
      "Ð°ÑĢÑĤÑĢÐ¸": 8015,
      "Ð°ÑĢÐ³ÐµÐ½": 8016,
      "Ð²ÑĭÑģÐ¿ÑĢÐ¾": 8017,
      "Ð²ÑĭÑģÑĭÑħÐ°": 8018,
      "Ð³ÐµÐ³ÐµÐ¼Ð¾": 8019,
      "Ð·Ð°ÐºÐ¾Ð½ÑĩÐ¸": 8020,
      "ÐºÐ°Ð¼ÐµÑĢ": 8021,
      "Ð±Ð»Ð°Ð³Ð¾Ð¶ÐµÐ»Ð°": 8022,
      "Ð³Ð¾ÑĢÑĮ": 8023,
      "Ð³Ð¾ÑĢÐ±Ð°ÑĤÐ¸": 8024,
      "Ð³Ð»Ð°Ð·Ñĭ": 8025,
      "Ð³ÑĢÑĥÑĪÐµ": 8026,
      "Ð²Ð¿Ð°Ñı": 8027,
      "ÑĨÐ¸Ð¾Ð·": 8028,
      "adam": 8029,
      "Ð·Ð°ÑĪÐ»Ð¸ÑĦÐ¾": 8030,
      "Ð·Ð°ÑĪÐ¿Ð°Ðº": 8031,
      "Ð²ÑĭÑĤÑĢÐ°Ð²Ð¸": 8032,
      "Ð²Ð¾Ð»Ð¾ÑģÐ°": 8033,
      "Ġready": 8034,
      "Ð²ÑĢÐ°ÑģÑĤÐ°": 8035,
      "ION": 8036,
      "ÑĤÐµÐ»ÑĮÐ½Ð¾ÑģÑĤÐ¸": 8037,
      "ÑĤÐµÐ»ÑĮÐ½Ð¾ÑģÑĤÑĮÑİ": 8038,
      "Ð³Ð°ÑĢÐ´ÐµÑĢÐ¾": 8039,
      "ÑģÑĤÐ²Ð¾Ð²Ð°Ð»Ð°": 8040,
      "Ð¿ÑĢÐ¸ÑĳÐ¼": 8041,
      "ÐµÑĤÐ¾Ð¼": 8042,
      "Ð´Ð¾Ð¿Ð°Ñı": 8043,
      "Ð²ÑĳÐ·Ð´": 8044,
      "Ð·Ð°Ð±Ð»Ðµ": 8045,
      "Ð²ÑĭÐºÐ¾Ð²ÑĭÑĢÑı": 8046,
      "Ð°Ð±ÑħÐ°": 8047,
      "Ð²Ð¾Ð»Ð³Ð¾": 8048,
      "ÐµÐ²ÑĢÐµÐ¹": 8049,
      "Ð²ÑĭÐ¼Ð¸ÑĢÐ°": 8050,
      "Ð»ÐµÑģÐ¾": 8051,
      "Ð²ÑĭÑĢÐ°ÑģÑĤÐ°": 8052,
      "Ð·Ð°Ð¿ÑĢÐ¾ÑģÐ¸": 8053,
      "Ð·Ð°Ð¿ÑĢÐ¾ÐµÐº": 8054,
      "Ð·Ð°Ð²Ð¸ÑģÐ¸": 8055,
      "Ð·Ð°Ð´ÑĥÐ±Ð»Ð¸": 8056,
      "ÐºÑĢÐ°ÑģÐ¾": 8057,
      "Ð²ÑĭÐ¼Ð¾Ð»Ð°ÑĩÐ¸Ð²Ð°": 8058,
      "Ð´Ð¾ÐºÐ°Ð¿ÑĭÐ²Ð°": 8059,
      "Ð´Ð¾ÐºÑĥÑĢÐ¸Ð²Ð°": 8060,
      "Ð²ÑģÐºÐ¾Ð»Ñĭ": 8061,
      "Ð²ÐºÐ°ÑĤÐ¸": 8062,
      "Ð²ÐºÐ°Ð»ÑĭÐ²Ð°": 8063,
      "Ð´Ð¾Ð¼ÑĭÐ²Ð°": 8064,
      "Ð²Ð¾ÑĩÐ½ÑĭÐ¹": 8065,
      "Ð¿Ð°Ð½Ð½ÑĭÐ¹": 8066,
      "Ð³Ð°Ð»ÐµÑĢ": 8067,
      "Ð·Ð°ÑĢÐµÐ·ÐµÑĢ": 8068,
      "Ð²ÑĭÑĩÐ¸ÑīÐ°": 8069,
      "Ð²ÑĭÑĢÑĥÐ±Ð¸": 8070,
      "Ð°ÑĢÐ¸ÑĦ": 8071,
      "Ġbrought": 8072,
      "Ð²ÑĢÑĥÐ±Ð¸": 8073,
      "ured": 8074,
      "Ð´ÐµÐ·Ð¾Ð´Ð¾ÑĢÐ¸": 8075,
      "Ð·Ð°ÑĤÐ¸ÑħÐ°": 8076,
      "Ð·Ð°Ð¾ÑģÑĤÑĢÐ¸": 8077,
      "Ġposs": 8078,
      "Ð²ÑĭÐ»ÑĥÐ¿Ð»Ñı": 8079,
      "Ð²ÑĭÐ¿Ð¾ÑĤÑĢÐ¾": 8080,
      "Ð²ÑĭÑĩÐ»ÐµÐ½Ð¸": 8081,
      "Ð´Ð¾ÐºÑĥÐ¼ÐµÐ½ÑĤÐ°": 8082,
[...]
